{
  "version": "1.0",
  "truncation": null,
  "padding": null,
  "added_tokens": [
    {
      "id": 0,
      "content": "[UNK]",
      "single_word": false,
      "lstrip": false,
      "rstrip": false,
      "normalized": false,
      "special": true
    },
    {
      "id": 1,
      "content": "[CLS]",
      "single_word": false,
      "lstrip": false,
      "rstrip": false,
      "normalized": false,
      "special": true
    },
    {
      "id": 2,
      "content": "[SEP]",
      "single_word": false,
      "lstrip": false,
      "rstrip": false,
      "normalized": false,
      "special": true
    },
    {
      "id": 3,
      "content": "[PAD]",
      "single_word": false,
      "lstrip": false,
      "rstrip": false,
      "normalized": false,
      "special": true
    },
    {
      "id": 4,
      "content": "[MASK]",
      "single_word": false,
      "lstrip": false,
      "rstrip": false,
      "normalized": false,
      "special": true
    }
  ],
  "normalizer": null,
  "pre_tokenizer": {
    "type": "Whitespace"
  },
  "post_processor": null,
  "decoder": null,
  "model": {
    "type": "BPE",
    "dropout": null,
    "unk_token": "[UNK]",
    "continuing_subword_prefix": null,
    "end_of_word_suffix": null,
    "fuse_unk": false,
    "byte_fallback": false,
    "ignore_merges": false,
    "vocab": {
      "[UNK]": 0,
      "[CLS]": 1,
      "[SEP]": 2,
      "[PAD]": 3,
      "[MASK]": 4,
      "a": 5,
      "b": 6,
      "c": 7,
      "d": 8,
      "e": 9,
      "f": 10,
      "g": 11,
      "h": 12,
      "i": 13,
      "j": 14,
      "k": 15,
      "l": 16,
      "m": 17,
      "n": 18,
      "o": 19,
      "p": 20,
      "q": 21,
      "r": 22,
      "s": 23,
      "t": 24,
      "u": 25,
      "v": 26,
      "w": 27,
      "x": 28,
      "y": 29,
      "z": 30,
      "to": 31,
      "th": 32,
      "ou": 33,
      "in": 34,
      "you": 35,
      "re": 36,
      "tom": 37,
      "at": 38,
      "an": 39,
      "the": 40,
      "on": 41,
      "is": 42,
      "ve": 43,
      "me": 44,
      "he": 45,
      "ing": 46,
      "as": 47,
      "ed": 48,
      "ll": 49,
      "ar": 50,
      "do": 51,
      "it": 52,
      "no": 53,
      "or": 54,
      "that": 55,
      "st": 56,
      "le": 57,
      "id": 58,
      "er": 59,
      "en": 60,
      "wh": 61,
      "ha": 62,
      "we": 63,
      "be": 64,
      "ld": 65,
      "go": 66,
      "ay": 67,
      "li": 68,
      "se": 69,
      "ke": 70,
      "was": 71,
      "ho": 72,
      "did": 73,
      "now": 74,
      "don": 75,
      "ver": 76,
      "of": 77,
      "wi": 78,
      "ro": 79,
      "ne": 80,
      "ch": 81,
      "al": 82,
      "are": 83,
      "ant": 84,
      "have": 85,
      "know": 86,
      "for": 87,
      "what": 88,
      "this": 89,
      "lo": 90,
      "all": 91,
      "one": 92,
      "gh": 93,
      "want": 94,
      "es": 95,
      "mar": 96,
      "can": 97,
      "ad": 98,
      "bo": 99,
      "ri": 100,
      "so": 101,
      "te": 102,
      "your": 103,
      "ti": 104,
      "my": 105,
      "ould": 106,
      "and": 107,
      "ght": 108,
      "mary": 109,
      "ink": 110,
      "co": 111,
      "us": 112,
      "here": 113,
      "out": 114,
      "ge": 115,
      "ab": 116,
      "ly": 117,
      "ac": 118,
      "think": 119,
      "any": 120,
      "very": 121,
      "with": 122,
      "thing": 123,
      "like": 124,
      "didn": 125,
      "ok": 126,
      "un": 127,
      "how": 128,
      "not": 129,
      "mo": 130,
      "ce": 131,
      "pe": 132,
      "pp": 133,
      "ther": 134,
      "day": 135,
      "sa": 136,
      "his": 137,
      "ust": 138,
      "su": 139,
      "fe": 140,
      "ir": 141,
      "ter": 142,
      "sto": 143,
      "tr": 144,
      "ake": 145,
      "some": 146,
      "im": 147,
      "there": 148,
      "ic": 149,
      "about": 150,
      "why": 151,
      "wor": 152,
      "ain": 153,
      "has": 154,
      "get": 155,
      "tell": 156,
      "ple": 157,
      "going": 158,
      "time": 159,
      "does": 160,
      "pl": 161,
      "if": 162,
      "need": 163,
      "sh": 164,
      "were": 165,
      "will": 166,
      "who": 167,
      "ut": 168,
      "hel": 169,
      "ion": 170,
      "help": 171,
      "ent": 172,
      "ye": 173,
      "happ": 174,
      "up": 175,
      "she": 176,
      "every": 177,
      "told": 178,
      "ra": 179,
      "let": 180,
      "ong": 181,
      "ren": 182,
      "ur": 183,
      "would": 184,
      "end": 185,
      "ought": 186,
      "read": 187,
      "alk": 188,
      "see": 189,
      "ag": 190,
      "po": 191,
      "de": 192,
      "where": 193,
      "od": 194,
      "ry": 195,
      "they": 196,
      "way": 197,
      "ally": 198,
      "him": 199,
      "am": 200,
      "had": 201,
      "ate": 202,
      "ill": 203,
      "ex": 204,
      "ree": 205,
      "ive": 206,
      "look": 207,
      "ind": 208,
      "come": 209,
      "pro": 210,
      "ask": 211,
      "her": 212,
      "ak": 213,
      "new": 214,
      "ame": 215,
      "whe": 216,
      "work": 217,
      "should": 218,
      "ston": 219,
      "boston": 220,
      "dy": 221,
      "won": 222,
      "said": 223,
      "could": 224,
      "ave": 225,
      "red": 226,
      "got": 227,
      "ase": 228,
      "talk": 229,
      "never": 230,
      "take": 231,
      "than": 232,
      "ack": 233,
      "doesn": 234,
      "fo": 235,
      "der": 236,
      "qu": 237,
      "happen": 238,
      "ten": 239,
      "ast": 240,
      "nt": 241,
      "ss": 242,
      "just": 243,
      "when": 244,
      "more": 245,
      "say": 246,
      "au": 247,
      "been": 248,
      "isn": 249,
      "uch": 250,
      "ard": 251,
      "our": 252,
      "lf": 253,
      "thought": 254,
      "ight": 255,
      "mis": 256,
      "eve": 257,
      "please": 258,
      "fro": 259,
      "home": 260,
      "good": 261,
      "ct": 262,
      "much": 263,
      "by": 264,
      "con": 265,
      "com": 266,
      "from": 267,
      "ul": 268,
      "ble": 269,
      "too": 270,
      "body": 271,
      "row": 272,
      "per": 273,
      "bu": 274,
      "ep": 275,
      "really": 276,
      "ide": 277,
      "art": 278,
      "ready": 279,
      "rench": 280,
      "french": 281,
      "el": 282,
      "af": 283,
      "eat": 284,
      "car": 285,
      "oun": 286,
      "call": 287,
      "back": 288,
      "sp": 289,
      "give": 290,
      "il": 291,
      "ried": 292,
      "wa": 293,
      "something": 294,
      "sc": 295,
      "self": 296,
      "spe": 297,
      "able": 298,
      "ish": 299,
      "wr": 300,
      "wait": 301,
      "jo": 302,
      "wn": 303,
      "anything": 304,
      "win": 305,
      "riend": 306,
      "ous": 307,
      "mb": 308,
      "long": 309,
      "fa": 310,
      "ck": 311,
      "live": 312,
      "pre": 313,
      "leave": 314,
      "still": 315,
      "ite": 316,
      "wanted": 317,
      "om": 318,
      "today": 319,
      "right": 320,
      "lot": 321,
      "ning": 322,
      "three": 323,
      "sure": 324,
      "stay": 325,
      "book": 326,
      "ound": 327,
      "di": 328,
      "oney": 329,
      "ang": 330,
      "ting": 331,
      "off": 332,
      "friend": 333,
      "love": 334,
      "try": 335,
      "money": 336,
      "make": 337,
      "ans": 338,
      "wasn": 339,
      "but": 340,
      "ol": 341,
      "again": 342,
      "bus": 343,
      "ig": 344,
      "under": 345,
      "bet": 346,
      "last": 347,
      "buy": 348,
      "pen": 349,
      "ty": 350,
      "only": 351,
      "orrow": 352,
      "knew": 353,
      "ation": 354,
      "wat": 355,
      "gl": 356,
      "speak": 357,
      "doing": 358,
      "already": 359,
      "play": 360,
      "many": 361,
      "ice": 362,
      "room": 363,
      "pr": 364,
      "stand": 365,
      "ars": 366,
      "ine": 367,
      "other": 368,
      "ways": 369,
      "ft": 370,
      "asked": 371,
      "dr": 372,
      "ild": 373,
      "ouse": 374,
      "find": 375,
      "ap": 376,
      "always": 377,
      "happened": 378,
      "fore": 379,
      "ick": 380,
      "old": 381,
      "ving": 382,
      "est": 383,
      "ort": 384,
      "house": 385,
      "hed": 386,
      "ople": 387,
      "people": 388,
      "mad": 389,
      "better": 390,
      "tomorrow": 391,
      "left": 392,
      "night": 393,
      "wer": 394,
      "may": 395,
      "man": 396,
      "aust": 397,
      "stu": 398,
      "rali": 399,
      "australi": 400,
      "urn": 401,
      "mber": 402,
      "australia": 403,
      "put": 404,
      "beli": 405,
      "ful": 406,
      "used": 407,
      "wo": 408,
      "ist": 409,
      "tru": 410,
      "everything": 411,
      "knows": 412,
      "gu": 413,
      "rest": 414,
      "hope": 415,
      "believe": 416,
      "went": 417,
      "ever": 418,
      "them": 419,
      "plan": 420,
      "br": 421,
      "ster": 422,
      "ach": 423,
      "bro": 424,
      "came": 425,
      "clo": 426,
      "made": 427,
      "child": 428,
      "ass": 429,
      "late": 430,
      "quest": 431,
      "tion": 432,
      "leep": 433,
      "done": 434,
      "fi": 435,
      "son": 436,
      "ure": 437,
      "understand": 438,
      "must": 439,
      "before": 440,
      "question": 441,
      "mon": 442,
      "cle": 443,
      "tle": 444,
      "well": 445,
      "wee": 446,
      "turn": 447,
      "whi": 448,
      "ough": 449,
      "lu": 450,
      "down": 451,
      "blem": 452,
      "problem": 453,
      "yester": 454,
      "yesterday": 455,
      "most": 456,
      "scho": 457,
      "care": 458,
      "act": 459,
      "alone": 460,
      "school": 461,
      "saw": 462,
      "name": 463,
      "dec": 464,
      "ess": 465,
      "age": 466,
      "happy": 467,
      "week": 468,
      "father": 469,
      "yet": 470,
      "dog": 471,
      "hand": 472,
      "feel": 473,
      "stop": 474,
      "lit": 475,
      "ie": 476,
      "che": 477,
      "ph": 478,
      "wants": 479,
      "ace": 480,
      "sing": 481,
      "start": 482,
      "wrong": 483,
      "sho": 484,
      "dis": 485,
      "reme": 486,
      "aren": 487,
      "over": 488,
      "everyone": 489,
      "xt": 490,
      "both": 491,
      "sed": 492,
      "ted": 493,
      "app": 494,
      "iz": 495,
      "use": 496,
      "open": 497,
      "arn": 498,
      "ts": 499,
      "ment": 500,
      "rive": 501,
      "door": 502,
      "anyone": 503,
      "fin": 504,
      "sit": 505,
      "nothing": 506,
      "show": 507,
      "friends": 508,
      "dif": 509,
      "chan": 510,
      "cat": 511,
      "tor": 512,
      "drink": 513,
      "sur": 514,
      "mor": 515,
      "gre": 516,
      "job": 517,
      "after": 518,
      "next": 519,
      "married": 520,
      "wouldn": 521,
      "into": 522,
      "little": 523,
      "else": 524,
      "years": 525,
      "pect": 526,
      "mee": 527,
      "pare": 528,
      "irst": 529,
      "sm": 530,
      "haven": 531,
      "mother": 532,
      "ow": 533,
      "dre": 534,
      "these": 535,
      "ark": 536,
      "remember": 537,
      "bought": 538,
      "sleep": 539,
      "ear": 540,
      "hard": 541,
      "children": 542,
      "gr": 543,
      "soon": 544,
      "often": 545,
      "vis": 546,
      "bl": 547,
      "pris": 548,
      "raid": 549,
      "seen": 550,
      "afraid": 551,
      "ru": 552,
      "found": 553,
      "away": 554,
      "busy": 555,
      "hun": 556,
      "bed": 557,
      "tic": 558,
      "pa": 559,
      "looking": 560,
      "couldn": 561,
      "anymore": 562,
      "even": 563,
      "answer": 564,
      "aught": 565,
      "ner": 566,
      "walk": 567,
      "gave": 568,
      "first": 569,
      "ious": 570,
      "phone": 571,
      "wear": 572,
      "port": 573,
      "hur": 574,
      "seem": 575,
      "thank": 576,
      "watch": 577,
      "keep": 578,
      "life": 579,
      "took": 580,
      "same": 581,
      "tired": 582,
      "heard": 583,
      "idea": 584,
      "sor": 585,
      "hear": 586,
      "youn": 587,
      "promis": 588,
      "two": 589,
      "without": 590,
      "nobody": 591,
      "nts": 592,
      "enough": 593,
      "bre": 594,
      "ually": 595,
      "ary": 596,
      "gir": 597,
      "young": 598,
      "morning": 599,
      "side": 600,
      "ated": 601,
      "pt": 602,
      "rain": 603,
      "water": 604,
      "lt": 605,
      "says": 606,
      "bad": 607,
      "min": 608,
      "parents": 609,
      "sorry": 610,
      "la": 611,
      "which": 612,
      "kill": 613,
      "lost": 614,
      "someone": 615,
      "plain": 616,
      "sent": 617,
      "cer": 618,
      "almost": 619,
      "things": 620,
      "yourself": 621,
      "wish": 622,
      "tried": 623,
      "bab": 624,
      "cho": 625,
      "learn": 626,
      "eas": 627,
      "ran": 628,
      "glad": 629,
      "pic": 630,
      "part": 631,
      "lis": 632,
      "cou": 633,
      "mind": 634,
      "ers": 635,
      "forget": 636,
      "ose": 637,
      "fam": 638,
      "brother": 639,
      "times": 640,
      "med": 641,
      "waiting": 642,
      "bor": 643,
      "ity": 644,
      "swi": 645,
      "talking": 646,
      "swim": 647,
      "fee": 648,
      "surpris": 649,
      "bit": 650,
      "ily": 651,
      "listen": 652,
      "ket": 653,
      "log": 654,
      "fic": 655,
      "everybody": 656,
      "key": 657,
      "hour": 658,
      "wonder": 659,
      "person": 660,
      "men": 661,
      "des": 662,
      "year": 663,
      "teac": 664,
      "int": 665,
      "ses": 666,
      "cl": 667,
      "died": 668,
      "hung": 669,
      "likes": 670,
      "expect": 671,
      "mistake": 672,
      "mat": 673,
      "cold": 674,
      "truth": 675,
      "mp": 676,
      "myself": 677,
      "days": 678,
      "kind": 679,
      "big": 680,
      "ian": 681,
      "pret": 682,
      "lice": 683,
      "les": 684,
      "study": 685,
      "ser": 686,
      "ided": 687,
      "teacher": 688,
      "inte": 689,
      "light": 690,
      "acc": 691,
      "best": 692,
      "interest": 693,
      "ence": 694,
      "beg": 695,
      "pu": 696,
      "fast": 697,
      "flo": 698,
      "ced": 699,
      "their": 700,
      "thir": 701,
      "himself": 702,
      "vor": 703,
      "hair": 704,
      "true": 705,
      "ible": 706,
      "ies": 707,
      "cof": 708,
      "ater": 709,
      "forgot": 710,
      "coffee": 711,
      "air": 712,
      "kid": 713,
      "doc": 714,
      "place": 715,
      "change": 716,
      "break": 717,
      "shouldn": 718,
      "ath": 719,
      "cre": 720,
      "anybody": 721,
      "trust": 722,
      "ta": 723,
      "agree": 724,
      "toge": 725,
      "together": 726,
      "ved": 727,
      "started": 728,
      "letter": 729,
      "hungry": 730,
      "coming": 731,
      "boy": 732,
      "police": 733,
      "dress": 734,
      "decided": 735,
      "train": 736,
      "looks": 737,
      "sis": 738,
      "ize": 739,
      "table": 740,
      "ture": 741,
      "miss": 742,
      "mer": 743,
      "ago": 744,
      "needs": 745,
      "mov": 746,
      "ance": 747,
      "ished": 748,
      "fu": 749,
      "books": 750,
      "park": 751,
      "supp": 752,
      "trying": 753,
      "early": 754,
      "another": 755,
      "dow": 756,
      "pay": 757,
      "word": 758,
      "ince": 759,
      "cook": 760,
      "aking": 761,
      "arm": 762,
      "called": 763,
      "picture": 764,
      "few": 765,
      "feren": 766,
      "write": 767,
      "bir": 768,
      "girl": 769,
      "igh": 770,
      "run": 771,
      "sick": 772,
      "drive": 773,
      "sister": 774,
      "working": 775,
      "each": 776,
      "window": 777,
      "auti": 778,
      "looked": 779,
      "fun": 780,
      "questions": 781,
      "din": 782,
      "doctor": 783,
      "lau": 784,
      "beauti": 785,
      "mine": 786,
      "being": 787,
      "beautiful": 788,
      "pain": 789,
      "vo": 790,
      "llow": 791,
      "visit": 792,
      "cau": 793,
      "getting": 794,
      "wife": 795,
      "cry": 796,
      "pped": 797,
      "easy": 798,
      "differen": 799,
      "surprised": 800,
      "sk": 801,
      "yes": 802,
      "met": 803,
      "writ": 804,
      "arrive": 805,
      "around": 806,
      "diffic": 807,
      "difficul": 808,
      "ju": 809,
      "usually": 810,
      "apo": 811,
      "own": 812,
      "meeting": 813,
      "inv": 814,
      "gone": 815,
      "river": 816,
      "less": 817,
      "cause": 818,
      "head": 819,
      "set": 820,
      "dent": 821,
      "je": 822,
      "apolog": 823,
      "food": 824,
      "while": 825,
      "meet": 826,
      "ip": 827,
      "family": 828,
      "favor": 829,
      "ared": 830,
      "explain": 831,
      "unti": 832,
      "dinner": 833,
      "hate": 834,
      "fish": 835,
      "len": 836,
      "sun": 837,
      "ident": 838,
      "ign": 839,
      "ball": 840,
      "ber": 841,
      "might": 842,
      "import": 843,
      "promise": 844,
      "pass": 845,
      "those": 846,
      "monday": 847,
      "wearing": 848,
      "cont": 849,
      "until": 850,
      "needed": 851,
      "ither": 852,
      "box": 853,
      "full": 854,
      "angry": 855,
      "tonight": 856,
      "later": 857,
      "ger": 858,
      "si": 859,
      "mus": 860,
      "tv": 861,
      "oud": 862,
      "hat": 863,
      "exact": 864,
      "yours": 865,
      "probab": 866,
      "poss": 867,
      "difficult": 868,
      "follow": 869,
      "pri": 870,
      "probably": 871,
      "lun": 872,
      "thirty": 873,
      "such": 874,
      "nu": 875,
      "matter": 876,
      "longer": 877,
      "month": 878,
      "jap": 879,
      "japan": 880,
      "ital": 881,
      "fire": 882,
      "engl": 883,
      "lives": 884,
      "cor": 885,
      "seems": 886,
      "str": 887,
      "ked": 888,
      "important": 889,
      "hours": 890,
      "mean": 891,
      "hasn": 892,
      "mit": 893,
      "gest": 894,
      "turned": 895,
      "sug": 896,
      "sat": 897,
      "because": 898,
      "ot": 899,
      "cked": 900,
      "adv": 901,
      "ise": 902,
      "student": 903,
      "chang": 904,
      "exactly": 905,
      "lve": 906,
      "english": 907,
      "since": 908,
      "ank": 909,
      "class": 910,
      "pretty": 911,
      "fix": 912,
      "hurt": 913,
      "op": 914,
      "stup": 915,
      "living": 916,
      "utes": 917,
      "movie": 918,
      "lunch": 919,
      "party": 920,
      "stupid": 921,
      "ason": 922,
      "minutes": 923,
      "ref": 924,
      "cess": 925,
      "kis": 926,
      "anger": 927,
      "du": 928,
      "once": 929,
      "snow": 930,
      "close": 931,
      "maybe": 932,
      "possible": 933,
      "music": 934,
      "worry": 935,
      "mmer": 936,
      "helped": 937,
      "gg": 938,
      "unk": 939,
      "shoes": 940,
      "tall": 941,
      "sus": 942,
      "ating": 943,
      "cut": 944,
      "free": 945,
      "killed": 946,
      "die": 947,
      "lived": 948,
      "cost": 949,
      "ci": 950,
      "chance": 951,
      "hn": 952,
      "bring": 953,
      "sha": 954,
      "ycle": 955,
      "john": 956,
      "far": 957,
      "favorite": 958,
      "cus": 959,
      "great": 960,
      "thinks": 961,
      "press": 962,
      "oc": 963,
      "grand": 964,
      "allow": 965,
      "cert": 966,
      "rich": 967,
      "conv": 968,
      "liked": 969,
      "reading": 970,
      "small": 971,
      "count": 972,
      "luck": 973,
      "ction": 974,
      "pick": 975,
      "quite": 976,
      "fell": 977,
      "asleep": 978,
      "ited": 979,
      "eyes": 980,
      "tre": 981,
      "makes": 982,
      "number": 983,
      "hands": 984,
      "lie": 985,
      "broke": 986,
      "asses": 987,
      "joy": 988,
      "world": 989,
      "daught": 990,
      "lic": 991,
      "near": 992,
      "canad": 993,
      "born": 994,
      "ail": 995,
      "doll": 996,
      "homework": 997,
      "accident": 998,
      "reason": 999,
      "hor": 1000,
      "weren": 1001,
      "playing": 1002,
      "lying": 1003,
      "ca": 1004,
      "ring": 1005,
      "wash": 1006,
      "wine": 1007,
      "hosp": 1008,
      "laugh": 1009,
      "careful": 1010,
      "having": 1011,
      "likely": 1012,
      "wake": 1013,
      "safe": 1014,
      "stree": 1015,
      "clean": 1016,
      "older": 1017,
      "lea": 1018,
      "spend": 1019,
      "decis": 1020,
      "felt": 1021,
      "finished": 1022,
      "somebody": 1023,
      "low": 1024,
      "ately": 1025,
      "secre": 1026,
      "fer": 1027,
      "kids": 1028,
      "zy": 1029,
      "summer": 1030,
      "song": 1031,
      "whether": 1032,
      "enjoy": 1033,
      "road": 1034,
      "den": 1035,
      "sign": 1036,
      "hospital": 1037,
      "decision": 1038,
      "nice": 1039,
      "ste": 1040,
      "hurry": 1041,
      "hu": 1042,
      "mil": 1043,
      "par": 1044,
      "different": 1045,
      "ob": 1046,
      "birth": 1047,
      "irt": 1048,
      "flower": 1049,
      "hot": 1050,
      "sive": 1051,
      "ched": 1052,
      "interesting": 1053,
      "bic": 1054,
      "ps": 1055,
      "thes": 1056,
      "led": 1057,
      "clothes": 1058,
      "law": 1059,
      "apologize": 1060,
      "ding": 1061,
      "expen": 1062,
      "danger": 1063,
      "serious": 1064,
      "changed": 1065,
      "oking": 1066,
      "story": 1067,
      "game": 1068,
      "drunk": 1069,
      "planning": 1070,
      "quick": 1071,
      "umb": 1072,
      "alth": 1073,
      "suc": 1074,
      "att": 1075,
      "talked": 1076,
      "outside": 1077,
      "tree": 1078,
      "town": 1079,
      "bicycle": 1080,
      "street": 1081,
      "advice": 1082,
      "promised": 1083,
      "eating": 1084,
      "daughter": 1085,
      "milk": 1086,
      "ended": 1087,
      "dead": 1088,
      "bag": 1089,
      "range": 1090,
      "arrived": 1091,
      "ven": 1092,
      "fr": 1093,
      "feeling": 1094,
      "leaving": 1095,
      "tri": 1096,
      "ouble": 1097,
      "ele": 1098,
      "tea": 1099,
      "worried": 1100,
      "comp": 1101,
      "loves": 1102,
      "lar": 1103,
      "sell": 1104,
      "lose": 1105,
      "strong": 1106,
      "mas": 1107,
      "station": 1108,
      "fect": 1109,
      "breakfast": 1110,
      "caught": 1111,
      "spo": 1112,
      "paid": 1113,
      "expensive": 1114,
      "tel": 1115,
      "rell": 1116,
      "ense": 1117,
      "rote": 1118,
      "wrote": 1119,
      "scared": 1120,
      "then": 1121,
      "ather": 1122,
      "iness": 1123,
      "finish": 1124,
      "tely": 1125,
      "umbrell": 1126,
      "coun": 1127,
      "sal": 1128,
      "hotel": 1129,
      "office": 1130,
      "either": 1131,
      "become": 1132,
      "works": 1133,
      "suspect": 1134,
      "hid": 1135,
      "test": 1136,
      "hi": 1137,
      "ces": 1138,
      "strange": 1139,
      "news": 1140,
      "secret": 1141,
      "wall": 1142,
      "lang": 1143,
      "osed": 1144,
      "pat": 1145,
      "teach": 1146,
      "problems": 1147,
      "langu": 1148,
      "ient": 1149,
      "exam": 1150,
      "dark": 1151,
      "glasses": 1152,
      "thanks": 1153,
      "fau": 1154,
      "comple": 1155,
      "octo": 1156,
      "umbrella": 1157,
      "watching": 1158,
      "guy": 1159,
      "birthday": 1160,
      "begin": 1161,
      "october": 1162,
      "hop": 1163,
      "city": 1164,
      "als": 1165,
      "ali": 1166,
      "war": 1167,
      "chr": 1168,
      "compu": 1169,
      "proud": 1170,
      "suggest": 1171,
      "computer": 1172,
      "dro": 1173,
      "telling": 1174,
      "baby": 1175,
      "move": 1176,
      "rough": 1177,
      "inter": 1178,
      "present": 1179,
      "emp": 1180,
      "making": 1181,
      "ross": 1182,
      "supposed": 1183,
      "ward": 1184,
      "reco": 1185,
      "weather": 1186,
      "wom": 1187,
      "ship": 1188,
      "woman": 1189,
      "hes": 1190,
      "country": 1191,
      "cup": 1192,
      "suit": 1193,
      "trouble": 1194,
      "black": 1195,
      "shirt": 1196,
      "hadn": 1197,
      "band": 1198,
      "cent": 1199,
      "vi": 1200,
      "iled": 1201,
      "canadian": 1202,
      "appo": 1203,
      "build": 1204,
      "dollars": 1205,
      "fight": 1206,
      "dou": 1207,
      "rect": 1208,
      "aken": 1209,
      "saying": 1210,
      "dream": 1211,
      "spent": 1212,
      "ese": 1213,
      "ken": 1214,
      "list": 1215,
      "trans": 1216,
      "cr": 1217,
      "doub": 1218,
      "cap": 1219,
      "face": 1220,
      "fault": 1221,
      "fall": 1222,
      "leg": 1223,
      "guess": 1224,
      "brought": 1225,
      "thinking": 1226,
      "blu": 1227,
      "nis": 1228,
      "taken": 1229,
      "borrow": 1230,
      "form": 1231,
      "store": 1232,
      "tennis": 1233,
      "keys": 1234,
      "kept": 1235,
      "complain": 1236,
      "quickly": 1237,
      "christ": 1238,
      "cept": 1239,
      "missed": 1240,
      "loved": 1241,
      "flowers": 1242,
      "col": 1243,
      "choice": 1244,
      "lucky": 1245,
      "rel": 1246,
      "plane": 1247,
      "christmas": 1248,
      "kn": 1249,
      "mou": 1250,
      "ton": 1251,
      "stayed": 1252,
      "stood": 1253,
      "evening": 1254,
      "broken": 1255,
      "bi": 1256,
      "blame": 1257,
      "five": 1258,
      "regre": 1259,
      "driver": 1260,
      "land": 1261,
      "order": 1262,
      "ute": 1263,
      "tele": 1264,
      "cra": 1265,
      "became": 1266,
      "catch": 1267,
      "hind": 1268,
      "taking": 1269,
      "nor": 1270,
      "plans": 1271,
      "quit": 1272,
      "um": 1273,
      "noon": 1274,
      "forgive": 1275,
      "sometimes": 1276,
      "cond": 1277,
      "gard": 1278,
      "ons": 1279,
      "anywhere": 1280,
      "behind": 1281,
      "ush": 1282,
      "whole": 1283,
      "closed": 1284,
      "weekend": 1285,
      "smar": 1286,
      "health": 1287,
      "through": 1288,
      "goes": 1289,
      "team": 1290,
      "discus": 1291,
      "stopped": 1292,
      "worked": 1293,
      "fully": 1294,
      "touch": 1295,
      "beer": 1296,
      "six": 1297,
      "ized": 1298,
      "students": 1299,
      "trave": 1300,
      "hit": 1301,
      "ze": 1302,
      "ins": 1303,
      "ative": 1304,
      "known": 1305,
      "tention": 1306,
      "business": 1307,
      "case": 1308,
      "began": 1309,
      "ming": 1310,
      "younger": 1311,
      "interested": 1312,
      "heart": 1313,
      "smoking": 1314,
      "fas": 1315,
      "agre": 1316,
      "lfriend": 1317,
      "girlfriend": 1318,
      "sad": 1319,
      "ased": 1320,
      "gn": 1321,
      "ience": 1322,
      "happens": 1323,
      "lle": 1324,
      "coat": 1325,
      "teen": 1326,
      "sim": 1327,
      "perfect": 1328,
      "pie": 1329,
      "smo": 1330,
      "mes": 1331,
      "cal": 1332,
      "sound": 1333,
      "ries": 1334,
      "grow": 1335,
      "hus": 1336,
      "high": 1337,
      "half": 1338,
      "hold": 1339,
      "sport": 1340,
      "pur": 1341,
      "deser": 1342,
      "studying": 1343,
      "ants": 1344,
      "husband": 1345,
      "prison": 1346,
      "lied": 1347,
      "desk": 1348,
      "comes": 1349,
      "crying": 1350,
      "empty": 1351,
      "regret": 1352,
      "cli": 1353,
      "dic": 1354,
      "gen": 1355,
      "white": 1356,
      "lent": 1357,
      "tive": 1358,
      "arrest": 1359,
      "bot": 1360,
      "cake": 1361,
      "correct": 1362,
      "dra": 1363,
      "eaten": 1364,
      "ded": 1365,
      "inion": 1366,
      "invited": 1367,
      "opinion": 1368,
      "joke": 1369,
      "clear": 1370,
      "blue": 1371,
      "moved": 1372,
      "opened": 1373,
      "mistakes": 1374,
      "ff": 1375,
      "speaks": 1376,
      "exc": 1377,
      "ject": 1378,
      "color": 1379,
      "aur": 1380,
      "restaur": 1381,
      "convin": 1382,
      "fair": 1383,
      "gra": 1384,
      "weight": 1385,
      "death": 1386,
      "medi": 1387,
      "upset": 1388,
      "garden": 1389,
      "foot": 1390,
      "dangerous": 1391,
      "seat": 1392,
      "ages": 1393,
      "exper": 1394,
      "sleeping": 1395,
      "gif": 1396,
      "paper": 1397,
      "writing": 1398,
      "building": 1399,
      "neigh": 1400,
      "neighbor": 1401,
      "aw": 1402,
      "cur": 1403,
      "warn": 1404,
      "eng": 1405,
      "crazy": 1406,
      "pun": 1407,
      "solve": 1408,
      "gets": 1409,
      "bird": 1410,
      "cri": 1411,
      "fl": 1412,
      "sle": 1413,
      "ween": 1414,
      "prefer": 1415,
      "guit": 1416,
      "dogs": 1417,
      "tice": 1418,
      "conf": 1419,
      "smoke": 1420,
      "return": 1421,
      "clock": 1422,
      "mi": 1423,
      "wed": 1424,
      "short": 1425,
      "medic": 1426,
      "recogn": 1427,
      "uation": 1428,
      "sold": 1429,
      "certain": 1430,
      "tie": 1431,
      "glass": 1432,
      "waited": 1433,
      "blo": 1434,
      "inted": 1435,
      "tax": 1436,
      "av": 1437,
      "messa": 1438,
      "guitar": 1439,
      "alive": 1440,
      "pian": 1441,
      "somewhere": 1442,
      "immedi": 1443,
      "point": 1444,
      "sitting": 1445,
      "convinced": 1446,
      "inside": 1447,
      "rible": 1448,
      "walked": 1449,
      "egg": 1450,
      "against": 1451,
      "rid": 1452,
      "disappo": 1453,
      "travel": 1454,
      "its": 1455,
      "solu": 1456,
      "finally": 1457,
      "floor": 1458,
      "ris": 1459,
      "send": 1460,
      "stair": 1461,
      "doubt": 1462,
      "dered": 1463,
      "dance": 1464,
      "real": 1465,
      "admit": 1466,
      "asking": 1467,
      "situation": 1468,
      "immediately": 1469,
      "ual": 1470,
      "ny": 1471,
      "sou": 1472,
      "swimming": 1473,
      "ned": 1474,
      "actually": 1475,
      "restaurant": 1476,
      "stairs": 1477,
      "kit": 1478,
      "pho": 1479,
      "appe": 1480,
      "refused": 1481,
      "kiss": 1482,
      "prote": 1483,
      "large": 1484,
      "inc": 1485,
      "fired": 1486,
      "completely": 1487,
      "advis": 1488,
      "bath": 1489,
      "save": 1490,
      "iet": 1491,
      "expected": 1492,
      "agreed": 1493,
      "hide": 1494,
      "shot": 1495,
      "sme": 1496,
      "happening": 1497,
      "et": 1498,
      "slow": 1499,
      "fishing": 1500,
      "base": 1501,
      "taught": 1502,
      "meat": 1503,
      "apart": 1504,
      "lend": 1505,
      "allowed": 1506,
      "smell": 1507,
      "ue": 1508,
      "resp": 1509,
      "between": 1510,
      "women": 1511,
      "chair": 1512,
      "wel": 1513,
      "sever": 1514,
      "impress": 1515,
      "shut": 1516,
      "apple": 1517,
      "bother": 1518,
      "bank": 1519,
      "ont": 1520,
      "along": 1521,
      "listening": 1522,
      "lawy": 1523,
      "spoke": 1524,
      "notic": 1525,
      "also": 1526,
      "cats": 1527,
      "em": 1528,
      "company": 1529,
      "address": 1530,
      "sub": 1531,
      "necess": 1532,
      "locked": 1533,
      "arrested": 1534,
      "az": 1535,
      "post": 1536,
      "ourse": 1537,
      "piano": 1538,
      "several": 1539,
      "aper": 1540,
      "ator": 1541,
      "mid": 1542,
      "vac": 1543,
      "libr": 1544,
      "whose": 1545,
      "quiet": 1546,
      "learned": 1547,
      "language": 1548,
      "ceive": 1549,
      "bread": 1550,
      "ier": 1551,
      "sid": 1552,
      "fine": 1553,
      "ife": 1554,
      "moment": 1555,
      "airport": 1556,
      "knife": 1557,
      "diction": 1558,
      "card": 1559,
      "report": 1560,
      "minute": 1561,
      "ameri": 1562,
      "words": 1563,
      "ile": 1564,
      "least": 1565,
      "rules": 1566,
      "front": 1567,
      "anim": 1568,
      "afternoon": 1569,
      "tail": 1570,
      "girls": 1571,
      "library": 1572,
      "reali": 1573,
      "pose": 1574,
      "drinking": 1575,
      "noticed": 1576,
      "idge": 1577,
      "showed": 1578,
      "pictures": 1579,
      "chen": 1580,
      "kitchen": 1581,
      "ef": 1582,
      "japanese": 1583,
      "io": 1584,
      "line": 1585,
      "fool": 1586,
      "trip": 1587,
      "patient": 1588,
      "kets": 1589,
      "ness": 1590,
      "lves": 1591,
      "months": 1592,
      "slept": 1593,
      "twi": 1594,
      "lled": 1595,
      "ition": 1596,
      "played": 1597,
      "sand": 1598,
      "colle": 1599,
      "thre": 1600,
      "famous": 1601,
      "written": 1602,
      "vious": 1603,
      "swe": 1604,
      "throw": 1605,
      "others": 1606,
      "hardly": 1607,
      "lawyer": 1608,
      "bottle": 1609,
      "ond": 1610,
      "fort": 1611,
      "tee": 1612,
      "message": 1613,
      "owe": 1614,
      "warm": 1615,
      "choose": 1616,
      "dictionary": 1617,
      "cu": 1618,
      "argu": 1619,
      "difference": 1620,
      "ma": 1621,
      "rather": 1622,
      "poor": 1623,
      "success": 1624,
      "necessary": 1625,
      "stru": 1626,
      "marry": 1627,
      "protect": 1628,
      "twice": 1629,
      "lock": 1630,
      "medicine": 1631,
      "vered": 1632,
      "ash": 1633,
      "speaking": 1634,
      "couple": 1635,
      "ghed": 1636,
      "main": 1637,
      "resu": 1638,
      "boss": 1639,
      "winter": 1640,
      "taxi": 1641,
      "ceed": 1642,
      "eggs": 1643,
      "worth": 1644,
      "concert": 1645,
      "movies": 1646,
      "gift": 1647,
      "fre": 1648,
      "poc": 1649,
      "igno": 1650,
      "raining": 1651,
      "smart": 1652,
      "notice": 1653,
      "join": 1654,
      "pack": 1655,
      "pul": 1656,
      "wood": 1657,
      "attention": 1658,
      "vel": 1659,
      "arely": 1660,
      "weeks": 1661,
      "fied": 1662,
      "photo": 1663,
      "stolen": 1664,
      "deserve": 1665,
      "ates": 1666,
      "helping": 1667,
      "beach": 1668,
      "second": 1669,
      "worse": 1670,
      "ations": 1671,
      "sy": 1672,
      "stole": 1673,
      "camera": 1674,
      "check": 1675,
      "laughed": 1676,
      "risk": 1677,
      "wit": 1678,
      "horse": 1679,
      "apartment": 1680,
      "ical": 1681,
      "running": 1682,
      "discuss": 1683,
      "dri": 1684,
      "fill": 1685,
      "neither": 1686,
      "cell": 1687,
      "rad": 1688,
      "belong": 1689,
      "prepare": 1690,
      "intro": 1691,
      "fat": 1692,
      "vous": 1693,
      "rope": 1694,
      "understood": 1695,
      "earli": 1696,
      "fut": 1697,
      "passed": 1698,
      "four": 1699,
      "gun": 1700,
      "squ": 1701,
      "heav": 1702,
      "decide": 1703,
      "mission": 1704,
      "excuse": 1705,
      "future": 1706,
      "cross": 1707,
      "tory": 1708,
      "res": 1709,
      "flu": 1710,
      "guil": 1711,
      "surprise": 1712,
      "jump": 1713,
      "obvious": 1714,
      "earth": 1715,
      "laughing": 1716,
      "succeed": 1717,
      "yo": 1718,
      "pair": 1719,
      "har": 1720,
      "aged": 1721,
      "apples": 1722,
      "earlier": 1723,
      "pping": 1724,
      "nervous": 1725,
      "purpose": 1726,
      "eye": 1727,
      "pas": 1728,
      "ug": 1729,
      "hoping": 1730,
      "wedding": 1731,
      "dred": 1732,
      "common": 1733,
      "singing": 1734,
      "kissed": 1735,
      "ntain": 1736,
      "drank": 1737,
      "carefully": 1738,
      "hundred": 1739,
      "vacation": 1740,
      "mur": 1741,
      "inform": 1742,
      "grandfather": 1743,
      "zed": 1744,
      "ford": 1745,
      "onest": 1746,
      "noise": 1747,
      "given": 1748,
      "disappointed": 1749,
      "ski": 1750,
      "jack": 1751,
      "accept": 1752,
      "funny": 1753,
      "radio": 1754,
      "guilty": 1755,
      "contin": 1756,
      "receive": 1757,
      "hiding": 1758,
      "introdu": 1759,
      "bur": 1760,
      "gar": 1761,
      "ride": 1762,
      "cannot": 1763,
      "forgotten": 1764,
      "trees": 1765,
      "spect": 1766,
      "ticket": 1767,
      "ged": 1768,
      "ror": 1769,
      "afford": 1770,
      "dom": 1771,
      "wered": 1772,
      "scre": 1773,
      "windows": 1774,
      "deal": 1775,
      "dressed": 1776,
      "price": 1777,
      "honest": 1778,
      "means": 1779,
      "voice": 1780,
      "stra": 1781,
      "mom": 1782,
      "recognize": 1783,
      "baseball": 1784,
      "dden": 1785,
      "uncle": 1786,
      "sudden": 1787,
      "dan": 1788,
      "imag": 1789,
      "mountain": 1790,
      "terrible": 1791,
      "expecting": 1792,
      "attack": 1793,
      "tem": 1794,
      "date": 1795,
      "cil": 1796,
      "convince": 1797,
      "ms": 1798,
      "sense": 1799,
      "tu": 1800,
      "veget": 1801,
      "detail": 1802,
      "offer": 1803,
      "ply": 1804,
      "dep": 1805,
      "pencil": 1806,
      "past": 1807,
      "takes": 1808,
      "sugar": 1809,
      "blood": 1810,
      "sn": 1811,
      "ext": 1812,
      "piece": 1813,
      "vent": 1814,
      "believed": 1815,
      "driving": 1816,
      "bar": 1817,
      "fig": 1818,
      "mail": 1819,
      "enter": 1820,
      "chur": 1821,
      "concer": 1822,
      "heavy": 1823,
      "consid": 1824,
      "advised": 1825,
      "respect": 1826,
      "abroad": 1827,
      "newsp": 1828,
      "taller": 1829,
      "newspaper": 1830,
      "bra": 1831,
      "oken": 1832,
      "dir": 1833,
      "fact": 1834,
      "none": 1835,
      "ature": 1836,
      "ions": 1837,
      "appro": 1838,
      "bas": 1839,
      "vol": 1840,
      "reci": 1841,
      "seemed": 1842,
      "cks": 1843,
      "faster": 1844,
      "dirty": 1845,
      "gent": 1846,
      "star": 1847,
      "char": 1848,
      "tered": 1849,
      "impossible": 1850,
      "church": 1851,
      "seven": 1852,
      "chess": 1853,
      "brothers": 1854,
      "teeth": 1855,
      "information": 1856,
      "iling": 1857,
      "board": 1858,
      "izz": 1859,
      "whatever": 1860,
      "covered": 1861,
      "kyo": 1862,
      "alous": 1863,
      "acket": 1864,
      "jealous": 1865,
      "climb": 1866,
      "jackson": 1867,
      "pizz": 1868,
      "waste": 1869,
      "aked": 1870,
      "visited": 1871,
      "guys": 1872,
      "tire": 1873,
      "deep": 1874,
      "button": 1875,
      "animals": 1876,
      "sel": 1877,
      "calling": 1878,
      "smile": 1879,
      "lake": 1880,
      "blind": 1881,
      "cial": 1882,
      "translate": 1883,
      "punished": 1884,
      "usual": 1885,
      "prove": 1886,
      "telephone": 1887,
      "consider": 1888,
      "ade": 1889,
      "super": 1890,
      "rent": 1891,
      "popul": 1892,
      "boys": 1893,
      "hates": 1894,
      "mag": 1895,
      "toes": 1896,
      "market": 1897,
      "staying": 1898,
      "satis": 1899,
      "burn": 1900,
      "fru": 1901,
      "uring": 1902,
      "sunday": 1903,
      "uts": 1904,
      "answered": 1905,
      "wonderful": 1906,
      "dist": 1907,
      "remind": 1908,
      "meant": 1909,
      "soc": 1910,
      "depend": 1911,
      "weir": 1912,
      "host": 1913,
      "tract": 1914,
      "walking": 1915,
      "wallet": 1916,
      "crow": 1917,
      "uty": 1918,
      "amp": 1919,
      "watched": 1920,
      "calm": 1921,
      "easily": 1922,
      "warned": 1923,
      "bill": 1924,
      "stick": 1925,
      "ene": 1926,
      "vision": 1927,
      "followed": 1928,
      "opp": 1929,
      "oned": 1930,
      "cep": 1931,
      "pretend": 1932,
      "seldom": 1933,
      "fing": 1934,
      "kno": 1935,
      "lts": 1936,
      "pol": 1937,
      "handed": 1938,
      "sleepy": 1939,
      "pizza": 1940,
      "cha": 1941,
      "dad": 1942,
      "permission": 1943,
      "cream": 1944,
      "cooking": 1945,
      "lies": 1946,
      "gotten": 1947,
      "inju": 1948,
      "across": 1949,
      "spoken": 1950,
      "divor": 1951,
      "during": 1952,
      "wind": 1953,
      "recent": 1954,
      "step": 1955,
      "saved": 1956,
      "itely": 1957,
      "ches": 1958,
      "awake": 1959,
      "dle": 1960,
      "absent": 1961,
      "mood": 1962,
      "woke": 1963,
      "elect": 1964,
      "slowly": 1965,
      "fly": 1966,
      "uni": 1967,
      "moon": 1968,
      "sandwi": 1969,
      "ushed": 1970,
      "spee": 1971,
      "weird": 1972,
      "boat": 1973,
      "pres": 1974,
      "cous": 1975,
      "gi": 1976,
      "ined": 1977,
      "bridge": 1978,
      "dishes": 1979,
      "fac": 1980,
      "remain": 1981,
      "bored": 1982,
      "colate": 1983,
      "chocolate": 1984,
      "lights": 1985,
      "lad": 1986,
      "vive": 1987,
      "tokyo": 1988,
      "arning": 1989,
      "learning": 1990,
      "feed": 1991,
      "commen": 1992,
      "studied": 1993,
      "contact": 1994,
      "injured": 1995,
      "avo": 1996,
      "novel": 1997,
      "single": 1998,
      "support": 1999,
      "passport": 2000,
      "speech": 2001,
      "cop": 2002,
      "sooner": 2003,
      "jacket": 2004,
      "top": 2005,
      "recommen": 2006,
      "idence": 2007,
      "simple": 2008,
      "tain": 2009,
      "ised": 2010,
      "ache": 2011,
      "except": 2012,
      "grew": 2013,
      "soup": 2014,
      "prepared": 2015,
      "fruit": 2016,
      "note": 2017,
      "liar": 2018,
      "appreci": 2019,
      "survive": 2020,
      "gener": 2021,
      "ling": 2022,
      "une": 2023,
      "tot": 2024,
      "ics": 2025,
      "green": 2026,
      "sky": 2027,
      "apologized": 2028,
      "val": 2029,
      "tou": 2030,
      "ilt": 2031,
      "failed": 2032,
      "soccer": 2033,
      "course": 2034,
      "ied": 2035,
      "persu": 2036,
      "eats": 2037,
      "stuff": 2038,
      "clu": 2039,
      "till": 2040,
      "ters": 2041,
      "plays": 2042,
      "ments": 2043,
      "cated": 2044,
      "thirteen": 2045,
      "sisters": 2046,
      "television": 2047,
      "mill": 2048,
      "stri": 2049,
      "absolu": 2050,
      "dest": 2051,
      "lone": 2052,
      "sear": 2053,
      "player": 2054,
      "king": 2055,
      "na": 2056,
      "rat": 2057,
      "reli": 2058,
      "haps": 2059,
      "bey": 2060,
      "moving": 2061,
      "traf": 2062,
      "perhaps": 2063,
      "cars": 2064,
      "leaves": 2065,
      "loud": 2066,
      "bear": 2067,
      "pleased": 2068,
      "defin": 2069,
      "believes": 2070,
      "birds": 2071,
      "vote": 2072,
      "satisfied": 2073,
      "recently": 2074,
      "traffic": 2075,
      "eu": 2076,
      "sen": 2077,
      "inno": 2078,
      "shopping": 2079,
      "languages": 2080,
      "mouth": 2081,
      "suddenly": 2082,
      "dating": 2083,
      "returned": 2084,
      "exp": 2085,
      "norm": 2086,
      "aware": 2087,
      "lonely": 2088,
      "shower": 2089,
      "grandmother": 2090,
      "cing": 2091,
      "oo": 2092,
      "ordered": 2093,
      "golf": 2094,
      "plant": 2095,
      "missing": 2096,
      "truck": 2097,
      "painting": 2098,
      "cape": 2099,
      "threw": 2100,
      "extreme": 2101,
      "ev": 2102,
      "hang": 2103,
      "iday": 2104,
      "built": 2105,
      "invite": 2106,
      "bike": 2107,
      "add": 2108,
      "named": 2109,
      "escape": 2110,
      "names": 2111,
      "neighbors": 2112,
      "sweater": 2113,
      "carry": 2114,
      "draw": 2115,
      "extremely": 2116,
      "eight": 2117,
      "hated": 2118,
      "shy": 2119,
      "lots": 2120,
      "experience": 2121,
      "ination": 2122,
      "vers": 2123,
      "intend": 2124,
      "received": 2125,
      "mach": 2126,
      "vie": 2127,
      "standing": 2128,
      "fortun": 2129,
      "cy": 2130,
      "map": 2131,
      "god": 2132,
      "hood": 2133,
      "cele": 2134,
      "fered": 2135,
      "ists": 2136,
      "irsty": 2137,
      "ghost": 2138,
      "pet": 2139,
      "brush": 2140,
      "painted": 2141,
      "american": 2142,
      "avoid": 2143,
      "wears": 2144,
      "selves": 2145,
      "rude": 2146,
      "license": 2147,
      "bat": 2148,
      "ia": 2149,
      "mir": 2150,
      "island": 2151,
      "idi": 2152,
      "absolutely": 2153,
      "rup": 2154,
      "event": 2155,
      "grate": 2156,
      "beginning": 2157,
      "definitely": 2158,
      "gas": 2159,
      "nine": 2160,
      "ange": 2161,
      "wet": 2162,
      "ayed": 2163,
      "ief": 2164,
      "tickets": 2165,
      "lazy": 2166,
      "pretended": 2167,
      "pocket": 2168,
      "figure": 2169,
      "sandwich": 2170,
      "grateful": 2171,
      "ban": 2172,
      "ians": 2173,
      "memor": 2174,
      "hey": 2175,
      "contro": 2176,
      "welcome": 2177,
      "rious": 2178,
      "details": 2179,
      "view": 2180,
      "bri": 2181,
      "tions": 2182,
      "washing": 2183,
      "salt": 2184,
      "zoo": 2185,
      "comfor": 2186,
      "spring": 2187,
      "prof": 2188,
      "boring": 2189,
      "attend": 2190,
      "appreciate": 2191,
      "machine": 2192,
      "erg": 2193,
      "hol": 2194,
      "seeing": 2195,
      "ables": 2196,
      "dropped": 2197,
      "suitcase": 2198,
      "giving": 2199,
      "fran": 2200,
      "ened": 2201,
      "forced": 2202,
      "prac": 2203,
      "trusted": 2204,
      "transl": 2205,
      "basket": 2206,
      "cas": 2207,
      "scar": 2208,
      "ric": 2209,
      "enjoyed": 2210,
      "celebr": 2211,
      "idiot": 2212,
      "cla": 2213,
      "ired": 2214,
      "acting": 2215,
      "power": 2216,
      "bye": 2217,
      "bby": 2218,
      "washed": 2219,
      "ager": 2220,
      "temper": 2221,
      "sli": 2222,
      "vill": 2223,
      "assist": 2224,
      "understands": 2225,
      "smiled": 2226,
      "stead": 2227,
      "seriously": 2228,
      "dry": 2229,
      "pan": 2230,
      "aded": 2231,
      "jud": 2232,
      "polite": 2233,
      "comfortable": 2234,
      "ib": 2235,
      "herself": 2236,
      "cast": 2237,
      "thous": 2238,
      "thirsty": 2239,
      "roof": 2240,
      "goodbye": 2241,
      "serv": 2242,
      "feelings": 2243,
      "realize": 2244,
      "recommend": 2245,
      "thousand": 2246,
      "ities": 2247,
      "sol": 2248,
      "unlikely": 2249,
      "sentence": 2250,
      "forward": 2251,
      "cance": 2252,
      "polit": 2253,
      "posit": 2254,
      "fail": 2255,
      "listened": 2256,
      "picked": 2257,
      "tast": 2258,
      "habit": 2259,
      "unhappy": 2260,
      "cheap": 2261,
      "singer": 2262,
      "letters": 2263,
      "paint": 2264,
      "explained": 2265,
      "sounds": 2266,
      "subject": 2267,
      "ai": 2268,
      "beat": 2269,
      "bell": 2270,
      "suf": 2271,
      "raised": 2272,
      "mention": 2273,
      "invit": 2274,
      "following": 2275,
      "totally": 2276,
      "gain": 2277,
      "entr": 2278,
      "anyway": 2279,
      "butter": 2280,
      "ctions": 2281,
      "condition": 2282,
      "control": 2283,
      "ado": 2284,
      "gold": 2285,
      "commit": 2286,
      "results": 2287,
      "enemy": 2288,
      "europe": 2289,
      "duty": 2290,
      "earn": 2291,
      "mand": 2292,
      "rela": 2293,
      "assu": 2294,
      "ached": 2295,
      "stor": 2296,
      "shar": 2297,
      "filled": 2298,
      "relax": 2299,
      "obey": 2300,
      "nose": 2301,
      "using": 2302,
      "docu": 2303,
      "solution": 2304,
      "supermarket": 2305,
      "popular": 2306,
      "ahead": 2307,
      "flight": 2308,
      "sight": 2309,
      "ys": 2310,
      "sea": 2311,
      "straight": 2312,
      "barely": 2313,
      "por": 2314,
      "pants": 2315,
      "yed": 2316,
      "buying": 2317,
      "cheese": 2318,
      "fit": 2319,
      "doors": 2320,
      "coura": 2321,
      "boyfriend": 2322,
      "healthy": 2323,
      "sports": 2324,
      "ines": 2325,
      "ler": 2326,
      "pool": 2327,
      "foreign": 2328,
      "jam": 2329,
      "joking": 2330,
      "rang": 2331,
      "weak": 2332,
      "rice": 2333,
      "ently": 2334,
      "ounded": 2335,
      "dire": 2336,
      "pub": 2337,
      "complaining": 2338,
      "fortunately": 2339,
      "muse": 2340,
      "oper": 2341,
      "sof": 2342,
      "timis": 2343,
      "special": 2344,
      "drinks": 2345,
      "fixed": 2346,
      "optimis": 2347,
      "engine": 2348,
      "introduce": 2349,
      "million": 2350,
      "museum": 2351,
      "pois": 2352,
      "type": 2353,
      "rains": 2354,
      "cookies": 2355,
      "drop": 2356,
      "fresh": 2357,
      "ctive": 2358,
      "betr": 2359,
      "impressed": 2360,
      "innocent": 2361,
      "lon": 2362,
      "reply": 2363,
      "cow": 2364,
      "gress": 2365,
      "grad": 2366,
      "brave": 2367,
      "village": 2368,
      "ties": 2369,
      "explan": 2370,
      "handsome": 2371,
      "treat": 2372,
      "vegetables": 2373,
      "dare": 2374,
      "instru": 2375,
      "member": 2376,
      "lead": 2377,
      "propo": 2378,
      "talks": 2379,
      "held": 2380,
      "lift": 2381,
      "manage": 2382,
      "shop": 2383,
      "bigger": 2384,
      "nearly": 2385,
      "football": 2386,
      "realized": 2387,
      "obviously": 2388,
      "normal": 2389,
      "ki": 2390,
      "behave": 2391,
      "iron": 2392,
      "worst": 2393,
      "tells": 2394,
      "poem": 2395,
      "breath": 2396,
      "compli": 2397,
      "america": 2398,
      "akes": 2399,
      "upstairs": 2400,
      "forever": 2401,
      "guard": 2402,
      "talent": 2403,
      "prices": 2404,
      "asure": 2405,
      "offered": 2406,
      "fear": 2407,
      "someday": 2408,
      "plac": 2409,
      "ility": 2410,
      "easier": 2411,
      "costs": 2412,
      "hired": 2413,
      "tur": 2414,
      "vide": 2415,
      "intention": 2416,
      "ress": 2417,
      "feet": 2418,
      "descri": 2419,
      "partic": 2420,
      "respon": 2421,
      "eventually": 2422,
      "bark": 2423,
      "sw": 2424,
      "mistaken": 2425,
      "pressed": 2426,
      "onsible": 2427,
      "responsible": 2428,
      "skiing": 2429,
      "divorced": 2430,
      "search": 2431,
      "fed": 2432,
      "third": 2433,
      "priv": 2434,
      "appeared": 2435,
      "ones": 2436,
      "custom": 2437,
      "drove": 2438,
      "explo": 2439,
      "velo": 2440,
      "arti": 2441,
      "feels": 2442,
      "gged": 2443,
      "continue": 2444,
      "fif": 2445,
      "pi": 2446,
      "sl": 2447,
      "towel": 2448,
      "text": 2449,
      "active": 2450,
      "def": 2451,
      "amed": 2452,
      "managed": 2453,
      "guest": 2454,
      "explanation": 2455,
      "cried": 2456,
      "wore": 2457,
      "pulled": 2458,
      "finger": 2459,
      "rarely": 2460,
      "shel": 2461,
      "ued": 2462,
      "cts": 2463,
      "legs": 2464,
      "ourselves": 2465,
      "belongs": 2466,
      "emb": 2467,
      "swit": 2468,
      "ule": 2469,
      "instead": 2470,
      "consc": 2471,
      "sched": 2472,
      "bedroom": 2473,
      "interrup": 2474,
      "cards": 2475,
      "ped": 2476,
      "entered": 2477,
      "drawer": 2478,
      "yen": 2479,
      "cool": 2480,
      "plent": 2481,
      "ground": 2482,
      "couch": 2483,
      "parked": 2484,
      "songs": 2485,
      "crit": 2486,
      "public": 2487,
      "plenty": 2488,
      "jail": 2489,
      "native": 2490,
      "wise": 2491,
      "thor": 2492,
      "rele": 2493,
      "orange": 2494,
      "entire": 2495,
      "handle": 2496,
      "starting": 2497,
      "hurts": 2498,
      "juice": 2499,
      "classroom": 2500,
      "countries": 2501,
      "example": 2502,
      "push": 2503,
      "vest": 2504,
      "asha": 2505,
      "chick": 2506,
      "refuse": 2507,
      "fighting": 2508,
      "vented": 2509,
      "club": 2510,
      "vator": 2511,
      "neck": 2512,
      "brea": 2513,
      "games": 2514,
      "teaching": 2515,
      "harder": 2516,
      "scream": 2517,
      "ashamed": 2518,
      "race": 2519,
      "tas": 2520,
      "wasting": 2521,
      "united": 2522,
      "ideas": 2523,
      "apped": 2524,
      "skin": 2525,
      "treated": 2526,
      "elevator": 2527,
      "murder": 2528,
      "ves": 2529,
      "llo": 2530,
      "hole": 2531,
      "peace": 2532,
      "shocked": 2533,
      "headache": 2534,
      "caused": 2535,
      "smarter": 2536,
      "burned": 2537,
      "drow": 2538,
      "furn": 2539,
      "nuts": 2540,
      "weigh": 2541,
      "admi": 2542,
      "socks": 2543,
      "tears": 2544,
      "raise": 2545,
      "project": 2546,
      "stuck": 2547,
      "steal": 2548,
      "vior": 2549,
      "midnight": 2550,
      "concerned": 2551,
      "storm": 2552,
      "article": 2553,
      "ben": 2554,
      "ls": 2555,
      "sang": 2556,
      "intell": 2557,
      "lling": 2558,
      "beard": 2559,
      "drug": 2560,
      "jokes": 2561,
      "pred": 2562,
      "sno": 2563,
      "size": 2564,
      "chic": 2565,
      "riger": 2566,
      "pper": 2567,
      "refriger": 2568,
      "hoped": 2569,
      "suggested": 2570,
      "magaz": 2571,
      "profess": 2572,
      "taste": 2573,
      "refrigerator": 2574,
      "fright": 2575,
      "twent": 2576,
      "losing": 2577,
      "bow": 2578,
      "history": 2579,
      "ners": 2580,
      "teachers": 2581,
      "hire": 2582,
      "perfectly": 2583,
      "opport": 2584,
      "basketball": 2585,
      "twenty": 2586,
      "pill": 2587,
      "repe": 2588,
      "states": 2589,
      "havior": 2590,
      "behavior": 2591,
      "antly": 2592,
      "mark": 2593,
      "account": 2594,
      "excell": 2595,
      "cousin": 2596,
      "intellig": 2597,
      "opportun": 2598,
      "excellent": 2599,
      "cab": 2600,
      "eg": 2601,
      "fle": 2602,
      "gloves": 2603,
      "hy": 2604,
      "though": 2605,
      "heat": 2606,
      "pota": 2607,
      "contract": 2608,
      "offic": 2609,
      "patience": 2610,
      "dancing": 2611,
      "bul": 2612,
      "brow": 2613,
      "kne": 2614,
      "cted": 2615,
      "share": 2616,
      "knock": 2617,
      "naive": 2618,
      "schedule": 2619,
      "chicken": 2620,
      "predic": 2621,
      "reach": 2622,
      "rob": 2623,
      "adul": 2624,
      "ular": 2625,
      "smiling": 2626,
      "pale": 2627,
      "policeman": 2628,
      "shall": 2629,
      "suspected": 2630,
      "chicago": 2631,
      "abo": 2632,
      "cig": 2633,
      "retired": 2634,
      "nowhere": 2635,
      "stone": 2636,
      "delic": 2637,
      "tooth": 2638,
      "scare": 2639,
      "wins": 2640,
      "threat": 2641,
      "cir": 2642,
      "resc": 2643,
      "unfortunately": 2644,
      "supper": 2645,
      "writer": 2646,
      "horrible": 2647,
      "traveling": 2648,
      "private": 2649,
      "shave": 2650,
      "vic": 2651,
      "repair": 2652,
      "coinc": 2653,
      "motor": 2654,
      "everywhere": 2655,
      "wherever": 2656,
      "pron": 2657,
      "keeps": 2658,
      "bathroom": 2659,
      "univer": 2660,
      "kick": 2661,
      "istic": 2662,
      "hero": 2663,
      "terri": 2664,
      "exha": 2665,
      "kidding": 2666,
      "stronger": 2667,
      "dreams": 2668,
      "discussed": 2669,
      "recognized": 2670,
      "proposal": 2671,
      "ba": 2672,
      "bright": 2673,
      "lay": 2674,
      "force": 2675,
      "suic": 2676,
      "produ": 2677,
      "dying": 2678,
      "calls": 2679,
      "classes": 2680,
      "argue": 2681,
      "persuade": 2682,
      "courage": 2683,
      "intelligent": 2684,
      "bs": 2685,
      "fami": 2686,
      "lence": 2687,
      "matters": 2688,
      "suspic": 2689,
      "imagine": 2690,
      "iers": 2691,
      "oil": 2692,
      "temp": 2693,
      "unt": 2694,
      "shor": 2695,
      "accused": 2696,
      "hopes": 2697,
      "betrayed": 2698,
      "mate": 2699,
      "reached": 2700,
      "yellow": 2701,
      "winning": 2702,
      "forest": 2703,
      "shoot": 2704,
      "voted": 2705,
      "soldiers": 2706,
      "banan": 2707,
      "complicated": 2708,
      "cul": 2709,
      "alarm": 2710,
      "amaz": 2711,
      "sity": 2712,
      "stem": 2713,
      "strict": 2714,
      "memory": 2715,
      "temperature": 2716,
      "suicide": 2717,
      "gate": 2718,
      "thief": 2719,
      "rely": 2720,
      "urgent": 2721,
      "silent": 2722,
      "appoint": 2723,
      "fallen": 2724,
      "certainly": 2725,
      "admitted": 2726,
      "appear": 2727,
      "holiday": 2728,
      "swear": 2729,
      "ying": 2730,
      "iture": 2731,
      "chine": 2732,
      "tight": 2733,
      "coward": 2734,
      "fold": 2735,
      "offended": 2736,
      "cares": 2737,
      "grou": 2738,
      "rained": 2739,
      "horses": 2740,
      "viol": 2741,
      "college": 2742,
      "ignored": 2743,
      "furniture": 2744,
      "chinese": 2745,
      "gan": 2746,
      "pou": 2747,
      "lean": 2748,
      "weap": 2749,
      "cancer": 2750,
      "tery": 2751,
      "shout": 2752,
      "helps": 2753,
      "ilar": 2754,
      "dies": 2755,
      "downstairs": 2756,
      "suppose": 2757,
      "invol": 2758,
      "middle": 2759,
      "crowd": 2760,
      "invitation": 2761,
      "coincidence": 2762,
      "equ": 2763,
      "math": 2764,
      "rab": 2765,
      "reg": 2766,
      "mess": 2767,
      "astic": 2768,
      "wealth": 2769,
      "allerg": 2770,
      "demand": 2771,
      "fridge": 2772,
      "capital": 2773,
      "borrowed": 2774,
      "crime": 2775,
      "smells": 2776,
      "pockets": 2777,
      "system": 2778,
      "judge": 2779,
      "optimistic": 2780,
      "page": 2781,
      "invest": 2782,
      "replace": 2783,
      "andon": 2784,
      "gover": 2785,
      "abandon": 2786,
      "accep": 2787,
      "ural": 2788,
      "asks": 2789,
      "quar": 2790,
      "permit": 2791,
      "changes": 2792,
      "staring": 2793,
      "document": 2794,
      "poured": 2795,
      "pted": 2796,
      "thin": 2797,
      "recor": 2798,
      "enced": 2799,
      "roses": 2800,
      "badly": 2801,
      "sunglasses": 2802,
      "ignore": 2803,
      "jumped": 2804,
      "mirror": 2805,
      "dam": 2806,
      "sco": 2807,
      "rock": 2808,
      "actor": 2809,
      "dentist": 2810,
      "canadians": 2811,
      "huge": 2812,
      "experi": 2813,
      "flat": 2814,
      "postp": 2815,
      "president": 2816,
      "suffer": 2817,
      "assume": 2818,
      "theor": 2819,
      "escap": 2820,
      "irts": 2821,
      "deb": 2822,
      "lately": 2823,
      "match": 2824,
      "volun": 2825,
      "solved": 2826,
      "direction": 2827,
      "talented": 2828,
      "fence": 2829,
      "nic": 2830,
      "inst": 2831,
      "accor": 2832,
      "smaller": 2833,
      "similar": 2834,
      "position": 2835,
      "poison": 2836,
      "conscious": 2837,
      "nat": 2838,
      "olog": 2839,
      "ane": 2840,
      "stam": 2841,
      "formed": 2842,
      "lower": 2843,
      "usted": 2844,
      "personal": 2845,
      "corner": 2846,
      "bothering": 2847,
      "attacked": 2848,
      "planted": 2849,
      "eld": 2850,
      "belt": 2851,
      "antic": 2852,
      "fever": 2853,
      "illeg": 2854,
      "accus": 2855,
      "arms": 2856,
      "diet": 2857,
      "signed": 2858,
      "graph": 2859,
      "confess": 2860,
      "introduced": 2861,
      "facts": 2862,
      "tastes": 2863,
      "describe": 2864,
      "opportunity": 2865,
      "cycle": 2866,
      "da": 2867,
      "ges": 2868,
      "mic": 2869,
      "aret": 2870,
      "willing": 2871,
      "express": 2872,
      "related": 2873,
      "confused": 2874,
      "arguing": 2875,
      "successful": 2876,
      "result": 2877,
      "climbed": 2878,
      "ladder": 2879,
      "destro": 2880,
      "adopted": 2881,
      "shelf": 2882,
      "bench": 2883,
      "potatoes": 2884,
      "cigaret": 2885,
      "ire": 2886,
      "pes": 2887,
      "sort": 2888,
      "swee": 2889,
      "candy": 2890,
      "whenever": 2891,
      "closet": 2892,
      "mondays": 2893,
      "cooked": 2894,
      "meaning": 2895,
      "charge": 2896,
      "cough": 2897,
      "ured": 2898,
      "insu": 2899,
      "unlucky": 2900,
      "rule": 2901,
      "incred": 2902,
      "crossed": 2903,
      "earthqu": 2904,
      "garage": 2905,
      "naked": 2906,
      "zz": 2907,
      "requ": 2908,
      "ashed": 2909,
      "eral": 2910,
      "peel": 2911,
      "depart": 2912,
      "isted": 2913,
      "relation": 2914,
      "clearly": 2915,
      "touched": 2916,
      "relig": 2917,
      "theory": 2918,
      "honey": 2919,
      "tour": 2920,
      "disagree": 2921,
      "holding": 2922,
      "advise": 2923,
      "ghosts": 2924,
      "appointment": 2925,
      "baked": 2926,
      "cred": 2927,
      "tw": 2928,
      "organ": 2929,
      "deli": 2930,
      "ambul": 2931,
      "gue": 2932,
      "childhood": 2933,
      "rumor": 2934,
      "answers": 2935,
      "satur": 2936,
      "salary": 2937,
      "complete": 2938,
      "relative": 2939,
      "curious": 2940,
      "cash": 2941,
      "centr": 2942,
      "ears": 2943,
      "hill": 2944,
      "oven": 2945,
      "pity": 2946,
      "wra": 2947,
      "army": 2948,
      "sons": 2949,
      "useful": 2950,
      "doctors": 2951,
      "cleaned": 2952,
      "grown": 2953,
      "copy": 2954,
      "tough": 2955,
      "stamps": 2956,
      "yard": 2957,
      "compare": 2958,
      "pray": 2959,
      "grab": 2960,
      "tical": 2961,
      "fash": 2962,
      "concern": 2963,
      "frank": 2964,
      "assistant": 2965,
      "sofa": 2966,
      "guests": 2967,
      "shorter": 2968,
      "involved": 2969,
      "rabbit": 2970,
      "escaped": 2971,
      "cise": 2972,
      "stom": 2973,
      "toward": 2974,
      "rer": 2975,
      "ances": 2976,
      "arr": 2977,
      "orang": 2978,
      "envelo": 2979,
      "cand": 2980,
      "ours": 2981,
      "friendly": 2982,
      "jeans": 2983,
      "delicious": 2984,
      "kicked": 2985,
      "accepted": 2986,
      "relationship": 2987,
      "itor": 2988,
      "wing": 2989,
      "alco": 2990,
      "acqu": 2991,
      "proof": 2992,
      "conside": 2993,
      "themselves": 2994,
      "chest": 2995,
      "sundays": 2996,
      "fluently": 2997,
      "ibly": 2998,
      "kilo": 2999,
      "according": 3000,
      "oranges": 3001,
      "considered": 3002,
      "cher": 3003,
      "ease": 3004,
      "state": 3005,
      "rose": 3006,
      "pean": 3007,
      "sometime": 3008,
      "among": 3009,
      "shoulder": 3010,
      "diary": 3011,
      "paying": 3012,
      "passeng": 3013,
      "gging": 3014,
      "hug": 3015,
      "examination": 3016,
      "ugly": 3017,
      "canceled": 3018,
      "brown": 3019,
      "violin": 3020,
      "allergic": 3021,
      "ambulance": 3022,
      "passengers": 3023,
      "aunt": 3024,
      "enti": 3025,
      "cover": 3026,
      "aches": 3027,
      "oker": 3028,
      "agger": 3029,
      "writes": 3030,
      "germany": 3031,
      "simply": 3032,
      "miles": 3033,
      "london": 3034,
      "above": 3035,
      "cute": 3036,
      "gree": 3037,
      "mu": 3038,
      "nur": 3039,
      "wounded": 3040,
      "arian": 3041,
      "myster": 3042,
      "thered": 3043,
      "deaf": 3044,
      "author": 3045,
      "uses": 3046,
      "blan": 3047,
      "walks": 3048,
      "cleaning": 3049,
      "human": 3050,
      "succeeded": 3051,
      "castle": 3052,
      "fashion": 3053,
      "cru": 3054,
      "nail": 3055,
      "pushed": 3056,
      "attr": 3057,
      "meters": 3058,
      "rots": 3059,
      "unable": 3060,
      "tra": 3061,
      "ific": 3062,
      "concentr": 3063,
      "planned": 3064,
      "closer": 3065,
      "acted": 3066,
      "checked": 3067,
      "hearing": 3068,
      "snowing": 3069,
      "occur": 3070,
      "gram": 3071,
      "current": 3072,
      "distance": 3073,
      "cases": 3074,
      "magazine": 3075,
      "ann": 3076,
      "happiness": 3077,
      "growing": 3078,
      "gained": 3079,
      "embarr": 3080,
      "motorcycle": 3081,
      "wealthy": 3082,
      "natural": 3083,
      "embarrass": 3084,
      "hello": 3085,
      "env": 3086,
      "enem": 3087,
      "yourselves": 3088,
      "unusual": 3089,
      "motion": 3090,
      "ends": 3091,
      "del": 3092,
      "exagger": 3093,
      "convers": 3094,
      "carried": 3095,
      "cheaper": 3096,
      "spends": 3097,
      "forgiven": 3098,
      "disappoint": 3099,
      "animal": 3100,
      "distur": 3101,
      "brief": 3102,
      "practice": 3103,
      "claim": 3104,
      "familiar": 3105,
      "envelope": 3106,
      "attractive": 3107,
      "enemies": 3108,
      "camp": 3109,
      "nod": 3110,
      "limit": 3111,
      "ulous": 3112,
      "prin": 3113,
      "bitten": 3114,
      "funeral": 3115,
      "doubts": 3116,
      "exhausted": 3117,
      "suspicious": 3118,
      "illegal": 3119,
      "flying": 3120,
      "slight": 3121,
      "vase": 3122,
      "anno": 3123,
      "theater": 3124,
      "plants": 3125,
      "odd": 3126,
      "audi": 3127,
      "german": 3128,
      "prize": 3129,
      "denied": 3130,
      "attended": 3131,
      "complained": 3132,
      "squir": 3133,
      "factory": 3134,
      "pronoun": 3135,
      "gy": 3136,
      "ial": 3137,
      "ieve": 3138,
      "pond": 3139,
      "incre": 3140,
      "nois": 3141,
      "season": 3142,
      "sale": 3143,
      "houses": 3144,
      "chose": 3145,
      "reasonable": 3146,
      "captain": 3147,
      "cousins": 3148,
      "video": 3149,
      "sweet": 3150,
      "credit": 3151,
      "conversation": 3152,
      "sil": 3153,
      "armed": 3154,
      "goal": 3155,
      "tip": 3156,
      "ambit": 3157,
      "artist": 3158,
      "selfish": 3159,
      "cookie": 3160,
      "advant": 3161,
      "largest": 3162,
      "continued": 3163,
      "profession": 3164,
      "frightened": 3165,
      "university": 3166,
      "group": 3167,
      "nap": 3168,
      "sion": 3169,
      "zen": 3170,
      "bomb": 3171,
      "spid": 3172,
      "airplane": 3173,
      "grandparents": 3174,
      "tongue": 3175,
      "awful": 3176,
      "critic": 3177,
      "repeat": 3178,
      "govern": 3179,
      "squirrel": 3180,
      "cong": 3181,
      "lack": 3182,
      "sses": 3183,
      "ina": 3184,
      "marri": 3185,
      "ainted": 3186,
      "pointed": 3187,
      "carrots": 3188,
      "gives": 3189,
      "dreamed": 3190,
      "thanked": 3191,
      "laun": 3192,
      "clus": 3193,
      "advance": 3194,
      "due": 3195,
      "capable": 3196,
      "woods": 3197,
      "snakes": 3198,
      "crowded": 3199,
      "elected": 3200,
      "accustom": 3201,
      "bite": 3202,
      "cket": 3203,
      "spl": 3204,
      "orig": 3205,
      "stars": 3206,
      "trad": 3207,
      "deter": 3208,
      "blew": 3209,
      "gray": 3210,
      "answering": 3211,
      "begun": 3212,
      "silence": 3213,
      "humor": 3214,
      "basement": 3215,
      "collect": 3216,
      "straw": 3217,
      "remained": 3218,
      "barking": 3219,
      "abandoned": 3220,
      "government": 3221,
      "accustomed": 3222,
      "aut": 3223,
      "dess": 3224,
      "fil": 3225,
      "meal": 3226,
      "fork": 3227,
      "saving": 3228,
      "depressed": 3229,
      "exer": 3230,
      "excep": 3231,
      "proper": 3232,
      "scient": 3233,
      "stub": 3234,
      "handwriting": 3235,
      "ridic": 3236,
      "quietly": 3237,
      "murdered": 3238,
      "mountains": 3239,
      "generous": 3240,
      "amazing": 3241,
      "nurse": 3242,
      "desser": 3243,
      "ga": 3244,
      "harm": 3245,
      "toys": 3246,
      "whis": 3247,
      "neare": 3248,
      "boo": 3249,
      "sue": 3250,
      "raw": 3251,
      "conclus": 3252,
      "picnic": 3253,
      "haircut": 3254,
      "drives": 3255,
      "expert": 3256,
      "translated": 3257,
      "committed": 3258,
      "saturday": 3259,
      "ek": 3260,
      "farm": 3261,
      "pig": 3262,
      "hobby": 3263,
      "unlocked": 3264,
      "ury": 3265,
      "space": 3266,
      "science": 3267,
      "rooms": 3268,
      "finding": 3269,
      "field": 3270,
      "disappeared": 3271,
      "grass": 3272,
      "kinds": 3273,
      "daughters": 3274,
      "bags": 3275,
      "seats": 3276,
      "flag": 3277,
      "sharp": 3278,
      "record": 3279,
      "earthquake": 3280,
      "ridiculous": 3281,
      "oh": 3282,
      "round": 3283,
      "sink": 3284,
      "hesit": 3285,
      "stories": 3286,
      "exist": 3287,
      "conne": 3288,
      "speed": 3289,
      "cheated": 3290,
      "phoned": 3291,
      "publ": 3292,
      "boxes": 3293,
      "shake": 3294,
      "secrets": 3295,
      "friday": 3296,
      "crimin": 3297,
      "survived": 3298,
      "politics": 3299,
      "instructions": 3300,
      "interrupt": 3301,
      "released": 3302,
      "peanuts": 3303,
      "dessert": 3304,
      "ilet": 3305,
      "lines": 3306,
      "toy": 3307,
      "wild": 3308,
      "lobby": 3309,
      "progress": 3310,
      "que": 3311,
      "served": 3312,
      "trains": 3313,
      "difficulty": 3314,
      "owner": 3315,
      "options": 3316,
      "tallest": 3317,
      "agrees": 3318,
      "purse": 3319,
      "volu": 3320,
      "places": 3321,
      "breathe": 3322,
      "stubborn": 3323,
      "cro": 3324,
      "mble": 3325,
      "pit": 3326,
      "sour": 3327,
      "toilet": 3328,
      "rot": 3329,
      "amond": 3330,
      "wondered": 3331,
      "diamond": 3332,
      "lasted": 3333,
      "careless": 3334,
      "hunting": 3335,
      "promises": 3336,
      "lesson": 3337,
      "gery": 3338,
      "decisions": 3339,
      "eleph": 3340,
      "cups": 3341,
      "insane": 3342,
      "package": 3343,
      "burst": 3344,
      "depends": 3345,
      "particip": 3346,
      "officer": 3347,
      "bananas": 3348,
      "marriage": 3349,
      "dust": 3350,
      "econ": 3351,
      "fur": 3352,
      "omy": 3353,
      "oce": 3354,
      "thick": 3355,
      "inse": 3356,
      "error": 3357,
      "ney": 3358,
      "cture": 3359,
      "scrat": 3360,
      "jobs": 3361,
      "ruin": 3362,
      "personally": 3363,
      "pull": 3364,
      "headed": 3365,
      "obje": 3366,
      "salad": 3367,
      "suitcases": 3368,
      "fingers": 3369,
      "investig": 3370,
      "volunte": 3371,
      "gth": 3372,
      "jor": 3373,
      "aled": 3374,
      "knowled": 3375,
      "aggress": 3376,
      "tense": 3377,
      "consu": 3378,
      "bum": 3379,
      "friendship": 3380,
      "understanding": 3381,
      "chosen": 3382,
      "geni": 3383,
      "origin": 3384,
      "arent": 3385,
      "terms": 3386,
      "trous": 3387,
      "reads": 3388,
      "ounds": 3389,
      "clever": 3390,
      "apparent": 3391,
      "biggest": 3392,
      "safety": 3393,
      "knocked": 3394,
      "electri": 3395,
      "celebrate": 3396,
      "drowned": 3397,
      "cruel": 3398,
      "claims": 3399,
      "audience": 3400,
      "ambitious": 3401,
      "blow": 3402,
      "cave": 3403,
      "lted": 3404,
      "request": 3405,
      "coins": 3406,
      "unfair": 3407,
      "impro": 3408,
      "poin": 3409,
      "workers": 3410,
      "bleed": 3411,
      "studies": 3412,
      "puzz": 3413,
      "kissing": 3414,
      "deserved": 3415,
      "punct": 3416,
      "major": 3417,
      "witness": 3418,
      "gentle": 3419,
      "divorce": 3420,
      "pressure": 3421,
      "adult": 3422,
      "destroyed": 3423,
      "stomach": 3424,
      "cit": 3425,
      "mouse": 3426,
      "nation": 3427,
      "rush": 3428,
      "wave": 3429,
      "invented": 3430,
      "informed": 3431,
      "area": 3432,
      "spin": 3433,
      "direct": 3434,
      "achieve": 3435,
      "decl": 3436,
      "runs": 3437,
      "skirt": 3438,
      "password": 3439,
      "musician": 3440,
      "falling": 3441,
      "persuaded": 3442,
      "knee": 3443,
      "nearest": 3444,
      "bly": 3445,
      "anx": 3446,
      "ism": 3447,
      "shirts": 3448,
      "desp": 3449,
      "cloud": 3450,
      "serve": 3451,
      "lightning": 3452,
      "dollar": 3453,
      "paris": 3454,
      "suggestion": 3455,
      "pieces": 3456,
      "south": 3457,
      "deserves": 3458,
      "dancer": 3459,
      "ratul": 3460,
      "defend": 3461,
      "blanket": 3462,
      "nodded": 3463,
      "congratul": 3464,
      "alice": 3465,
      "zer": 3466,
      "thro": 3467,
      "arrow": 3468,
      "sty": 3469,
      "webs": 3470,
      "yelling": 3471,
      "bud": 3472,
      "surgery": 3473,
      "path": 3474,
      "sib": 3475,
      "deny": 3476,
      "hibit": 3477,
      "interpre": 3478,
      "north": 3479,
      "approach": 3480,
      "reminds": 3481,
      "france": 3482,
      "responsib": 3483,
      "ocean": 3484,
      "ging": 3485,
      "nons": 3486,
      "xi": 3487,
      "edu": 3488,
      "coll": 3489,
      "mosqu": 3490,
      "extra": 3491,
      "cheek": 3492,
      "starts": 3493,
      "sleeps": 3494,
      "visitor": 3495,
      "pajam": 3496,
      "teaches": 3497,
      "ringing": 3498,
      "psy": 3499,
      "engaged": 3500,
      "azz": 3501,
      "sides": 3502,
      "uniform": 3503,
      "valu": 3504,
      "candles": 3505,
      "pajamas": 3506,
      "double": 3507,
      "jour": 3508,
      "ker": 3509,
      "lou": 3510,
      "rac": 3511,
      "tat": 3512,
      "tes": 3513,
      "yor": 3514,
      "ences": 3515,
      "bea": 3516,
      "bered": 3517,
      "china": 3518,
      "fox": 3519,
      "izen": 3520,
      "sells": 3521,
      "warning": 3522,
      "correctly": 3523,
      "pretending": 3524,
      "practic": 3525,
      "particular": 3526,
      "laundry": 3527,
      "aggressive": 3528,
      "citizen": 3529,
      "tattoo": 3530,
      "york": 3531,
      "bage": 3532,
      "dish": 3533,
      "wis": 3534,
      "meth": 3535,
      "separ": 3536,
      "chief": 3537,
      "coach": 3538,
      "action": 3539,
      "comm": 3540,
      "oldest": 3541,
      "contain": 3542,
      "selling": 3543,
      "presents": 3544,
      "recovered": 3545,
      "messages": 3546,
      "impression": 3547,
      "email": 3548,
      "imagination": 3549,
      "translation": 3550,
      "noisy": 3551,
      "apparently": 3552,
      "punctual": 3553,
      "nonsense": 3554,
      "cation": 3555,
      "zing": 3556,
      "height": 3557,
      "net": 3558,
      "tied": 3559,
      "moder": 3560,
      "pleasure": 3561,
      "dete": 3562,
      "speaker": 3563,
      "shoe": 3564,
      "ruined": 3565,
      "phones": 3566,
      "mates": 3567,
      "stepped": 3568,
      "computers": 3569,
      "knit": 3570,
      "weekends": 3571,
      "gifts": 3572,
      "neighborhood": 3573,
      "photograph": 3574,
      "deeply": 3575,
      "population": 3576,
      "lady": 3577,
      "switch": 3578,
      "pillow": 3579,
      "website": 3580,
      "louder": 3581,
      "alike": 3582,
      "sill": 3583,
      "wide": 3584,
      "ings": 3585,
      "energ": 3586,
      "becoming": 3587,
      "icy": 3588,
      "ices": 3589,
      "ically": 3590,
      "foreig": 3591,
      "manager": 3592,
      "putting": 3593,
      "restim": 3594,
      "turns": 3595,
      "sings": 3596,
      "useless": 3597,
      "opening": 3598,
      "ference": 3599,
      "berries": 3600,
      "stranger": 3601,
      "shape": 3602,
      "climate": 3603,
      "battle": 3604,
      "earns": 3605,
      "pork": 3606,
      "fifteen": 3607,
      "rescue": 3608,
      "terribly": 3609,
      "exercise": 3610,
      "genius": 3611,
      "anxious": 3612,
      "throat": 3613,
      "beauty": 3614,
      "method": 3615,
      "energy": 3616,
      "bal": 3617,
      "fan": 3618,
      "fli": 3619,
      "gs": 3620,
      "hig": 3621,
      "nal": 3622,
      "pir": 3623,
      "pess": 3624,
      "rare": 3625,
      "vit": 3626,
      "meter": 3627,
      "het": 3628,
      "stit": 3629,
      "ham": 3630,
      "loss": 3631,
      "pepper": 3632,
      "pleas": 3633,
      "sheep": 3634,
      "deceive": 3635,
      "illness": 3636,
      "affect": 3637,
      "discovered": 3638,
      "disease": 3639,
      "drew": 3640,
      "paired": 3641,
      "nearby": 3642,
      "emplo": 3643,
      "crash": 3644,
      "orders": 3645,
      "jected": 3646,
      "curtain": 3647,
      "tracted": 3648,
      "notebook": 3649,
      "loudly": 3650,
      "turning": 3651,
      "leaned": 3652,
      "weapon": 3653,
      "relatives": 3654,
      "concentrate": 3655,
      "split": 3656,
      "published": 3657,
      "pessim": 3658,
      "ko": 3659,
      "twins": 3660,
      "van": 3661,
      "independ": 3662,
      "mexi": 3663,
      "asing": 3664,
      "aside": 3665,
      "hammer": 3666,
      "lips": 3667,
      "rom": 3668,
      "album": 3669,
      "forty": 3670,
      "coin": 3671,
      "tron": 3672,
      "trunk": 3673,
      "ssed": 3674,
      "bulle": 3675,
      "begged": 3676,
      "lessons": 3677,
      "spoon": 3678,
      "hidden": 3679,
      "bottom": 3680,
      "soul": 3681,
      "respond": 3682,
      "snake": 3683,
      "newspapers": 3684,
      "advantage": 3685,
      "bleeding": 3686,
      "bid": 3687,
      "center": 3688,
      "jazz": 3689,
      "lin": 3690,
      "pour": 3691,
      "insur": 3692,
      "repaired": 3693,
      "degre": 3694,
      "spare": 3695,
      "prevented": 3696,
      "parking": 3697,
      "larger": 3698,
      "dreaming": 3699,
      "bluff": 3700,
      "insisted": 3701,
      "colors": 3702,
      "fairly": 3703,
      "packed": 3704,
      "vegetarian": 3705,
      "reliable": 3706,
      "hypo": 3707,
      "experienced": 3708,
      "further": 3709,
      "electricity": 3710,
      "detective": 3711,
      "degrees": 3712,
      "ires": 3713,
      "mbered": 3714,
      "rep": 3715,
      "soap": 3716,
      "plu": 3717,
      "defe": 3718,
      "wheel": 3719,
      "misses": 3720,
      "spill": 3721,
      "kidn": 3722,
      "skip": 3723,
      "spending": 3724,
      "biolog": 3725,
      "soldier": 3726,
      "avail": 3727,
      "subway": 3728,
      "evidence": 3729,
      "americans": 3730,
      "entrance": 3731,
      "placed": 3732,
      "weighs": 3733,
      "flew": 3734,
      "victi": 3735,
      "insurance": 3736,
      "sne": 3737,
      "tend": 3738,
      "ordin": 3739,
      "stre": 3740,
      "stared": 3741,
      "nel": 3742,
      "okay": 3743,
      "contest": 3744,
      "comment": 3745,
      "bucket": 3746,
      "spread": 3747,
      "finds": 3748,
      "cheer": 3749,
      "reasons": 3750,
      "complaints": 3751,
      "chairs": 3752,
      "photos": 3753,
      "novels": 3754,
      "mirac": 3755,
      "cancel": 3756,
      "admire": 3757,
      "exception": 3758,
      "mosqui": 3759,
      "available": 3760,
      "ale": 3761,
      "bound": 3762,
      "pink": 3763,
      "poker": 3764,
      "tore": 3765,
      "remark": 3766,
      "toma": 3767,
      "itali": 3768,
      "noti": 3769,
      "verage": 3770,
      "misunderstood": 3771,
      "waiter": 3772,
      "stops": 3773,
      "border": 3774,
      "listens": 3775,
      "election": 3776,
      "vio": 3777,
      "crack": 3778,
      "traveled": 3779,
      "risks": 3780,
      "garbage": 3781,
      "figured": 3782,
      "magic": 3783,
      "slipped": 3784,
      "pilot": 3785,
      "postponed": 3786,
      "romantic": 3787,
      "ee": 3788,
      "fy": 3789,
      "vided": 3790,
      "retire": 3791,
      "ony": 3792,
      "vert": 3793,
      "ppy": 3794,
      "trap": 3795,
      "impatient": 3796,
      "ives": 3797,
      "stays": 3798,
      "hopeless": 3799,
      "phys": 3800,
      "shock": 3801,
      "rainy": 3802,
      "accent": 3803,
      "differently": 3804,
      "begins": 3805,
      "planet": 3806,
      "calcul": 3807,
      "sharpen": 3808,
      "intentionally": 3809,
      "frankly": 3810,
      "currently": 3811,
      "announ": 3812,
      "professional": 3813,
      "boots": 3814,
      "silly": 3815,
      "ji": 3816,
      "lap": 3817,
      "tro": 3818,
      "tent": 3819,
      "astron": 3820,
      "bee": 3821,
      "neg": 3822,
      "unde": 3823,
      "mobi": 3824,
      "yell": 3825,
      "conference": 3826,
      "buried": 3827,
      "spy": 3828,
      "tingu": 3829,
      "final": 3830,
      "rub": 3831,
      "skate": 3832,
      "hugged": 3833,
      "prisoner": 3834,
      "foolish": 3835,
      "struck": 3836,
      "chall": 3837,
      "panic": 3838,
      "gradu": 3839,
      "drugs": 3840,
      "grabbed": 3841,
      "alcohol": 3842,
      "mud": 3843,
      "knowledge": 3844,
      "trousers": 3845,
      "education": 3846,
      "modern": 3847,
      "bluffing": 3848,
      "mobile": 3849,
      "bac": 3850,
      "cities": 3851,
      "fers": 3852,
      "stain": 3853,
      "lecture": 3854,
      "loan": 3855,
      "tiv": 3856,
      "oked": 3857,
      "unless": 3858,
      "track": 3859,
      "helmet": 3860,
      "aghet": 3861,
      "percent": 3862,
      "afri": 3863,
      "spaghet": 3864,
      "rug": 3865,
      "mped": 3866,
      "accur": 3867,
      "content": 3868,
      "counting": 3869,
      "rings": 3870,
      "paring": 3871,
      "bottles": 3872,
      "sym": 3873,
      "electric": 3874,
      "dawn": 3875,
      "micro": 3876,
      "underestim": 3877,
      "spaghetti": 3878,
      "bare": 3879,
      "cour": 3880,
      "emer": 3881,
      "fra": 3882,
      "ith": 3883,
      "lamp": 3884,
      "os": 3885,
      "rus": 3886,
      "rate": 3887,
      "topic": 3888,
      "attic": 3889,
      "ality": 3890,
      "loaded": 3891,
      "within": 3892,
      "unmarried": 3893,
      "program": 3894,
      "conven": 3895,
      "file": 3896,
      "liter": 3897,
      "remembers": 3898,
      "sors": 3899,
      "furious": 3900,
      "possib": 3901,
      "corn": 3902,
      "picky": 3903,
      "interview": 3904,
      "knives": 3905,
      "faces": 3906,
      "failure": 3907,
      "engineer": 3908,
      "fifty": 3909,
      "knocking": 3910,
      "religious": 3911,
      "mystery": 3912,
      "pronounce": 3913,
      "determin": 3914,
      "scientist": 3915,
      "criminal": 3916,
      "responsibility": 3917,
      "bullet": 3918,
      "avi": 3919,
      "mt": 3920,
      "mask": 3921,
      "non": 3922,
      "rounded": 3923,
      "remove": 3924,
      "issors": 3925,
      "ery": 3926,
      "hall": 3927,
      "goti": 3928,
      "negoti": 3929,
      "located": 3930,
      "unconscious": 3931,
      "homesick": 3932,
      "scissors": 3933,
      "gull": 3934,
      "bru": 3935,
      "downtown": 3936,
      "izing": 3937,
      "accidents": 3938,
      "spot": 3939,
      "argument": 3940,
      "burning": 3941,
      "screaming": 3942,
      "bald": 3943,
      "cigarette": 3944,
      "department": 3945,
      "nails": 3946,
      "envy": 3947,
      "silver": 3948,
      "ordinary": 3949,
      "cure": 3950,
      "flies": 3951,
      "iest": 3952,
      "imed": 3953,
      "pounds": 3954,
      "regard": 3955,
      "meals": 3956,
      "arri": 3957,
      "added": 3958,
      "aces": 3959,
      "affair": 3960,
      "shook": 3961,
      "grant": 3962,
      "flood": 3963,
      "visiting": 3964,
      "italy": 3965,
      "shame": 3966,
      "secretary": 3967,
      "walls": 3968,
      "blamed": 3969,
      "teenager": 3970,
      "excited": 3971,
      "searched": 3972,
      "explosion": 3973,
      "entirely": 3974,
      "breathing": 3975,
      "stealing": 3976,
      "robbed": 3977,
      "threatened": 3978,
      "suffering": 3979,
      "incredibly": 3980,
      "accurate": 3981,
      "ckey": 3982,
      "dated": 3983,
      "ium": 3984,
      "rise": 3985,
      "relu": 3986,
      "whist": 3987,
      "below": 3988,
      "hockey": 3989,
      "roll": 3990,
      "model": 3991,
      "pot": 3992,
      "compet": 3993,
      "mayor": 3994,
      "themat": 3995,
      "forgetting": 3996,
      "swimmer": 3997,
      "changing": 3998,
      "alibi": 3999,
      "warmer": 4000,
      "inclu": 4001,
      "mathemat": 4002,
      "frequ": 4003,
      "tub": 4004,
      "generally": 4005,
      "claimed": 4006,
      "folded": 4007,
      "damage": 4008,
      "debt": 4009,
      "wrap": 4010,
      "style": 4011,
      "commun": 4012,
      "pessimistic": 4013,
      "gullible": 4014,
      "reluct": 4015,
      "aid": 4016,
      "eigh": 4017,
      "eager": 4018,
      "tit": 4019,
      "twin": 4020,
      "aries": 4021,
      "ays": 4022,
      "forts": 4023,
      "uncomfortable": 4024,
      "sail": 4025,
      "sum": 4026,
      "pop": 4027,
      "derer": 4028,
      "fog": 4029,
      "const": 4030,
      "remembered": 4031,
      "skating": 4032,
      "leather": 4033,
      "wards": 4034,
      "crashed": 4035,
      "businessman": 4036,
      "appears": 4037,
      "discussion": 4038,
      "murderer": 4039,
      "champ": 4040,
      "paintings": 4041,
      "hanging": 4042,
      "scarf": 4043,
      "scary": 4044,
      "operation": 4045,
      "leader": 4046,
      "swam": 4047,
      "switched": 4048,
      "occurred": 4049,
      "valuable": 4050,
      "oting": 4051,
      "phe": 4052,
      "ske": 4053,
      "iny": 4054,
      "removed": 4055,
      "heavi": 4056,
      "behaving": 4057,
      "secur": 4058,
      "holic": 4059,
      "candle": 4060,
      "accom": 4061,
      "accompany": 4062,
      "ceiling": 4063,
      "sales": 4064,
      "ify": 4065,
      "helpful": 4066,
      "constru": 4067,
      "lottery": 4068,
      "dip": 4069,
      "lovely": 4070,
      "gled": 4071,
      "surrounded": 4072,
      "logical": 4073,
      "intended": 4074,
      "puppy": 4075,
      "enjoys": 4076,
      "highly": 4077,
      "grave": 4078,
      "efforts": 4079,
      "fortune": 4080,
      "owes": 4081,
      "ignoring": 4082,
      "square": 4083,
      "acceptable": 4084,
      "steps": 4085,
      "documents": 4086,
      "poems": 4087,
      "customers": 4088,
      "robber": 4089,
      "disturb": 4090,
      "volume": 4091,
      "gentleman": 4092,
      "security": 4093,
      "ctor": 4094,
      "ka": 4095,
      "rit": 4096,
      "sant": 4097,
      "vain": 4098,
      "ining": 4099,
      "atten": 4100,
      "stat": 4101,
      "lion": 4102,
      "local": 4103,
      "boil": 4104,
      "cot": 4105,
      "anytime": 4106,
      "fere": 4107,
      "stove": 4108,
      "conserv": 4109,
      "brain": 4110,
      "handker": 4111,
      "survi": 4112,
      "keeping": 4113,
      "youngest": 4114,
      "lished": 4115,
      "desper": 4116,
      "canada": 4117,
      "eleven": 4118,
      "interfere": 4119,
      "prisoners": 4120,
      "gency": 4121,
      "cuff": 4122,
      "tempt": 4123,
      "millionai": 4124,
      "predictable": 4125,
      "adults": 4126,
      "rescued": 4127,
      "appearance": 4128,
      "gathered": 4129,
      "diplo": 4130,
      "attentive": 4131,
      "conservative": 4132,
      "handkerchief": 4133,
      "cin": 4134,
      "fant": 4135,
      "gust": 4136,
      "narrow": 4137,
      "xpect": 4138,
      "ises": 4139,
      "itself": 4140,
      "ency": 4141,
      "rog": 4142,
      "chat": 4143,
      "cock": 4144,
      "abs": 4145,
      "aint": 4146,
      "plate": 4147,
      "spir": 4148,
      "bookstore": 4149,
      "bling": 4150,
      "apology": 4151,
      "classmates": 4152,
      "accidentally": 4153,
      "trick": 4154,
      "awfully": 4155,
      "punish": 4156,
      "sleeve": 4157,
      "postcard": 4158,
      "fooled": 4159,
      "unexpect": 4160,
      "evil": 4161,
      "thousands": 4162,
      "habits": 4163,
      "regis": 4164,
      "cigarettes": 4165,
      "embarrassed": 4166,
      "interpreter": 4167,
      "pleasant": 4168,
      "mathematics": 4169,
      "heavier": 4170,
      "unexpected": 4171,
      "fir": 4172,
      "fate": 4173,
      "pha": 4174,
      "xed": 4175,
      "toler": 4176,
      "toms": 4177,
      "anced": 4178,
      "dozen": 4179,
      "poet": 4180,
      "offend": 4181,
      "wolf": 4182,
      "mony": 4183,
      "discount": 4184,
      "blon": 4185,
      "lawn": 4186,
      "logy": 4187,
      "logra": 4188,
      "classical": 4189,
      "streets": 4190,
      "zeal": 4191,
      "regretted": 4192,
      "cakes": 4193,
      "engage": 4194,
      "flash": 4195,
      "collection": 4196,
      "approve": 4197,
      "strike": 4198,
      "richer": 4199,
      "celebrating": 4200,
      "assistance": 4201,
      "cows": 4202,
      "grades": 4203,
      "weapons": 4204,
      "incredible": 4205,
      "spiders": 4206,
      "visitors": 4207,
      "determined": 4208,
      "gro": 4209,
      "nature": 4210,
      "remo": 4211,
      "heli": 4212,
      "stab": 4213,
      "chu": 4214,
      "aly": 4215,
      "alter": 4216,
      "timid": 4217,
      "notes": 4218,
      "cere": 4219,
      "prohibit": 4220,
      "backyard": 4221,
      "span": 4222,
      "spell": 4223,
      "pens": 4224,
      "cheating": 4225,
      "shots": 4226,
      "swims": 4227,
      "mater": 4228,
      "mplo": 4229,
      "fuji": 4230,
      "pays": 4231,
      "strang": 4232,
      "century": 4233,
      "umn": 4234,
      "burgl": 4235,
      "screw": 4236,
      "screamed": 4237,
      "unemplo": 4238,
      "politic": 4239,
      "mentioned": 4240,
      "poisoned": 4241,
      "kilogra": 4242,
      "searching": 4243,
      "tempor": 4244,
      "quarrel": 4245,
      "confessed": 4246,
      "conclusions": 4247,
      "africa": 4248,
      "emergency": 4249,
      "frequently": 4250,
      "santa": 4251,
      "average": 4252,
      "pstick": 4253,
      "sac": 4254,
      "scold": 4255,
      "ata": 4256,
      "dor": 4257,
      "stren": 4258,
      "wasted": 4259,
      "nowad": 4260,
      "rolled": 4261,
      "somehow": 4262,
      "ague": 4263,
      "autom": 4264,
      "backpack": 4265,
      "spite": 4266,
      "preparing": 4267,
      "buys": 4268,
      "sitive": 4269,
      "laid": 4270,
      "matic": 4271,
      "breaking": 4272,
      "trusts": 4273,
      "difficulties": 4274,
      "worrying": 4275,
      "shared": 4276,
      "humi": 4277,
      "suggesting": 4278,
      "sweat": 4279,
      "danced": 4280,
      "service": 4281,
      "slave": 4282,
      "defense": 4283,
      "rabbits": 4284,
      "insects": 4285,
      "clouds": 4286,
      "absence": 4287,
      "zealand": 4288,
      "engagement": 4289,
      "nowadays": 4290,
      "humili": 4291,
      "bb": 4292,
      "bent": 4293,
      "barn": 4294,
      "link": 4295,
      "lace": 4296,
      "ns": 4297,
      "rushed": 4298,
      "twe": 4299,
      "ya": 4300,
      "yball": 4301,
      "rese": 4302,
      "rejected": 4303,
      "issue": 4304,
      "aster": 4305,
      "beef": 4306,
      "rap": 4307,
      "amou": 4308,
      "misunderstanding": 4309,
      "contrad": 4310,
      "spain": 4311,
      "prevent": 4312,
      "bush": 4313,
      "actress": 4314,
      "visa": 4315,
      "hurried": 4316,
      "volle": 4317,
      "owns": 4318,
      "papers": 4319,
      "pulse": 4320,
      "resist": 4321,
      "drawing": 4322,
      "powerful": 4323,
      "tasted": 4324,
      "response": 4325,
      "postpone": 4326,
      "organized": 4327,
      "autumn": 4328,
      "granted": 4329,
      "contradic": 4330,
      "volleyball": 4331,
      "fake": 4332,
      "ii": 4333,
      "mans": 4334,
      "pher": 4335,
      "slower": 4336,
      "ude": 4337,
      "vard": 4338,
      "anci": 4339,
      "stun": 4340,
      "stamp": 4341,
      "sees": 4342,
      "knowing": 4343,
      "cops": 4344,
      "acy": 4345,
      "improve": 4346,
      "develo": 4347,
      "prefers": 4348,
      "apri": 4349,
      "brit": 4350,
      "sters": 4351,
      "handcuff": 4352,
      "aughter": 4353,
      "fund": 4354,
      "june": 4355,
      "shade": 4356,
      "shaking": 4357,
      "farmer": 4358,
      "object": 4359,
      "internet": 4360,
      "grapes": 4361,
      "joined": 4362,
      "harvard": 4363,
      "tured": 4364,
      "carrying": 4365,
      "relaxed": 4366,
      "permitted": 4367,
      "acquainted": 4368,
      "exaggerating": 4369,
      "film": 4370,
      "employe": 4371,
      "popcorn": 4372,
      "millionaire": 4373,
      "strength": 4374,
      "twelve": 4375,
      "dried": 4376,
      "gage": 4377,
      "mall": 4378,
      "tar": 4379,
      "wound": 4380,
      "measure": 4381,
      "asy": 4382,
      "arch": 4383,
      "arrog": 4384,
      "lete": 4385,
      "loser": 4386,
      "sore": 4387,
      "imm": 4388,
      "yelled": 4389,
      "leted": 4390,
      "dev": 4391,
      "deleted": 4392,
      "exit": 4393,
      "tools": 4394,
      "aff": 4395,
      "affe": 4396,
      "typho": 4397,
      "lugg": 4398,
      "decor": 4399,
      "founded": 4400,
      "colder": 4401,
      "creative": 4402,
      "snowman": 4403,
      "eyesight": 4404,
      "master": 4405,
      "guessed": 4406,
      "regrets": 4407,
      "taxes": 4408,
      "bathtub": 4409,
      "fluent": 4410,
      "pencils": 4411,
      "clue": 4412,
      "critical": 4413,
      "admired": 4414,
      "shouted": 4415,
      "deliver": 4416,
      "kilometers": 4417,
      "cherry": 4418,
      "rotten": 4419,
      "national": 4420,
      "spinach": 4421,
      "kidnapped": 4422,
      "snee": 4423,
      "possibility": 4424,
      "skep": 4425,
      "fantastic": 4426,
      "helicop": 4427,
      "prohibited": 4428,
      "cence": 4429,
      "fal": 4430,
      "gri": 4431,
      "hon": 4432,
      "laughter": 4433,
      "osa": 4434,
      "pin": 4435,
      "react": 4436,
      "eds": 4437,
      "ering": 4438,
      "section": 4439,
      "forbid": 4440,
      "tech": 4441,
      "tial": 4442,
      "utter": 4443,
      "poo": 4444,
      "focus": 4445,
      "carpet": 4446,
      "scri": 4447,
      "surren": 4448,
      "killer": 4449,
      "mush": 4450,
      "refle": 4451,
      "picking": 4452,
      "horror": 4453,
      "incident": 4454,
      "impressive": 4455,
      "crossing": 4456,
      "innocence": 4457,
      "avoiding": 4458,
      "positive": 4459,
      "customer": 4460,
      "necklace": 4461,
      "professor": 4462,
      "coughing": 4463,
      "compared": 4464,
      "slightly": 4465,
      "squirrels": 4466,
      "elephants": 4467,
      "original": 4468,
      "collap": 4469,
      "spilled": 4470,
      "ceremony": 4471,
      "kilograms": 4472,
      "luggage": 4473,
      "gam": 4474,
      "pier": 4475,
      "wol": 4476,
      "influ": 4477,
      "replaced": 4478,
      "goat": 4479,
      "wiped": 4480,
      "addic": 4481,
      "worn": 4482,
      "exchange": 4483,
      "aven": 4484,
      "talkative": 4485,
      "mistook": 4486,
      "cons": 4487,
      "scene": 4488,
      "winner": 4489,
      "rights": 4490,
      "cleared": 4491,
      "minded": 4492,
      "breaks": 4493,
      "agreement": 4494,
      "painter": 4495,
      "dumb": 4496,
      "snowed": 4497,
      "baggage": 4498,
      "mile": 4499,
      "wooden": 4500,
      "resour": 4501,
      "braz": 4502,
      "value": 4503,
      "sensitive": 4504,
      "inviting": 4505,
      "skinny": 4506,
      "regular": 4507,
      "annoying": 4508,
      "participate": 4509,
      "waved": 4510,
      "independent": 4511,
      "stret": 4512,
      "miracle": 4513,
      "temporary": 4514,
      "bible": 4515,
      "ni": 4516,
      "rated": 4517,
      "tower": 4518,
      "thus": 4519,
      "inven": 4520,
      "attemp": 4521,
      "stage": 4522,
      "ids": 4523,
      "enthus": 4524,
      "hallo": 4525,
      "seve": 4526,
      "washes": 4527,
      "alpha": 4528,
      "forgave": 4529,
      "load": 4530,
      "mars": 4531,
      "tick": 4532,
      "absor": 4533,
      "shed": 4534,
      "urs": 4535,
      "dece": 4536,
      "exchanged": 4537,
      "thoughts": 4538,
      "faith": 4539,
      "planes": 4540,
      "decent": 4541,
      "iety": 4542,
      "strate": 4543,
      "pardon": 4544,
      "compan": 4545,
      "blackboard": 4546,
      "discussing": 4547,
      "pianist": 4548,
      "effort": 4549,
      "jacksons": 4550,
      "bills": 4551,
      "explode": 4552,
      "tourists": 4553,
      "rumors": 4554,
      "statement": 4555,
      "ential": 4556,
      "laptop": 4557,
      "accompl": 4558,
      "amount": 4559,
      "wolves": 4560,
      "enthusi": 4561,
      "halloween": 4562,
      "ax": 4563,
      "bone": 4564,
      "fainted": 4565,
      "junk": 4566,
      "va": 4567,
      "wink": 4568,
      "inher": 4569,
      "resign": 4570,
      "online": 4571,
      "stress": 4572,
      "leak": 4573,
      "lemon": 4574,
      "charm": 4575,
      "advent": 4576,
      "soci": 4577,
      "ably": 4578,
      "terror": 4579,
      "stock": 4580,
      "trai": 4581,
      "plastic": 4582,
      "command": 4583,
      "spying": 4584,
      "spicy": 4585,
      "spec": 4586,
      "watches": 4587,
      "bran": 4588,
      "shovel": 4589,
      "surprising": 4590,
      "bitter": 4591,
      "menu": 4592,
      "cooks": 4593,
      "arrives": 4594,
      "dug": 4595,
      "numbers": 4596,
      "complex": 4597,
      "vacu": 4598,
      "worthy": 4599,
      "appropri": 4600,
      "charac": 4601,
      "recommended": 4602,
      "soft": 4603,
      "slam": 4604,
      "snore": 4605,
      "shaved": 4606,
      "banana": 4607,
      "religion": 4608,
      "towards": 4609,
      "briefcase": 4610,
      "prints": 4611,
      "economy": 4612,
      "achieved": 4613,
      "journal": 4614,
      "victim": 4615,
      "tomatoes": 4616,
      "remote": 4617,
      "alternative": 4618,
      "helicopter": 4619,
      "traitor": 4620,
      "data": 4621,
      "skill": 4622,
      "ws": 4623,
      "iter": 4624,
      "ens": 4625,
      "usion": 4626,
      "pest": 4627,
      "irrit": 4628,
      "trash": 4629,
      "upon": 4630,
      "agious": 4631,
      "compromise": 4632,
      "pers": 4633,
      "ilities": 4634,
      "pregn": 4635,
      "players": 4636,
      "brushed": 4637,
      "smoked": 4638,
      "minis": 4639,
      "sentenced": 4640,
      "desire": 4641,
      "contagious": 4642,
      "obli": 4643,
      "spoiled": 4644,
      "dedic": 4645,
      "restaurants": 4646,
      "buildings": 4647,
      "freed": 4648,
      "cellphone": 4649,
      "heavily": 4650,
      "beyond": 4651,
      "members": 4652,
      "snoring": 4653,
      "tourist": 4654,
      "disturbed": 4655,
      "gym": 4656,
      "property": 4657,
      "declined": 4658,
      "graduated": 4659,
      "affairs": 4660,
      "spanish": 4661,
      "unemployed": 4662,
      "scolded": 4663,
      "false": 4664,
      "fits": 4665,
      "gers": 4666,
      "sip": 4667,
      "vid": 4668,
      "onions": 4669,
      "arily": 4670,
      "ening": 4671,
      "bears": 4672,
      "worries": 4673,
      "rail": 4674,
      "deer": 4675,
      "demo": 4676,
      "digging": 4677,
      "makeup": 4678,
      "believ": 4679,
      "distracted": 4680,
      "ficient": 4681,
      "clar": 4682,
      "metal": 4683,
      "option": 4684,
      "grandchildren": 4685,
      "treasure": 4686,
      "craw": 4687,
      "smokes": 4688,
      "seconds": 4689,
      "mailbox": 4690,
      "total": 4691,
      "textbook": 4692,
      "magazines": 4693,
      "pills": 4694,
      "predict": 4695,
      "circle": 4696,
      "install": 4697,
      "required": 4698,
      "pitch": 4699,
      "scratch": 4700,
      "consult": 4701,
      "foreigners": 4702,
      "replied": 4703,
      "reluctantly": 4704,
      "survivor": 4705,
      "ancient": 4706,
      "typhoon": 4707,
      "skeptical": 4708,
      "glo": 4709,
      "jan": 4710,
      "pal": 4711,
      "pac": 4712,
      "pages": 4713,
      "swore": 4714,
      "uce": 4715,
      "xy": 4716,
      "bel": 4717,
      "advert": 4718,
      "solar": 4719,
      "code": 4720,
      "geon": 4721,
      "sheet": 4722,
      "rented": 4723,
      "aming": 4724,
      "shoulders": 4725,
      "astro": 4726,
      "frog": 4727,
      "frozen": 4728,
      "buses": 4729,
      "els": 4730,
      "mance": 4731,
      "trum": 4732,
      "applau": 4733,
      "earrings": 4734,
      "partner": 4735,
      "sia": 4736,
      "sushi": 4737,
      "safely": 4738,
      "recover": 4739,
      "cris": 4740,
      "legal": 4741,
      "fastest": 4742,
      "opinions": 4743,
      "effect": 4744,
      "male": 4745,
      "packing": 4746,
      "belonged": 4747,
      "politely": 4748,
      "slipper": 4749,
      "betray": 4750,
      "turtle": 4751,
      "victory": 4752,
      "experiment": 4753,
      "alcoholic": 4754,
      "kilos": 4755,
      "camping": 4756,
      "spider": 4757,
      "investigation": 4758,
      "points": 4759,
      "mosquitoes": 4760,
      "convenient": 4761,
      "sailor": 4762,
      "robbery": 4763,
      "burglar": 4764,
      "arrogant": 4765,
      "pregnant": 4766,
      "fond": 4767,
      "iles": 4768,
      "task": 4769,
      "ware": 4770,
      "wished": 4771,
      "zzy": 4772,
      "ano": 4773,
      "analy": 4774,
      "aspir": 4775,
      "level": 4776,
      "haun": 4777,
      "hamb": 4778,
      "goals": 4779,
      "rome": 4780,
      "cane": 4781,
      "rio": 4782,
      "social": 4783,
      "cel": 4784,
      "rage": 4785,
      "posed": 4786,
      "atest": 4787,
      "protest": 4788,
      "glanced": 4789,
      "otherwise": 4790,
      "forehead": 4791,
      "putation": 4792,
      "brace": 4793,
      "latest": 4794,
      "monkey": 4795,
      "shooting": 4796,
      "greatest": 4797,
      "minor": 4798,
      "kindness": 4799,
      "causes": 4800,
      "signature": 4801,
      "expenses": 4802,
      "captured": 4803,
      "drivers": 4804,
      "sixty": 4805,
      "maid": 4806,
      "photogra": 4807,
      "respected": 4808,
      "recipe": 4809,
      "sandwiches": 4810,
      "opera": 4811,
      "behaved": 4812,
      "pipe": 4813,
      "drowning": 4814,
      "bowl": 4815,
      "circ": 4816,
      "honeymoon": 4817,
      "twen": 4818,
      "increase": 4819,
      "strawberries": 4820,
      "hesitate": 4821,
      "scratched": 4822,
      "volunteers": 4823,
      "improved": 4824,
      "vitam": 4825,
      "mexico": 4826,
      "biology": 4827,
      "announced": 4828,
      "eighteen": 4829,
      "construction": 4830,
      "desperate": 4831,
      "april": 4832,
      "slippery": 4833,
      "hambur": 4834,
      "bones": 4835,
      "cage": 4836,
      "ets": 4837,
      "fought": 4838,
      "ks": 4839,
      "lab": 4840,
      "lish": 4841,
      "tun": 4842,
      "tag": 4843,
      "tite": 4844,
      "var": 4845,
      "incorrect": 4846,
      "reputation": 4847,
      "hest": 4848,
      "assure": 4849,
      "edge": 4850,
      "stances": 4851,
      "alty": 4852,
      "boiled": 4853,
      "rigu": 4854,
      "cope": 4855,
      "unknown": 4856,
      "pered": 4857,
      "sage": 4858,
      "shi": 4859,
      "happier": 4860,
      "condu": 4861,
      "coma": 4862,
      "comb": 4863,
      "carpen": 4864,
      "ighed": 4865,
      "stands": 4866,
      "wow": 4867,
      "mustache": 4868,
      "schools": 4869,
      "shows": 4870,
      "blaming": 4871,
      "logist": 4872,
      "wondering": 4873,
      "intrigu": 4874,
      "expectations": 4875,
      "crew": 4876,
      "headphones": 4877,
      "sunny": 4878,
      "importance": 4879,
      "closest": 4880,
      "luckily": 4881,
      "suits": 4882,
      "confidence": 4883,
      "tieth": 4884,
      "riding": 4885,
      "appetite": 4886,
      "paste": 4887,
      "skipped": 4888,
      "windy": 4889,
      "relieve": 4890,
      "towels": 4891,
      "equal": 4892,
      "collecting": 4893,
      "properly": 4894,
      "pigs": 4895,
      "elephant": 4896,
      "highest": 4897,
      "italian": 4898,
      "underestimate": 4899,
      "court": 4900,
      "blonde": 4901,
      "flashlight": 4902,
      "strangers": 4903,
      "archite": 4904,
      "brazil": 4905,
      "aim": 4906,
      "ered": 4907,
      "east": 4908,
      "gle": 4909,
      "ras": 4910,
      "tone": 4911,
      "income": 4912,
      "insp": 4913,
      "reti": 4914,
      "ancial": 4915,
      "arant": 4916,
      "iting": 4917,
      "enge": 4918,
      "beside": 4919,
      "verted": 4920,
      "nesses": 4921,
      "ability": 4922,
      "pless": 4923,
      "letting": 4924,
      "ending": 4925,
      "ender": 4926,
      "propose": 4927,
      "worker": 4928,
      "homeless": 4929,
      "goods": 4930,
      "conce": 4931,
      "diag": 4932,
      "roommate": 4933,
      "guarant": 4934,
      "rested": 4935,
      "cloth": 4936,
      "disco": 4937,
      "apply": 4938,
      "financial": 4939,
      "shown": 4940,
      "channel": 4941,
      "greed": 4942,
      "grade": 4943,
      "blank": 4944,
      "design": 4945,
      "created": 4946,
      "visits": 4947,
      "enjoying": 4948,
      "confuse": 4949,
      "temple": 4950,
      "entering": 4951,
      "charged": 4952,
      "suffered": 4953,
      "conditioner": 4954,
      "obeyed": 4955,
      "relev": 4956,
      "demanded": 4957,
      "require": 4958,
      "wrapped": 4959,
      "princess": 4960,
      "increased": 4961,
      "conclusion": 4962,
      "congratulate": 4963,
      "wishes": 4964,
      "flir": 4965,
      "tinguish": 4966,
      "challenge": 4967,
      "stabbed": 4968,
      "resemble": 4969,
      "strategy": 4970,
      "appropriate": 4971,
      "trumpet": 4972,
      "circum": 4973,
      "cath": 4974,
      "gor": 4975,
      "ior": 4976,
      "kin": 4977,
      "lid": 4978,
      "ption": 4979,
      "xim": 4980,
      "tori": 4981,
      "recall": 4982,
      "research": 4983,
      "ising": 4984,
      "lly": 4985,
      "west": 4986,
      "sessed": 4987,
      "bothered": 4988,
      "agers": 4989,
      "pover": 4990,
      "provide": 4991,
      "compe": 4992,
      "divided": 4993,
      "cared": 4994,
      "doorbell": 4995,
      "fined": 4996,
      "smoker": 4997,
      "pical": 4998,
      "parts": 4999,
      "clou": 5000,
      "occup": 5001,
      "signific": 5002,
      "laws": 5003,
      "although": 5004,
      "hiking": 5005,
      "complains": 5006,
      "landed": 5007,
      "grows": 5008,
      "corrected": 5009,
      "confident": 5010,
      "risky": 5011,
      "climbing": 5012,
      "memorize": 5013,
      "turkey": 5014,
      "holidays": 5015,
      "damaged": 5016,
      "insult": 5017,
      "connected": 5018,
      "source": 5019,
      "approaching": 5020,
      "particularly": 5021,
      "contains": 5022,
      "violence": 5023,
      "communic": 5024,
      "constantly": 5025,
      "cockro": 5026,
      "punishment": 5027,
      "sacri": 5028,
      "inherited": 5029,
      "aspirin": 5030,
      "haunted": 5031,
      "catho": 5032,
      "atom": 5033,
      "cree": 5034,
      "dye": 5035,
      "lting": 5036,
      "nick": 5037,
      "pure": 5038,
      "ud": 5039,
      "wate": 5040,
      "itude": 5041,
      "ligent": 5042,
      "holes": 5043,
      "verge": 5044,
      "neu": 5045,
      "anti": 5046,
      "teasing": 5047,
      "coal": 5048,
      "accompan": 5049,
      "modest": 5050,
      "pear": 5051,
      "ironed": 5052,
      "icted": 5053,
      "shark": 5054,
      "helpless": 5055,
      "promotion": 5056,
      "quo": 5057,
      "quil": 5058,
      "quality": 5059,
      "comments": 5060,
      "bodyguard": 5061,
      "inet": 5062,
      "manners": 5063,
      "questioned": 5064,
      "lux": 5065,
      "chew": 5066,
      "pharm": 5067,
      "disgust": 5068,
      "killing": 5069,
      "owned": 5070,
      "prior": 5071,
      "closely": 5072,
      "ships": 5073,
      "ums": 5074,
      "sounded": 5075,
      "gifted": 5076,
      "confir": 5077,
      "protection": 5078,
      "teered": 5079,
      "tune": 5080,
      "contacted": 5081,
      "battery": 5082,
      "bribe": 5083,
      "aimed": 5084,
      "directions": 5085,
      "knees": 5086,
      "products": 5087,
      "scope": 5088,
      "volunteered": 5089,
      "daily": 5090,
      "authority": 5091,
      "connection": 5092,
      "econom": 5093,
      "errors": 5094,
      "objective": 5095,
      "volunteer": 5096,
      "blowing": 5097,
      "defeated": 5098,
      "russia": 5099,
      "yawn": 5100,
      "rapid": 5101,
      "british": 5102,
      "target": 5103,
      "character": 5104,
      "journalist": 5105,
      "believable": 5106,
      "intrigued": 5107,
      "relevant": 5108,
      "circumstances": 5109,
      "cloudy": 5110,
      "catholic": 5111,
      "watered": 5112,
      "bars": 5113,
      "lk": 5114,
      "mut": 5115,
      "racket": 5116,
      "tid": 5117,
      "tap": 5118,
      "zi": 5119,
      "inexpensive": 5120,
      "meas": 5121,
      "arrange": 5122,
      "web": 5123,
      "verb": 5124,
      "tex": 5125,
      "absur": 5126,
      "imit": 5127,
      "needle": 5128,
      "upside": 5129,
      "dyed": 5130,
      "dizzy": 5131,
      "printer": 5132,
      "puts": 5133,
      "brand": 5134,
      "phi": 5135,
      "minds": 5136,
      "skirts": 5137,
      "heading": 5138,
      "length": 5139,
      "horiz": 5140,
      "parties": 5141,
      "chris": 5142,
      "suggestions": 5143,
      "blackmail": 5144,
      "fasten": 5145,
      "shortly": 5146,
      "bloom": 5147,
      "blocked": 5148,
      "thrown": 5149,
      "jumping": 5150,
      "hundreds": 5151,
      "honesty": 5152,
      "imagined": 5153,
      "reminded": 5154,
      "oppos": 5155,
      "ladies": 5156,
      "general": 5157,
      "normally": 5158,
      "fortunate": 5159,
      "political": 5160,
      "porch": 5161,
      "gradually": 5162,
      "treatment": 5163,
      "toothpaste": 5164,
      "replaceable": 5165,
      "poisonous": 5166,
      "consciousness": 5167,
      "whispered": 5168,
      "notified": 5169,
      "arriving": 5170,
      "handcuffed": 5171,
      "surrender": 5172,
      "twentieth": 5173,
      "absurd": 5174,
      "opposite": 5175,
      "ah": 5176,
      "aler": 5177,
      "bun": 5178,
      "mal": 5179,
      "mpoo": 5180,
      "oth": 5181,
      "toast": 5182,
      "thunder": 5183,
      "remarried": 5184,
      "heaven": 5185,
      "sting": 5186,
      "beating": 5187,
      "besides": 5188,
      "rode": 5189,
      "adjust": 5190,
      "richest": 5191,
      "tequil": 5192,
      "costu": 5193,
      "fewer": 5194,
      "fection": 5195,
      "teria": 5196,
      "shine": 5197,
      "pos": 5198,
      "promo": 5199,
      "uled": 5200,
      "ideal": 5201,
      "precise": 5202,
      "apt": 5203,
      "istent": 5204,
      "assy": 5205,
      "handbag": 5206,
      "applied": 5207,
      "differ": 5208,
      "chances": 5209,
      "hunter": 5210,
      "voices": 5211,
      "apologizing": 5212,
      "follows": 5213,
      "shampoo": 5214,
      "babysit": 5215,
      "falls": 5216,
      "biased": 5217,
      "smooth": 5218,
      "flour": 5219,
      "medical": 5220,
      "guitarist": 5221,
      "squee": 5222,
      "pairs": 5223,
      "pancakes": 5224,
      "conditions": 5225,
      "couraged": 5226,
      "greeted": 5227,
      "fashioned": 5228,
      "anni": 5229,
      "environ": 5230,
      "separated": 5231,
      "higher": 5232,
      "politician": 5233,
      "employees": 5234,
      "survivors": 5235,
      "crisis": 5236,
      "carpenter": 5237,
      "quote": 5238,
      "tequila": 5239,
      "costume": 5240,
      "bak": 5241,
      "based": 5242,
      "cen": 5243,
      "cries": 5244,
      "eper": 5245,
      "fried": 5246,
      "hic": 5247,
      "mare": 5248,
      "ping": 5249,
      "tan": 5250,
      "zes": 5251,
      "atmo": 5252,
      "onto": 5253,
      "itch": 5254,
      "identi": 5255,
      "whale": 5256,
      "beans": 5257,
      "sew": 5258,
      "seated": 5259,
      "loving": 5260,
      "candid": 5261,
      "union": 5262,
      "unbear": 5263,
      "imp": 5264,
      "exe": 5265,
      "india": 5266,
      "proved": 5267,
      "process": 5268,
      "hers": 5269,
      "elbow": 5270,
      "sphere": 5271,
      "ously": 5272,
      "prayed": 5273,
      "nightmare": 5274,
      "truly": 5275,
      "shoel": 5276,
      "overweight": 5277,
      "smiles": 5278,
      "owed": 5279,
      "dresses": 5280,
      "sentences": 5281,
      "partly": 5282,
      "forgetful": 5283,
      "medal": 5284,
      "access": 5285,
      "painful": 5286,
      "jewel": 5287,
      "possibly": 5288,
      "shaving": 5289,
      "humid": 5290,
      "hotels": 5291,
      "fascin": 5292,
      "desert": 5293,
      "client": 5294,
      "addressed": 5295,
      "patiently": 5296,
      "strug": 5297,
      "imagin": 5298,
      "snack": 5299,
      "barber": 5300,
      "remains": 5301,
      "claus": 5302,
      "steady": 5303,
      "committee": 5304,
      "guards": 5305,
      "product": 5306,
      "families": 5307,
      "insulted": 5308,
      "acquaint": 5309,
      "limited": 5310,
      "lacks": 5311,
      "zero": 5312,
      "photographs": 5313,
      "deceived": 5314,
      "curtains": 5315,
      "astronomy": 5316,
      "microphone": 5317,
      "negotiations": 5318,
      "competition": 5319,
      "firm": 5320,
      "photographer": 5321,
      "greedy": 5322,
      "poverty": 5323,
      "accompanied": 5324,
      "rapidly": 5325,
      "christi": 5326,
      "annivers": 5327,
      "environment": 5328,
      "cious": 5329,
      "kar": 5330,
      "lat": 5331,
      "rust": 5332,
      "tled": 5333,
      "reserv": 5334,
      "reaction": 5335,
      "atic": 5336,
      "loy": 5337,
      "loso": 5338,
      "sober": 5339,
      "unnecessary": 5340,
      "pets": 5341,
      "thermo": 5342,
      "plus": 5343,
      "shif": 5344,
      "poll": 5345,
      "polic": 5346,
      "indust": 5347,
      "auto": 5348,
      "froze": 5349,
      "mbled": 5350,
      "cking": 5351,
      "ckled": 5352,
      "forecast": 5353,
      "overslept": 5354,
      "tors": 5355,
      "hurting": 5356,
      "expects": 5357,
      "kinder": 5358,
      "pretti": 5359,
      "accusing": 5360,
      "supplies": 5361,
      "ipul": 5362,
      "ankle": 5363,
      "musical": 5364,
      "grandson": 5365,
      "counted": 5366,
      "cafe": 5367,
      "parano": 5368,
      "tricked": 5369,
      "beginner": 5370,
      "crush": 5371,
      "doubted": 5372,
      "lawyers": 5373,
      "collected": 5374,
      "sweep": 5375,
      "cumber": 5376,
      "flute": 5377,
      "bury": 5378,
      "garlic": 5379,
      "screen": 5380,
      "kyoto": 5381,
      "rupt": 5382,
      "earned": 5383,
      "operate": 5384,
      "embassy": 5385,
      "interrupting": 5386,
      "examples": 5387,
      "repeated": 5388,
      "universe": 5389,
      "anticip": 5390,
      "expression": 5391,
      "departure": 5392,
      "puzzled": 5393,
      "declared": 5394,
      "foreigner": 5395,
      "koal": 5396,
      "vanished": 5397,
      "mexican": 5398,
      "forbidden": 5399,
      "mushrooms": 5400,
      "resources": 5401,
      "charming": 5402,
      "freedom": 5403,
      "philoso": 5404,
      "paranoid": 5405,
      "bang": 5406,
      "cd": 5407,
      "obo": 5408,
      "olive": 5409,
      "pand": 5410,
      "sin": 5411,
      "slice": 5412,
      "sank": 5413,
      "scand": 5414,
      "ues": 5415,
      "rece": 5416,
      "ats": 5417,
      "isher": 5418,
      "hen": 5419,
      "orph": 5420,
      "bees": 5421,
      "goss": 5422,
      "sequ": 5423,
      "sewing": 5424,
      "wipe": 5425,
      "chase": 5426,
      "alle": 5427,
      "espe": 5428,
      "shining": 5429,
      "whoever": 5430,
      "ups": 5431,
      "devoted": 5432,
      "comfort": 5433,
      "tool": 5434,
      "mbone": 5435,
      "dig": 5436,
      "dice": 5437,
      "pride": 5438,
      "inevit": 5439,
      "manipul": 5440,
      "phy": 5441,
      "distinguish": 5442,
      "showing": 5443,
      "bled": 5444,
      "nerves": 5445,
      "counts": 5446,
      "hunger": 5447,
      "july": 5448,
      "heads": 5449,
      "sunset": 5450,
      "passion": 5451,
      "firefight": 5452,
      "england": 5453,
      "fixing": 5454,
      "cially": 5455,
      "occas": 5456,
      "roads": 5457,
      "bicycles": 5458,
      "aliens": 5459,
      "deserted": 5460,
      "click": 5461,
      "medication": 5462,
      "reported": 5463,
      "honestly": 5464,
      "approved": 5465,
      "presence": 5466,
      "version": 5467,
      "servant": 5468,
      "solving": 5469,
      "beaten": 5470,
      "cowboy": 5471,
      "lifted": 5472,
      "conscience": 5473,
      "strictly": 5474,
      "quarter": 5475,
      "whisper": 5476,
      "diamonds": 5477,
      "objection": 5478,
      "trombone": 5479,
      "barefoot": 5480,
      "regards": 5481,
      "title": 5482,
      "tolerate": 5483,
      "dedicated": 5484,
      "inspired": 5485,
      "discovery": 5486,
      "occupied": 5487,
      "cockroaches": 5488,
      "nickname": 5489,
      "atmosphere": 5490,
      "shoelaces": 5491,
      "anniversary": 5492,
      "oboe": 5493,
      "scandal": 5494,
      "gossip": 5495,
      "especially": 5496,
      "inevitable": 5497,
      "bart": 5498,
      "blog": 5499,
      "baking": 5500,
      "fbi": 5501,
      "ials": 5502,
      "nia": 5503,
      "pine": 5504,
      "slo": 5505,
      "ufo": 5506,
      "vir": 5507,
      "vague": 5508,
      "woken": 5509,
      "asm": 5510,
      "hawa": 5511,
      "wever": 5512,
      "liber": 5513,
      "hook": 5514,
      "hobb": 5515,
      "however": 5516,
      "wig": 5517,
      "aloud": 5518,
      "former": 5519,
      "boiling": 5520,
      "actions": 5521,
      "activ": 5522,
      "suff": 5523,
      "irresponsible": 5524,
      "teries": 5525,
      "someplace": 5526,
      "impolite": 5527,
      "deed": 5528,
      "provided": 5529,
      "justice": 5530,
      "bumped": 5531,
      "backwards": 5532,
      "scra": 5533,
      "precious": 5534,
      "bride": 5535,
      "closing": 5536,
      "files": 5537,
      "acts": 5538,
      "applic": 5539,
      "remembering": 5540,
      "blush": 5541,
      "hats": 5542,
      "priest": 5543,
      "lung": 5544,
      "firewood": 5545,
      "refer": 5546,
      "dolls": 5547,
      "laughs": 5548,
      "humble": 5549,
      "obst": 5550,
      "tries": 5551,
      "salty": 5552,
      "completed": 5553,
      "suitable": 5554,
      "calmed": 5555,
      "convincing": 5556,
      "seatbelt": 5557,
      "crimes": 5558,
      "ridden": 5559,
      "locker": 5560,
      "symp": 5561,
      "witnesses": 5562,
      "excuses": 5563,
      "garten": 5564,
      "approxim": 5565,
      "slip": 5566,
      "butterflies": 5567,
      "instrument": 5568,
      "compliment": 5569,
      "intentions": 5570,
      "thorough": 5571,
      "stones": 5572,
      "circus": 5573,
      "amazed": 5574,
      "mysterious": 5575,
      "delayed": 5576,
      "exaggerate": 5577,
      "annoyed": 5578,
      "tradition": 5579,
      "scientists": 5580,
      "pointing": 5581,
      "directly": 5582,
      "knitting": 5583,
      "kore": 5584,
      "negative": 5585,
      "included": 5586,
      "enthusiasm": 5587,
      "valent": 5588,
      "slammed": 5589,
      "democr": 5590,
      "turtles": 5591,
      "diagno": 5592,
      "guarantee": 5593,
      "significant": 5594,
      "atomic": 5595,
      "bakery": 5596,
      "kindergarten": 5597,
      "bartender": 5598,
      "hobbies": 5599,
      "aboard": 5600,
      "fry": 5601,
      "gather": 5602,
      "hil": 5603,
      "kward": 5604,
      "nie": 5605,
      "oly": 5606,
      "obed": 5607,
      "sword": 5608,
      "zart": 5609,
      "isto": 5610,
      "dol": 5611,
      "stro": 5612,
      "stif": 5613,
      "nes": 5614,
      "nephe": 5615,
      "essay": 5616,
      "cans": 5617,
      "ripe": 5618,
      "unci": 5619,
      "mozart": 5620,
      "pelled": 5621,
      "sax": 5622,
      "sake": 5623,
      "fellow": 5624,
      "plates": 5625,
      "helor": 5626,
      "sheets": 5627,
      "agne": 5628,
      "pole": 5629,
      "delete": 5630,
      "expelled": 5631,
      "bug": 5632,
      "waist": 5633,
      "divide": 5634,
      "angle": 5635,
      "typical": 5636,
      "hopefully": 5637,
      "dislike": 5638,
      "disaster": 5639,
      "overre": 5640,
      "surgeon": 5641,
      "breast": 5642,
      "babies": 5643,
      "rance": 5644,
      "matches": 5645,
      "pump": 5646,
      "tale": 5647,
      "voting": 5648,
      "meetings": 5649,
      "settle": 5650,
      "sung": 5651,
      "sunrise": 5652,
      "sincere": 5653,
      "ggy": 5654,
      "ails": 5655,
      "obsessed": 5656,
      "strangely": 5657,
      "transla": 5658,
      "drag": 5659,
      "exciting": 5660,
      "awkward": 5661,
      "flame": 5662,
      "reality": 5663,
      "cucumber": 5664,
      "dealing": 5665,
      "rats": 5666,
      "batteries": 5667,
      "butterfly": 5668,
      "museums": 5669,
      "ironing": 5670,
      "barked": 5671,
      "textbooks": 5672,
      "predicted": 5673,
      "pronunci": 5674,
      "culture": 5675,
      "demands": 5676,
      "destroy": 5677,
      "deliber": 5678,
      "wings": 5679,
      "silk": 5680,
      "practically": 5681,
      "italized": 5682,
      "bachelor": 5683,
      "literature": 5684,
      "whistle": 5685,
      "champagne": 5686,
      "cotton": 5687,
      "pierced": 5688,
      "sociable": 5689,
      "branch": 5690,
      "oblig": 5691,
      "bracelet": 5692,
      "disgusting": 5693,
      "horizon": 5694,
      "shift": 5695,
      "recei": 5696,
      "cauti": 5697,
      "gig": 5698,
      "jar": 5699,
      "mild": 5700,
      "nut": 5701,
      "ophone": 5702,
      "pace": 5703,
      "yach": 5704,
      "inch": 5705,
      "refu": 5706,
      "iss": 5707,
      "heels": 5708,
      "idio": 5709,
      "chi": 5710,
      "rifle": 5711,
      "tear": 5712,
      "ustrated": 5713,
      "ram": 5714,
      "seek": 5715,
      "bless": 5716,
      "bull": 5717,
      "spelling": 5718,
      "waitress": 5719,
      "jogging": 5720,
      "print": 5721,
      "prince": 5722,
      "guide": 5723,
      "handy": 5724,
      "disagreed": 5725,
      "opens": 5726,
      "sits": 5727,
      "afterwards": 5728,
      "minim": 5729,
      "surprises": 5730,
      "ballo": 5731,
      "nuclear": 5732,
      "signal": 5733,
      "salmon": 5734,
      "becomes": 5735,
      "intersection": 5736,
      "quitting": 5737,
      "gardener": 5738,
      "experts": 5739,
      "resume": 5740,
      "superstit": 5741,
      "chalk": 5742,
      "millions": 5743,
      "destiny": 5744,
      "euro": 5745,
      "translating": 5746,
      "celebrated": 5747,
      "solid": 5748,
      "assumed": 5749,
      "longest": 5750,
      "frighten": 5751,
      "shouting": 5752,
      "requires": 5753,
      "peeled": 5754,
      "puzzle": 5755,
      "plugged": 5756,
      "mosquito": 5757,
      "challeng": 5758,
      "rugby": 5759,
      "material": 5760,
      "screwdriver": 5761,
      "automob": 5762,
      "honor": 5763,
      "attempted": 5764,
      "severe": 5765,
      "sacrific": 5766,
      "christian": 5767,
      "approximately": 5768,
      "hilton": 5769,
      "saxophone": 5770,
      "pronunciation": 5771,
      "refuge": 5772,
      "superstitious": 5773,
      "ales": 5774,
      "cran": 5775,
      "dim": 5776,
      "fist": 5777,
      "mice": 5778,
      "sar": 5779,
      "tends": 5780,
      "ution": 5781,
      "viet": 5782,
      "wan": 5783,
      "inate": 5784,
      "inting": 5785,
      "inches": 5786,
      "repor": 5787,
      "refund": 5788,
      "thetic": 5789,
      "melon": 5790,
      "stir": 5791,
      "stable": 5792,
      "limp": 5793,
      "lions": 5794,
      "lipstick": 5795,
      "role": 5796,
      "rocks": 5797,
      "chased": 5798,
      "marath": 5799,
      "cano": 5800,
      "ribut": 5801,
      "unacceptable": 5802,
      "unbelievable": 5803,
      "therap": 5804,
      "febru": 5805,
      "irre": 5806,
      "trapped": 5807,
      "poe": 5808,
      "ama": 5809,
      "exists": 5810,
      "wheat": 5811,
      "hometown": 5812,
      "ult": 5813,
      "clothing": 5814,
      "ures": 5815,
      "questioning": 5816,
      "monster": 5817,
      "ization": 5818,
      "surface": 5819,
      "raincoat": 5820,
      "chopstick": 5821,
      "biting": 5822,
      "policemen": 5823,
      "trained": 5824,
      "balls": 5825,
      "passing": 5826,
      "muscle": 5827,
      "string": 5828,
      "snows": 5829,
      "ggle": 5830,
      "humans": 5831,
      "deadline": 5832,
      "trig": 5833,
      "counter": 5834,
      "exams": 5835,
      "complaint": 5836,
      "insist": 5837,
      "wednes": 5838,
      "rising": 5839,
      "considering": 5840,
      "society": 5841,
      "copies": 5842,
      "ninety": 5843,
      "angel": 5844,
      "treats": 5845,
      "proposed": 5846,
      "swallow": 5847,
      "interrupted": 5848,
      "release": 5849,
      "refuses": 5850,
      "admirer": 5851,
      "toothbrush": 5852,
      "debts": 5853,
      "extraordinary": 5854,
      "journey": 5855,
      "affected": 5856,
      "remarkable": 5857,
      "sharpened": 5858,
      "sympath": 5859,
      "champion": 5860,
      "humiliated": 5861,
      "stunned": 5862,
      "collapsed": 5863,
      "clarinet": 5864,
      "tidy": 5865,
      "promoted": 5866,
      "unbearable": 5867,
      "struggled": 5868,
      "thermometer": 5869,
      "policy": 5870,
      "hawaii": 5871,
      "suffers": 5872,
      "symptoms": 5873,
      "dolph": 5874,
      "translator": 5875,
      "marathon": 5876,
      "february": 5877,
      "chopsticks": 5878,
      "wednesday": 5879,
      "fus": 5880,
      "iant": 5881,
      "ky": 5882,
      "mpic": 5883,
      "pse": 5884,
      "pisto": 5885,
      "ration": 5886,
      "uary": 5887,
      "toe": 5888,
      "thumb": 5889,
      "init": 5890,
      "indoors": 5891,
      "reve": 5892,
      "reward": 5893,
      "revol": 5894,
      "attracted": 5895,
      "onent": 5896,
      "veter": 5897,
      "heating": 5898,
      "liqu": 5899,
      "formance": 5900,
      "som": 5901,
      "sock": 5902,
      "acha": 5903,
      "motiv": 5904,
      "safer": 5905,
      "tern": 5906,
      "ified": 5907,
      "exhibit": 5908,
      "extingu": 5909,
      "ament": 5910,
      "performance": 5911,
      "eater": 5912,
      "spelled": 5913,
      "mbling": 5914,
      "princ": 5915,
      "dru": 5916,
      "brakes": 5917,
      "broad": 5918,
      "cameras": 5919,
      "monkeys": 5920,
      "essential": 5921,
      "handled": 5922,
      "overdo": 5923,
      "overnight": 5924,
      "moral": 5925,
      "mothers": 5926,
      "blink": 5927,
      "blushed": 5928,
      "lifestyle": 5929,
      "choo": 5930,
      "gladly": 5931,
      "driven": 5932,
      "ipal": 5933,
      "lending": 5934,
      "numb": 5935,
      "freezing": 5936,
      "brings": 5937,
      "calend": 5938,
      "hospitalized": 5939,
      "venge": 5940,
      "examined": 5941,
      "faults": 5942,
      "transfer": 5943,
      "travels": 5944,
      "kitten": 5945,
      "necessarily": 5946,
      "collects": 5947,
      "swept": 5948,
      "throwing": 5949,
      "ignorance": 5950,
      "gunshot": 5951,
      "vegetable": 5952,
      "opposed": 5953,
      "feeding": 5954,
      "panick": 5955,
      "optimist": 5956,
      "typewriter": 5957,
      "instruments": 5958,
      "leading": 5959,
      "snob": 5960,
      "potato": 5961,
      "cowards": 5962,
      "score": 5963,
      "instantly": 5964,
      "earthquakes": 5965,
      "campfire": 5966,
      "advantages": 5967,
      "hesitated": 5968,
      "queen": 5969,
      "volution": 5970,
      "investigating": 5971,
      "majority": 5972,
      "budget": 5973,
      "psycho": 5974,
      "balance": 5975,
      "independence": 5976,
      "plumber": 5977,
      "defeat": 5978,
      "victims": 5979,
      "notify": 5980,
      "calculator": 5981,
      "arrival": 5982,
      "statue": 5983,
      "diplomat": 5984,
      "chuckled": 5985,
      "develop": 5986,
      "ticklish": 5987,
      "absorbed": 5988,
      "accomplished": 5989,
      "winked": 5990,
      "iterate": 5991,
      "applauded": 5992,
      "hamburger": 5993,
      "shiver": 5994,
      "conduct": 5995,
      "relieved": 5996,
      "architect": 5997,
      "flirting": 5998,
      "zipped": 5999,
      "reservation": 6000,
      "olympic": 6001,
      "obedient": 6002,
      "idiots": 6003,
      "sarcas": 6004,
      "poetry": 6005,
      "principal": 6006,
      "calendar": 6007,
      "bon": 6008,
      "bake": 6009,
      "fou": 6010,
      "fla": 6011,
      "lam": 6012,
      "mming": 6013,
      "oxy": 6014,
      "tank": 6015,
      "vod": 6016,
      "relie": 6017,
      "melted": 6018,
      "aser": 6019,
      "itive": 6020,
      "itary": 6021,
      "stake": 6022,
      "erk": 6023,
      "weighed": 6024,
      "washer": 6025,
      "robe": 6026,
      "root": 6027,
      "loses": 6028,
      "outdoors": 6029,
      "geous": 6030,
      "unlock": 6031,
      "peaches": 6032,
      "saint": 6033,
      "sued": 6034,
      "fective": 6035,
      "female": 6036,
      "tration": 6037,
      "poten": 6038,
      "illiterate": 6039,
      "export": 6040,
      "progra": 6041,
      "frown": 6042,
      "consequ": 6043,
      "waving": 6044,
      "dile": 6045,
      "drums": 6046,
      "nights": 6047,
      "lum": 6048,
      "career": 6049,
      "chemis": 6050,
      "hardworking": 6051,
      "visible": 6052,
      "bedtime": 6053,
      "rainbow": 6054,
      "choices": 6055,
      "forgets": 6056,
      "interests": 6057,
      "pud": 6058,
      "dining": 6059,
      "dinosa": 6060,
      "settled": 6061,
      "dumped": 6062,
      "grandma": 6063,
      "umbrellas": 6064,
      "suspects": 6065,
      "tests": 6066,
      "landing": 6067,
      "hitting": 6068,
      "holds": 6069,
      "excused": 6070,
      "curly": 6071,
      "smelled": 6072,
      "chairman": 6073,
      "patients": 6074,
      "warmly": 6075,
      "gunshots": 6076,
      "yoga": 6077,
      "continent": 6078,
      "tube": 6079,
      "tues": 6080,
      "pasta": 6081,
      "magn": 6082,
      "opponent": 6083,
      "ception": 6084,
      "chain": 6085,
      "unique": 6086,
      "avoided": 6087,
      "appreciated": 6088,
      "addition": 6089,
      "intends": 6090,
      "cycl": 6091,
      "brill": 6092,
      "described": 6093,
      "customs": 6094,
      "courageous": 6095,
      "folder": 6096,
      "equals": 6097,
      "ologist": 6098,
      "graphy": 6099,
      "stomacha": 6100,
      "exceptions": 6101,
      "sinking": 6102,
      "despise": 6103,
      "cheeks": 6104,
      "wisdom": 6105,
      "physics": 6106,
      "astronaut": 6107,
      "microscope": 6108,
      "disturbing": 6109,
      "diplomatic": 6110,
      "decorated": 6111,
      "gamble": 6112,
      "influence": 6113,
      "invention": 6114,
      "alphabe": 6115,
      "persistent": 6116,
      "vitamins": 6117,
      "gorgeous": 6118,
      "precisely": 6119,
      "orphan": 6120,
      "alley": 6121,
      "trigger": 6122,
      "oxygen": 6123,
      "vodka": 6124,
      "relief": 6125,
      "potential": 6126,
      "stomachache": 6127,
      "awe": 6128,
      "bing": 6129,
      "ctic": 6130,
      "dates": 6131,
      "eving": 6132,
      "emotion": 6133,
      "hint": 6134,
      "jes": 6135,
      "mr": 6136,
      "mug": 6137,
      "nam": 6138,
      "oy": 6139,
      "oph": 6140,
      "py": 6141,
      "rink": 6142,
      "sla": 6143,
      "sian": 6144,
      "tiny": 6145,
      "vil": 6146,
      "tossed": 6147,
      "thy": 6148,
      "thoven": 6149,
      "inappropriate": 6150,
      "indeed": 6151,
      "attempt": 6152,
      "heater": 6153,
      "stink": 6154,
      "lef": 6155,
      "sets": 6156,
      "verify": 6157,
      "wire": 6158,
      "loose": 6159,
      "margar": 6160,
      "teased": 6161,
      "ppers": 6162,
      "trou": 6163,
      "trade": 6164,
      "plat": 6165,
      "delive": 6166,
      "deta": 6167,
      "depress": 6168,
      "events": 6169,
      "consent": 6170,
      "previous": 6171,
      "restart": 6172,
      "assign": 6173,
      "understandable": 6174,
      "ield": 6175,
      "mentally": 6176,
      "drinkable": 6177,
      "watering": 6178,
      "ketch": 6179,
      "logic": 6180,
      "fiction": 6181,
      "desig": 6182,
      "suppor": 6183,
      "foods": 6184,
      "ipes": 6185,
      "berry": 6186,
      "sincerely": 6187,
      "civi": 6188,
      "civil": 6189,
      "treating": 6190,
      "parrot": 6191,
      "spoil": 6192,
      "presented": 6193,
      "coln": 6194,
      "blames": 6195,
      "teenagers": 6196,
      "purple": 6197,
      "cliff": 6198,
      "fairy": 6199,
      "subscri": 6200,
      "effective": 6201,
      "curio": 6202,
      "argued": 6203,
      "extent": 6204,
      "bargain": 6205,
      "consideration": 6206,
      "chap": 6207,
      "tained": 6208,
      "valid": 6209,
      "islands": 6210,
      "banjo": 6211,
      "judging": 6212,
      "european": 6213,
      "assured": 6214,
      "privately": 6215,
      "slapped": 6216,
      "fingernails": 6217,
      "fingerprints": 6218,
      "switzer": 6219,
      "marks": 6220,
      "delicate": 6221,
      "scares": 6222,
      "terrific": 6223,
      "microw": 6224,
      "relatively": 6225,
      "motioned": 6226,
      "filthy": 6227,
      "requested": 6228,
      "puzzles": 6229,
      "interpreted": 6230,
      "practicing": 6231,
      "lincoln": 6232,
      "remarks": 6233,
      "tomato": 6234,
      "beethoven": 6235,
      "russian": 6236,
      "boils": 6237,
      "temptation": 6238,
      "osaka": 6239,
      "addict": 6240,
      "consists": 6241,
      "specific": 6242,
      "irritated": 6243,
      "january": 6244,
      "luxury": 6245,
      "centime": 6246,
      "occasion": 6247,
      "diagnosed": 6248,
      "nephew": 6249,
      "overreacting": 6250,
      "pistol": 6251,
      "chemistry": 6252,
      "dinosaurs": 6253,
      "tuesday": 6254,
      "oysters": 6255,
      "delivered": 6256,
      "detailed": 6257,
      "civili": 6258,
      "curiosity": 6259,
      "switzerland": 6260,
      "abe": 6261,
      "apest": 6262,
      "faint": 6263,
      "ili": 6264,
      "jun": 6265,
      "kite": 6266,
      "lined": 6267,
      "mous": 6268,
      "naught": 6269,
      "nical": 6270,
      "ography": 6271,
      "wand": 6272,
      "revenge": 6273,
      "ashes": 6274,
      "edible": 6275,
      "seas": 6276,
      "chim": 6277,
      "alo": 6278,
      "loo": 6279,
      "ripped": 6280,
      "tible": 6281,
      "unarmed": 6282,
      "unpredictable": 6283,
      "unfounded": 6284,
      "raged": 6285,
      "urous": 6286,
      "agent": 6287,
      "proverb": 6288,
      "quali": 6289,
      "miser": 6290,
      "comics": 6291,
      "carries": 6292,
      "backed": 6293,
      "spit": 6294,
      "scen": 6295,
      "speare": 6296,
      "ckles": 6297,
      "estab": 6298,
      "gum": 6299,
      "cheapest": 6300,
      "opener": 6301,
      "pathetic": 6302,
      "lifetime": 6303,
      "miner": 6304,
      "mature": 6305,
      "trustworthy": 6306,
      "mercy": 6307,
      "headaches": 6308,
      "ips": 6309,
      "explaining": 6310,
      "untied": 6311,
      "berg": 6312,
      "prime": 6313,
      "cutting": 6314,
      "convicted": 6315,
      "cleaner": 6316,
      "military": 6317,
      "attached": 6318,
      "darker": 6319,
      "touching": 6320,
      "heartbroken": 6321,
      "girlfriends": 6322,
      "drapes": 6323,
      "footsteps": 6324,
      "punched": 6325,
      "mix": 6326,
      "blown": 6327,
      "bankrupt": 6328,
      "cellar": 6329,
      "hardest": 6330,
      "weddings": 6331,
      "concerts": 6332,
      "respects": 6333,
      "billion": 6334,
      "knob": 6335,
      "facing": 6336,
      "softw": 6337,
      "optimism": 6338,
      "fearless": 6339,
      "shelves": 6340,
      "drugstore": 6341,
      "official": 6342,
      "threaten": 6343,
      "istics": 6344,
      "flatter": 6345,
      "flattered": 6346,
      "instin": 6347,
      "confession": 6348,
      "grammar": 6349,
      "criticized": 6350,
      "forks": 6351,
      "shakespeare": 6352,
      "croco": 6353,
      "despised": 6354,
      "collar": 6355,
      "racist": 6356,
      "separate": 6357,
      "symbo": 6358,
      "salesman": 6359,
      "tolerant": 6360,
      "alphabet": 6361,
      "december": 6362,
      "adventurous": 6363,
      "vacuum": 6364,
      "pacific": 6365,
      "mutual": 6366,
      "stingy": 6367,
      "candidate": 6368,
      "latin": 6369,
      "prettier": 6370,
      "stroke": 6371,
      "yacht": 6372,
      "euros": 6373,
      "sacrificed": 6374,
      "consequences": 6375,
      "brilliant": 6376,
      "awesome": 6377,
      "jesus": 6378,
      "microwave": 6379,
      "centimeters": 6380,
      "naughty": 6381,
      "software": 6382,
      "broom": 6383,
      "gang": 6384,
      "ially": 6385,
      "mul": 6386,
      "pipes": 6387,
      "rant": 6388,
      "sch": 6389,
      "sir": 6390,
      "uine": 6391,
      "virt": 6392,
      "vamp": 6393,
      "wid": 6394,
      "wal": 6395,
      "infect": 6396,
      "intimid": 6397,
      "resigned": 6398,
      "reserved": 6399,
      "attered": 6400,
      "ono": 6401,
      "hever": 6402,
      "asian": 6403,
      "arians": 6404,
      "arrang": 6405,
      "orch": 6406,
      "encouraged": 6407,
      "whic": 6408,
      "seeds": 6409,
      "hoax": 6410,
      "wives": 6411,
      "neat": 6412,
      "ghtest": 6413,
      "ades": 6414,
      "bowed": 6415,
      "teleg": 6416,
      "acious": 6417,
      "howling": 6418,
      "term": 6419,
      "tractor": 6420,
      "ples": 6421,
      "amm": 6422,
      "illa": 6423,
      "amer": 6424,
      "reduce": 6425,
      "tence": 6426,
      "cony": 6427,
      "composition": 6428,
      "pengu": 6429,
      "standard": 6430,
      "icky": 6431,
      "manu": 6432,
      "monia": 6433,
      "cheat": 6434,
      "finicky": 6435,
      "dreamer": 6436,
      "blouse": 6437,
      "hunt": 6438,
      "watermelon": 6439,
      "babbling": 6440,
      "chocol": 6441,
      "bites": 6442,
      "ficial": 6443,
      "mattered": 6444,
      "flows": 6445,
      "theirs": 6446,
      "sickness": 6447,
      "fireworks": 6448,
      "ops": 6449,
      "cuted": 6450,
      "tress": 6451,
      "signs": 6452,
      "observe": 6453,
      "umbling": 6454,
      "attitude": 6455,
      "finishing": 6456,
      "beginners": 6457,
      "forms": 6458,
      "stores": 6459,
      "telephoned": 6460,
      "genuine": 6461,
      "colorblind": 6462,
      "grape": 6463,
      "blos": 6464,
      "rides": 6465,
      "realistic": 6466,
      "substit": 6467,
      "efficient": 6468,
      "fools": 6469,
      "protected": 6470,
      "guns": 6471,
      "burden": 6472,
      "vegetarians": 6473,
      "starving": 6474,
      "charity": 6475,
      "seventeen": 6476,
      "faced": 6477,
      "supported": 6478,
      "planting": 6479,
      "avoidable": 6480,
      "memories": 6481,
      "washington": 6482,
      "practical": 6483,
      "judged": 6484,
      "description": 6485,
      "bowling": 6486,
      "opportunities": 6487,
      "flex": 6488,
      "abolished": 6489,
      "threatening": 6490,
      "organization": 6491,
      "concerns": 6492,
      "blankets": 6493,
      "ificent": 6494,
      "noises": 6495,
      "criticism": 6496,
      "waves": 6497,
      "balcony": 6498,
      "kidnapp": 6499,
      "miracles": 6500,
      "negligent": 6501,
      "spirits": 6502,
      "registered": 6503,
      "slaves": 6504,
      "defenseless": 6505,
      "immig": 6506,
      "reflection": 6507,
      "stretch": 6508,
      "faithful": 6509,
      "accomplish": 6510,
      "terrorists": 6511,
      "astrology": 6512,
      "effects": 6513,
      "various": 6514,
      "conceal": 6515,
      "resembles": 6516,
      "communicate": 6517,
      "pharmacy": 6518,
      "economic": 6519,
      "loyalty": 6520,
      "philosophy": 6521,
      "whispering": 6522,
      "niece": 6523,
      "ributed": 6524,
      "magnificent": 6525,
      "slavery": 6526,
      "jungle": 6527,
      "whichever": 6528,
      "chocolates": 6529,
      "bin": 6530,
      "cable": 6531,
      "ds": 6532,
      "dirt": 6533,
      "gall": 6534,
      "mort": 6535,
      "mmed": 6536,
      "nations": 6537,
      "rash": 6538,
      "wag": 6539,
      "toed": 6540,
      "inha": 6541,
      "inhabit": 6542,
      "reserve": 6543,
      "theft": 6544,
      "thesis": 6545,
      "metery": 6546,
      "heated": 6547,
      "hens": 6548,
      "asse": 6549,
      "arab": 6550,
      "dogh": 6551,
      "stad": 6552,
      "leon": 6553,
      "ener": 6554,
      "ensive": 6555,
      "hairsty": 6556,
      "belts": 6557,
      "chips": 6558,
      "forces": 6559,
      "lowered": 6560,
      "allel": 6561,
      "allies": 6562,
      "march": 6563,
      "adapt": 6564,
      "soil": 6565,
      "teles": 6566,
      "tipsy": 6567,
      "user": 6568,
      "geons": 6569,
      "cemetery": 6570,
      "sauce": 6571,
      "irrelevant": 6572,
      "happiest": 6573,
      "amate": 6574,
      "indic": 6575,
      "prom": 6576,
      "proven": 6577,
      "aker": 6578,
      "redu": 6579,
      "ause": 6580,
      "lfill": 6581,
      "compo": 6582,
      "dime": 6583,
      "gling": 6584,
      "iceberg": 6585,
      "closes": 6586,
      "phr": 6587,
      "shore": 6588,
      "dissatisfied": 6589,
      "mattress": 6590,
      "hairs": 6591,
      "trusting": 6592,
      "fulfill": 6593,
      "ipment": 6594,
      "sunlight": 6595,
      "nutr": 6596,
      "refre": 6597,
      "freezer": 6598,
      "steak": 6599,
      "parcel": 6600,
      "parallel": 6601,
      "objected": 6602,
      "frustrated": 6603,
      "tricks": 6604,
      "strongly": 6605,
      "examine": 6606,
      "international": 6607,
      "crite": 6608,
      "facebook": 6609,
      "sixteen": 6610,
      "genic": 6611,
      "cript": 6612,
      "mixed": 6613,
      "blocks": 6614,
      "sending": 6615,
      "banks": 6616,
      "witch": 6617,
      "approached": 6618,
      "boarding": 6619,
      "boarded": 6620,
      "blinds": 6621,
      "burns": 6622,
      "hostages": 6623,
      "sticks": 6624,
      "simpler": 6625,
      "absolute": 6626,
      "rics": 6627,
      "treaty": 6628,
      "barks": 6629,
      "swum": 6630,
      "fifth": 6631,
      "bathing": 6632,
      "groups": 6633,
      "equipment": 6634,
      "investment": 6635,
      "scored": 6636,
      "instant": 6637,
      "ology": 6638,
      "personality": 6639,
      "insulting": 6640,
      "peeling": 6641,
      "saturdays": 6642,
      "briefly": 6643,
      "criticize": 6644,
      "participated": 6645,
      "objections": 6646,
      "improving": 6647,
      "spinning": 6648,
      "congratulated": 6649,
      "splitting": 6650,
      "hypocrite": 6651,
      "tendency": 6652,
      "underestimated": 6653,
      "constant": 6654,
      "register": 6655,
      "politicians": 6656,
      "collapse": 6657,
      "advertise": 6658,
      "torical": 6659,
      "measured": 6660,
      "acquaintance": 6661,
      "banged": 6662,
      "application": 6663,
      "valentine": 6664,
      "balloon": 6665,
      "automobile": 6666,
      "sympathy": 6667,
      "drummer": 6668,
      "lefto": 6669,
      "platform": 6670,
      "miserable": 6671,
      "infected": 6672,
      "arranged": 6673,
      "manufact": 6674,
      "doghouse": 6675,
      "stadium": 6676,
      "hairstyle": 6677,
      "telescope": 6678,
      "awoke": 6679,
      "cco": 6680,
      "evacu": 6681,
      "gal": 6682,
      "han": 6683,
      "iod": 6684,
      "ienti": 6685,
      "jerk": 6686,
      "kim": 6687,
      "lac": 6688,
      "mated": 6689,
      "pony": 6690,
      "pneu": 6691,
      "site": 6692,
      "vine": 6693,
      "thri": 6694,
      "thurs": 6695,
      "reck": 6696,
      "attract": 6697,
      "aned": 6698,
      "vey": 6699,
      "hears": 6700,
      "llen": 6701,
      "ara": 6702,
      "dove": 6703,
      "ites": 6704,
      "iding": 6705,
      "eraser": 6706,
      "whales": 6707,
      "hay": 6708,
      "lif": 6709,
      "sevent": 6710,
      "widow": 6711,
      "robot": 6712,
      "ropho": 6713,
      "tiles": 6714,
      "tiger": 6715,
      "tires": 6716,
      "tigers": 6717,
      "coast": 6718,
      "lyrics": 6719,
      "acknowled": 6720,
      "unclear": 6721,
      "cement": 6722,
      "tray": 6723,
      "timer": 6724,
      "everyday": 6725,
      "delay": 6726,
      "degree": 6727,
      "amuse": 6728,
      "august": 6729,
      "frogs": 6730,
      "comic": 6731,
      "perfu": 6732,
      "perfection": 6733,
      "bucks": 6734,
      "spade": 6735,
      "dialed": 6736,
      "penalty": 6737,
      "drain": 6738,
      "austropho": 6739,
      "believing": 6740,
      "brocco": 6741,
      "fian": 6742,
      "mustn": 6743,
      "download": 6744,
      "chewing": 6745,
      "shops": 6746,
      "disk": 6747,
      "disappear": 6748,
      "discover": 6749,
      "remen": 6750,
      "overcoat": 6751,
      "teddy": 6752,
      "izes": 6753,
      "izoph": 6754,
      "mental": 6755,
      "owl": 6756,
      "blings": 6757,
      "medit": 6758,
      "kettle": 6759,
      "intu": 6760,
      "claustropho": 6761,
      "airmail": 6762,
      "athlete": 6763,
      "create": 6764,
      "fuel": 6765,
      "skis": 6766,
      "siblings": 6767,
      "musli": 6768,
      "fireman": 6769,
      "kisser": 6770,
      "freeze": 6771,
      "trembling": 6772,
      "horri": 6773,
      "cali": 6774,
      "causing": 6775,
      "tripped": 6776,
      "spoons": 6777,
      "darkness": 6778,
      "hearted": 6779,
      "gardening": 6780,
      "punch": 6781,
      "mia": 6782,
      "shortcut": 6783,
      "riddle": 6784,
      "disappointing": 6785,
      "risked": 6786,
      "sweating": 6787,
      "warming": 6788,
      "protecting": 6789,
      "joining": 6790,
      "pulsive": 6791,
      "photogenic": 6792,
      "filling": 6793,
      "belongings": 6794,
      "fourth": 6795,
      "harsh": 6796,
      "passage": 6797,
      "extro": 6798,
      "feeds": 6799,
      "eighty": 6800,
      "petition": 6801,
      "brushing": 6802,
      "golden": 6803,
      "seafood": 6804,
      "director": 6805,
      "responded": 6806,
      "swallowed": 6807,
      "pigeons": 6808,
      "shelter": 6809,
      "toothache": 6810,
      "production": 6811,
      "suspicions": 6812,
      "tightly": 6813,
      "equally": 6814,
      "debate": 6815,
      "twisted": 6816,
      "pronounced": 6817,
      "napkin": 6818,
      "whiskey": 6819,
      "records": 6820,
      "criminals": 6821,
      "carelessness": 6822,
      "originally": 6823,
      "congratulations": 6824,
      "tattoos": 6825,
      "dishwasher": 6826,
      "pirate": 6827,
      "violent": 6828,
      "physical": 6829,
      "rubber": 6830,
      "contented": 6831,
      "flooded": 6832,
      "stung": 6833,
      "sneezing": 6834,
      "gambling": 6835,
      "severely": 6836,
      "skills": 6837,
      "maiden": 6838,
      "labor": 6839,
      "retiring": 6840,
      "confirm": 6841,
      "blackmailed": 6842,
      "bunch": 6843,
      "karate": 6844,
      "firefighters": 6845,
      "pineapple": 6846,
      "cucumbers": 6847,
      "receipt": 6848,
      "shivering": 6849,
      "flavor": 6850,
      "alphabetical": 6851,
      "emotional": 6852,
      "designer": 6853,
      "schizoph": 6854,
      "flexible": 6855,
      "pneumonia": 6856,
      "seventy": 6857,
      "perfume": 6858,
      "broccoli": 6859,
      "schizophren": 6860,
      "cam": 6861,
      "cies": 6862,
      "fries": 6863,
      "nast": 6864,
      "napo": 6865,
      "oter": 6866,
      "pies": 6867,
      "passes": 6868,
      "praised": 6869,
      "rout": 6870,
      "rural": 6871,
      "ruled": 6872,
      "san": 6873,
      "sack": 6874,
      "udent": 6875,
      "vig": 6876,
      "wounds": 6877,
      "zip": 6878,
      "thread": 6879,
      "inser": 6880,
      "inarian": 6881,
      "represent": 6882,
      "reconsider": 6883,
      "regained": 6884,
      "atically": 6885,
      "edition": 6886,
      "itious": 6887,
      "nove": 6888,
      "orche": 6889,
      "sti": 6890,
      "staff": 6891,
      "lected": 6892,
      "err": 6893,
      "enger": 6894,
      "liars": 6895,
      "chill": 6896,
      "forcing": 6897,
      "admission": 6898,
      "bore": 6899,
      "ria": 6900,
      "teas": 6901,
      "cooperate": 6902,
      "getic": 6903,
      "geography": 6904,
      "unusually": 6905,
      "undressed": 6906,
      "unreliable": 6907,
      "unavoidable": 6908,
      "mole": 6909,
      "cet": 6910,
      "pears": 6911,
      "thern": 6912,
      "traged": 6913,
      "shield": 6914,
      "shell": 6915,
      "agu": 6916,
      "demon": 6917,
      "ami": 6918,
      "amput": 6919,
      "illusion": 6920,
      "exis": 6921,
      "foc": 6922,
      "quie": 6923,
      "homes": 6924,
      "ulture": 6925,
      "arts": 6926,
      "wrist": 6927,
      "jog": 6928,
      "preju": 6929,
      "surely": 6930,
      "diabe": 6931,
      "underwear": 6932,
      "glue": 6933,
      "prudent": 6934,
      "wool": 6935,
      "tless": 6936,
      "shoved": 6937,
      "distract": 6938,
      "overtime": 6939,
      "overboard": 6940,
      "smok": 6941,
      "thanking": 6942,
      "clapped": 6943,
      "colds": 6944,
      "lighter": 6945,
      "tape": 6946,
      "sistible": 6947,
      "payment": 6948,
      "owners": 6949,
      "jelly": 6950,
      "imported": 6951,
      "boxer": 6952,
      "corre": 6953,
      "dull": 6954,
      "greatly": 6955,
      "steel": 6956,
      "observant": 6957,
      "vending": 6958,
      "massage": 6959,
      "faucet": 6960,
      "warrant": 6961,
      "drops": 6962,
      "troubles": 6963,
      "listed": 6964,
      "relations": 6965,
      "throughout": 6966,
      "hitch": 6967,
      "hearts": 6968,
      "halfway": 6969,
      "floors": 6970,
      "doubtful": 6971,
      "bothers": 6972,
      "subur": 6973,
      "cube": 6974,
      "worthwhile": 6975,
      "freckles": 6976,
      "syn": 6977,
      "buttons": 6978,
      "buttoned": 6979,
      "dependent": 6980,
      "dependable": 6981,
      "hostage": 6982,
      "notebooks": 6983,
      "sens": 6984,
      "hanged": 6985,
      "welcomed": 6986,
      "powerless": 6987,
      "subjects": 6988,
      "specialist": 6989,
      "bulb": 6990,
      "terrified": 6991,
      "praying": 6992,
      "acquired": 6993,
      "peanut": 6994,
      "violinist": 6995,
      "grammat": 6996,
      "embarrassing": 6997,
      "strawberry": 6998,
      "improvis": 6999,
      "budge": 7000,
      "vanilla": 7001,
      "stream": 7002,
      "exceptionally": 7003,
      "cracked": 7004,
      "magician": 7005,
      "rubbed": 7006,
      "muddy": 7007,
      "tracks": 7008,
      "literally": 7009,
      "whistling": 7010,
      "competent": 7011,
      "eighth": 7012,
      "spiration": 7013,
      "sleeves": 7014,
      "grocer": 7015,
      "materials": 7016,
      "automatically": 7017,
      "asylum": 7018,
      "devil": 7019,
      "janitor": 7020,
      "advertising": 7021,
      "tunnel": 7022,
      "confirmed": 7023,
      "texting": 7024,
      "babysitter": 7025,
      "squeezed": 7026,
      "executed": 7027,
      "industry": 7028,
      "cafeteria": 7029,
      "obstinate": 7030,
      "stiff": 7031,
      "giggled": 7032,
      "refugees": 7033,
      "reporter": 7034,
      "therapy": 7035,
      "irresistible": 7036,
      "veterinarian": 7037,
      "exhibition": 7038,
      "extinguisher": 7039,
      "fountain": 7040,
      "programmer": 7041,
      "margarine": 7042,
      "ketchup": 7043,
      "chimney": 7044,
      "qualified": 7045,
      "established": 7046,
      "symbol": 7047,
      "telegram": 7048,
      "substitute": 7049,
      "energetic": 7050,
      "nutritious": 7051,
      "fianc": 7052,
      "napoleon": 7053,
      "orchestra": 7054,
      "diabetic": 7055,
      "aple": 7056,
      "aholic": 7057,
      "dashed": 7058,
      "eli": 7059,
      "enorm": 7060,
      "flights": 7061,
      "gur": 7062,
      "gusted": 7063,
      "knot": 7064,
      "mig": 7065,
      "nate": 7066,
      "pant": 7067,
      "rs": 7068,
      "sorrow": 7069,
      "swo": 7070,
      "sions": 7071,
      "tin": 7072,
      "vable": 7073,
      "vation": 7074,
      "thless": 7075,
      "thieve": 7076,
      "rewrote": 7077,
      "attor": 7078,
      "isen": 7079,
      "ishes": 7080,
      "melo": 7081,
      "melts": 7082,
      "nology": 7083,
      "stare": 7084,
      "leaf": 7085,
      "erly": 7086,
      "weeds": 7087,
      "beware": 7088,
      "goo": 7089,
      "sess": 7090,
      "seized": 7091,
      "sealed": 7092,
      "keeper": 7093,
      "rocket": 7094,
      "romance": 7095,
      "forged": 7096,
      "wanting": 7097,
      "adminis": 7098,
      "riot": 7099,
      "tially": 7100,
      "outraged": 7101,
      "unwrap": 7102,
      "peas": 7103,
      "sam": 7104,
      "sault": 7105,
      "stopping": 7106,
      "trace": 7107,
      "impulsive": 7108,
      "worm": 7109,
      "pled": 7110,
      "needles": 7111,
      "utch": 7112,
      "rence": 7113,
      "pox": 7114,
      "dear": 7115,
      "delight": 7116,
      "amusing": 7117,
      "ambid": 7118,
      "extrous": 7119,
      "indi": 7120,
      "pros": 7121,
      "workaholic": 7122,
      "aves": 7123,
      "frost": 7124,
      "compre": 7125,
      "composed": 7126,
      "scor": 7127,
      "scienti": 7128,
      "fax": 7129,
      "diving": 7130,
      "offensive": 7131,
      "oline": 7132,
      "igning": 7133,
      "penny": 7134,
      "brid": 7135,
      "braces": 7136,
      "stern": 7137,
      "lumb": 7138,
      "chef": 7139,
      "diseas": 7140,
      "disgusted": 7141,
      "overheard": 7142,
      "overlooked": 7143,
      "catalo": 7144,
      "owls": 7145,
      "ruins": 7146,
      "ruthless": 7147,
      "beds": 7148,
      "sidewalk": 7149,
      "label": 7150,
      "keyboard": 7151,
      "serving": 7152,
      "series": 7153,
      "airplanes": 7154,
      "cremated": 7155,
      "tablecloth": 7156,
      "parks": 7157,
      "differences": 7158,
      "ballet": 7159,
      "refrain": 7160,
      "duck": 7161,
      "musicians": 7162,
      "wakes": 7163,
      "decisive": 7164,
      "denying": 7165,
      "stew": 7166,
      "hugging": 7167,
      "partially": 7168,
      "quicker": 7169,
      "roughly": 7170,
      "recovery": 7171,
      "bandage": 7172,
      "guessing": 7173,
      "planets": 7174,
      "tons": 7175,
      "evenings": 7176,
      "catching": 7177,
      "smartest": 7178,
      "footprints": 7179,
      "shortage": 7180,
      "medications": 7181,
      "risen": 7182,
      "emig": 7183,
      "azing": 7184,
      "tails": 7185,
      "freak": 7186,
      "harvest": 7187,
      "considers": 7188,
      "basic": 7189,
      "charger": 7190,
      "uneasy": 7191,
      "gasoline": 7192,
      "scaring": 7193,
      "celebrity": 7194,
      "tasty": 7195,
      "cheapskate": 7196,
      "adopt": 7197,
      "relaxing": 7198,
      "bedrooms": 7199,
      "wisely": 7200,
      "drowsy": 7201,
      "hyp": 7202,
      "cigar": 7203,
      "repairing": 7204,
      "territory": 7205,
      "tempted": 7206,
      "appointments": 7207,
      "allergies": 7208,
      "insured": 7209,
      "exerc": 7210,
      "fields": 7211,
      "pitched": 7212,
      "despises": 7213,
      "responsibilities": 7214,
      "heights": 7215,
      "knitted": 7216,
      "affects": 7217,
      "biological": 7218,
      "sneak": 7219,
      "troops": 7220,
      "bacteria": 7221,
      "stains": 7222,
      "electrician": 7223,
      "framed": 7224,
      "convenience": 7225,
      "bruises": 7226,
      "roller": 7227,
      "contradicting": 7228,
      "employee": 7229,
      "measures": 7230,
      "decorate": 7231,
      "utterly": 7232,
      "mushroom": 7233,
      "addicted": 7234,
      "enthusiastic": 7235,
      "adventure": 7236,
      "branches": 7237,
      "minister": 7238,
      "installed": 7239,
      "vitamin": 7240,
      "compete": 7241,
      "nightmares": 7242,
      "fascinated": 7243,
      "anticipated": 7244,
      "koala": 7245,
      "virus": 7246,
      "thoroughly": 7247,
      "korean": 7248,
      "flames": 7249,
      "minimum": 7250,
      "wanna": 7251,
      "dolphins": 7252,
      "panicked": 7253,
      "instincts": 7254,
      "crocodile": 7255,
      "phrase": 7256,
      "hangover": 7257,
      "thursday": 7258,
      "intuition": 7259,
      "califor": 7260,
      "schizophrenic": 7261,
      "nasty": 7262,
      "existence": 7263,
      "quieter": 7264,
      "suburbs": 7265,
      "swollen": 7266,
      "thieves": 7267,
      "ambidextrous": 7268,
      "scientific": 7269,
      "diseases": 7270,
      "atory": 7271,
      "dren": 7272,
      "ffe": 7273,
      "hj": 7274,
      "ome": 7275,
      "plot": 7276,
      "pound": 7277,
      "ron": 7278,
      "rants": 7279,
      "sighed": 7280,
      "tab": 7281,
      "tapped": 7282,
      "wl": 7283,
      "whel": 7284,
      "zard": 7285,
      "thma": 7286,
      "infection": 7287,
      "renew": 7288,
      "revolution": 7289,
      "reception": 7290,
      "onna": 7291,
      "heal": 7292,
      "asia": 7293,
      "asthma": 7294,
      "domin": 7295,
      "itled": 7296,
      "stic": 7297,
      "staple": 7298,
      "beverage": 7299,
      "donated": 7300,
      "nears": 7301,
      "chin": 7302,
      "chor": 7303,
      "marble": 7304,
      "marked": 7305,
      "bodies": 7306,
      "columb": 7307,
      "ushes": 7308,
      "abdu": 7309,
      "uncommon": 7310,
      "unpleasant": 7311,
      "unplugged": 7312,
      "peach": 7313,
      "iring": 7314,
      "immoral": 7315,
      "pleaded": 7316,
      "plug": 7317,
      "entitled": 7318,
      "yeah": 7319,
      "raising": 7320,
      "lets": 7321,
      "agric": 7322,
      "expressed": 7323,
      "existed": 7324,
      "procr": 7325,
      "ighted": 7326,
      "mist": 7327,
      "contr": 7328,
      "conclu": 7329,
      "converted": 7330,
      "convey": 7331,
      "commer": 7332,
      "ulary": 7333,
      "perman": 7334,
      "carto": 7335,
      "backup": 7336,
      "prev": 7337,
      "bookcase": 7338,
      "diligent": 7339,
      "angri": 7340,
      "bushes": 7341,
      "busier": 7342,
      "underlined": 7343,
      "housework": 7344,
      "hedge": 7345,
      "manus": 7346,
      "istan": 7347,
      "mono": 7348,
      "decre": 7349,
      "disgu": 7350,
      "disorganized": 7351,
      "overwhel": 7352,
      "applies": 7353,
      "cattle": 7354,
      "grat": 7355,
      "tically": 7356,
      "paused": 7357,
      "thankful": 7358,
      "giraffe": 7359,
      "choir": 7360,
      "coughed": 7361,
      "desc": 7362,
      "server": 7363,
      "pulling": 7364,
      "supply": 7365,
      "voy": 7366,
      "vocab": 7367,
      "invinc": 7368,
      "imports": 7369,
      "fireplace": 7370,
      "corpor": 7371,
      "snowstorm": 7372,
      "cuts": 7373,
      "bringing": 7374,
      "shadow": 7375,
      "nicely": 7376,
      "humming": 7377,
      "partial": 7378,
      "hier": 7379,
      "hipp": 7380,
      "secretly": 7381,
      "aliz": 7382,
      "simp": 7383,
      "dict": 7384,
      "flor": 7385,
      "solutions": 7386,
      "situations": 7387,
      "noticing": 7388,
      "dictionaries": 7389,
      "swears": 7390,
      "arguments": 7391,
      "mahj": 7392,
      "marrying": 7393,
      "drift": 7394,
      "cello": 7395,
      "sque": 7396,
      "resort": 7397,
      "guilt": 7398,
      "yogur": 7399,
      "tuxed": 7400,
      "offering": 7401,
      "entertain": 7402,
      "seventh": 7403,
      "satisfy": 7404,
      "polish": 7405,
      "daddy": 7406,
      "stepfather": 7407,
      "generation": 7408,
      "expires": 7409,
      "cynical": 7410,
      "profile": 7411,
      "cashier": 7412,
      "scarce": 7413,
      "slippers": 7414,
      "recommendation": 7415,
      "sufficient": 7416,
      "conditioning": 7417,
      "leads": 7418,
      "swiss": 7419,
      "exploded": 7420,
      "scheduled": 7421,
      "cabin": 7422,
      "browser": 7423,
      "exhale": 7424,
      "suspicion": 7425,
      "urgently": 7426,
      "demanding": 7427,
      "documentary": 7428,
      "scot": 7429,
      "accusations": 7430,
      "delivery": 7431,
      "delirious": 7432,
      "greek": 7433,
      "greece": 7434,
      "mugged": 7435,
      "occurrence": 7436,
      "limits": 7437,
      "increasing": 7438,
      "savings": 7439,
      "crop": 7440,
      "ruining": 7441,
      "despite": 7442,
      "raced": 7443,
      "citizenship": 7444,
      "separately": 7445,
      "methods": 7446,
      "hamster": 7447,
      "hypocritical": 7448,
      "sharpening": 7449,
      "nonstop": 7450,
      "bruise": 7451,
      "regarded": 7452,
      "include": 7453,
      "reluctant": 7454,
      "cott": 7455,
      "narrowly": 7456,
      "blondes": 7457,
      "handcuffs": 7458,
      "farmers": 7459,
      "sneeze": 7460,
      "techni": 7461,
      "technology": 7462,
      "goats": 7463,
      "resource": 7464,
      "stretched": 7465,
      "railroad": 7466,
      "crawling": 7467,
      "global": 7468,
      "sailors": 7469,
      "analyzed": 7470,
      "hamburgers": 7471,
      "alert": 7472,
      "squeeze": 7473,
      "identified": 7474,
      "jewelry": 7475,
      "imaginative": 7476,
      "repeatedly": 7477,
      "koalas": 7478,
      "pandas": 7479,
      "liberty": 7480,
      "referring": 7481,
      "deliberate": 7482,
      "scenery": 7483,
      "penguins": 7484,
      "arabic": 7485,
      "amateur": 7486,
      "reduced": 7487,
      "composer": 7488,
      "refresh": 7489,
      "kimono": 7490,
      "errand": 7491,
      "tragedy": 7492,
      "amputated": 7493,
      "focused": 7494,
      "sample": 7495,
      "individ": 7496,
      "california": 7497,
      "drenched": 7498,
      "nearsighted": 7499,
      "columbus": 7500,
      "abducted": 7501,
      "agriculture": 7502,
      "procrast": 7503,
      "vocabulary": 7504,
      "invincible": 7505,
      "mahjong": 7506,
      "yogurt": 7507,
      "tuxedo": 7508,
      "dough": 7509,
      "dles": 7510,
      "damp": 7511,
      "ditch": 7512,
      "ecli": 7513,
      "fare": 7514,
      "filed": 7515,
      "iving": 7516,
      "jury": 7517,
      "kang": 7518,
      "mass": 7519,
      "nav": 7520,
      "oak": 7521,
      "ored": 7522,
      "omen": 7523,
      "praise": 7524,
      "rou": 7525,
      "sled": 7526,
      "swed": 7527,
      "uffe": 7528,
      "tories": 7529,
      "thirst": 7530,
      "inated": 7531,
      "incur": 7532,
      "inspiration": 7533,
      "youth": 7534,
      "republic": 7535,
      "reacted": 7536,
      "atl": 7537,
      "oning": 7538,
      "vene": 7539,
      "mere": 7540,
      "mester": 7541,
      "mets": 7542,
      "asso": 7543,
      "archa": 7544,
      "aroo": 7545,
      "nood": 7546,
      "stall": 7547,
      "stack": 7548,
      "iden": 7549,
      "hacked": 7550,
      "weed": 7551,
      "beep": 7552,
      "bels": 7553,
      "goose": 7554,
      "licking": 7555,
      "sec": 7556,
      "secure": 7557,
      "semester": 7558,
      "kered": 7559,
      "hog": 7560,
      "donut": 7561,
      "donkey": 7562,
      "verse": 7563,
      "rol": 7564,
      "rolling": 7565,
      "chasing": 7566,
      "los": 7567,
      "boot": 7568,
      "soaked": 7569,
      "myth": 7570,
      "unic": 7571,
      "unforget": 7572,
      "unfinished": 7573,
      "unzipped": 7574,
      "mower": 7575,
      "motive": 7576,
      "festi": 7577,
      "irreplaceable": 7578,
      "stoop": 7579,
      "tran": 7580,
      "trout": 7581,
      "somewhat": 7582,
      "image": 7583,
      "shu": 7584,
      "shri": 7585,
      "shrink": 7586,
      "uted": 7587,
      "helmets": 7588,
      "happily": 7589,
      "dee": 7590,
      "deport": 7591,
      "deposit": 7592,
      "dealer": 7593,
      "excus": 7594,
      "indis": 7595,
      "quet": 7596,
      "everest": 7597,
      "compass": 7598,
      "ulars": 7599,
      "persever": 7600,
      "period": 7601,
      "backs": 7602,
      "butcher": 7603,
      "underwater": 7604,
      "types": 7605,
      "glance": 7606,
      "prank": 7607,
      "drastic": 7608,
      "estim": 7609,
      "housewife": 7610,
      "australian": 7611,
      "resting": 7612,
      "camel": 7613,
      "clown": 7614,
      "firemen": 7615,
      "lumber": 7616,
      "mostly": 7617,
      "handmade": 7618,
      "liters": 7619,
      "overcast": 7620,
      "torn": 7621,
      "earring": 7622,
      "promising": 7623,
      "chopped": 7624,
      "easiest": 7625,
      "picasso": 7626,
      "partners": 7627,
      "float": 7628,
      "flown": 7629,
      "floating": 7630,
      "floats": 7631,
      "training": 7632,
      "supplied": 7633,
      "armchair": 7634,
      "runner": 7635,
      "function": 7636,
      "setting": 7637,
      "jet": 7638,
      "dum": 7639,
      "snowboard": 7640,
      "granddaughter": 7641,
      "hospitals": 7642,
      "bagpipes": 7643,
      "dropping": 7644,
      "intervene": 7645,
      "vivid": 7646,
      "colony": 7647,
      "heartless": 7648,
      "draft": 7649,
      "clocks": 7650,
      "rises": 7651,
      "cured": 7652,
      "maintain": 7653,
      "harp": 7654,
      "eyebrow": 7655,
      "skied": 7656,
      "continu": 7657,
      "dances": 7658,
      "imagining": 7659,
      "tulips": 7660,
      "snif": 7661,
      "mailman": 7662,
      "volcano": 7663,
      "gently": 7664,
      "blinded": 7665,
      "distant": 7666,
      "sticking": 7667,
      "pretends": 7668,
      "chauffe": 7669,
      "boats": 7670,
      "passports": 7671,
      "lingu": 7672,
      "stuffed": 7673,
      "figures": 7674,
      "slightest": 7675,
      "ador": 7676,
      "thorns": 7677,
      "peaceful": 7678,
      "articles": 7679,
      "benef": 7680,
      "snores": 7681,
      "hydro": 7682,
      "threats": 7683,
      "circul": 7684,
      "shortest": 7685,
      "involve": 7686,
      "region": 7687,
      "scooter": 7688,
      "meaningless": 7689,
      "criticizing": 7690,
      "congress": 7691,
      "pigsty": 7692,
      "crops": 7693,
      "dusty": 7694,
      "gentlemen": 7695,
      "psychi": 7696,
      "foxes": 7697,
      "practiced": 7698,
      "citizens": 7699,
      "flip": 7700,
      "pleasantly": 7701,
      "pouring": 7702,
      "hypothesis": 7703,
      "borders": 7704,
      "graduate": 7705,
      "topics": 7706,
      "possibilities": 7707,
      "whistled": 7708,
      "registration": 7709,
      "firing": 7710,
      "groaned": 7711,
      "sacred": 7712,
      "developed": 7713,
      "devast": 7714,
      "regularly": 7715,
      "deceiving": 7716,
      "stressed": 7717,
      "lemonade": 7718,
      "species": 7719,
      "crawl": 7720,
      "temples": 7721,
      "pharmac": 7722,
      "fastened": 7723,
      "identify": 7724,
      "fascinating": 7725,
      "pollution": 7726,
      "manipulate": 7727,
      "talents": 7728,
      "cautiously": 7729,
      "rational": 7730,
      "transferred": 7731,
      "psychologist": 7732,
      "olympics": 7733,
      "subscribe": 7734,
      "immigrants": 7735,
      "username": 7736,
      "leftovers": 7737,
      "acknowledged": 7738,
      "claustrophobic": 7739,
      "horrified": 7740,
      "grammatical": 7741,
      "enormous": 7742,
      "attorney": 7743,
      "scorp": 7744,
      "permanent": 7745,
      "angrily": 7746,
      "manuscript": 7747,
      "gratitude": 7748,
      "voyage": 7749,
      "cottage": 7750,
      "technique": 7751,
      "kangaroo": 7752,
      "incurable": 7753,
      "identical": 7754,
      "unicycle": 7755,
      "unforgettable": 7756,
      "excusable": 7757,
      "perseverance": 7758,
      "chauffeur": 7759,
      "psychiat": 7760,
      "aun": 7761,
      "bers": 7762,
      "caffe": 7763,
      "dion": 7764,
      "emo": 7765,
      "eaves": 7766,
      "fuse": 7767,
      "font": 7768,
      "hiring": 7769,
      "jaw": 7770,
      "oat": 7771,
      "olives": 7772,
      "pave": 7773,
      "rhe": 7774,
      "scan": 7775,
      "snu": 7776,
      "scow": 7777,
      "sane": 7778,
      "ux": 7779,
      "vom": 7780,
      "valley": 7781,
      "wrest": 7782,
      "ypt": 7783,
      "infl": 7784,
      "inexcusable": 7785,
      "rein": 7786,
      "rewrite": 7787,
      "relied": 7788,
      "rebell": 7789,
      "returning": 7790,
      "anony": 7791,
      "onion": 7792,
      "ison": 7793,
      "mechan": 7794,
      "arctic": 7795,
      "dozed": 7796,
      "orbit": 7797,
      "orient": 7798,
      "behalf": 7799,
      "lip": 7800,
      "licked": 7801,
      "sex": 7802,
      "roo": 7803,
      "robo": 7804,
      "nest": 7805,
      "marine": 7806,
      "admir": 7807,
      "soms": 7808,
      "soviet": 7809,
      "inkill": 7810,
      "usa": 7811,
      "outrage": 7812,
      "gestu": 7813,
      "undress": 7814,
      "unaware": 7815,
      "unwilling": 7816,
      "unreasonable": 7817,
      "unfolded": 7818,
      "cease": 7819,
      "pec": 7820,
      "daydreaming": 7821,
      "sau": 7822,
      "feared": 7823,
      "stored": 7824,
      "trag": 7825,
      "impec": 7826,
      "pla": 7827,
      "endless": 7828,
      "agues": 7829,
      "poster": 7830,
      "detained": 7831,
      "exposed": 7832,
      "indians": 7833,
      "proced": 7834,
      "foggy": 7835,
      "quant": 7836,
      "tension": 7837,
      "misjudged": 7838,
      "epis": 7839,
      "carbon": 7840,
      "waits": 7841,
      "oused": 7842,
      "preced": 7843,
      "itement": 7844,
      "lasts": 7845,
      "estate": 7846,
      "manner": 7847,
      "mankind": 7848,
      "hopeful": 7849,
      "brake": 7850,
      "downs": 7851,
      "decline": 7852,
      "shove": 7853,
      "disagrees": 7854,
      "disney": 7855,
      "dislocated": 7856,
      "discouraged": 7857,
      "rived": 7858,
      "drinker": 7859,
      "intoler": 7860,
      "meets": 7861,
      "grace": 7862,
      "visions": 7863,
      "rum": 7864,
      "ruler": 7865,
      "hunch": 7866,
      "painkill": 7867,
      "nerve": 7868,
      "breed": 7869,
      "choked": 7870,
      "chopping": 7871,
      "random": 7872,
      "meddle": 7873,
      "lightly": 7874,
      "dresser": 7875,
      "tables": 7876,
      "apologies": 7877,
      "untie": 7878,
      "contributed": 7879,
      "sius": 7880,
      "privac": 7881,
      "lungs": 7882,
      "corri": 7883,
      "stray": 7884,
      "grandpa": 7885,
      "pickpockets": 7886,
      "horn": 7887,
      "denmark": 7888,
      "hospitality": 7889,
      "steam": 7890,
      "spots": 7891,
      "patch": 7892,
      "patron": 7893,
      "patrol": 7894,
      "emptied": 7895,
      "cupboard": 7896,
      "crad": 7897,
      "colon": 7898,
      "lands": 7899,
      "landline": 7900,
      "healthier": 7901,
      "blueberries": 7902,
      "excitement": 7903,
      "media": 7904,
      "cursed": 7905,
      "blocking": 7906,
      "souls": 7907,
      "ators": 7908,
      "iler": 7909,
      "sandbar": 7910,
      "colleagues": 7911,
      "locks": 7912,
      "checkers": 7913,
      "fatter": 7914,
      "burnt": 7915,
      "deprived": 7916,
      "barrel": 7917,
      "charis": 7918,
      "charges": 7919,
      "satisfactory": 7920,
      "destination": 7921,
      "sensed": 7922,
      "expired": 7923,
      "golfer": 7924,
      "evicted": 7925,
      "bats": 7926,
      "profit": 7927,
      "dryer": 7928,
      "adore": 7929,
      "adores": 7930,
      "storms": 7931,
      "specialty": 7932,
      "freshman": 7933,
      "ressed": 7934,
      "pigeon": 7935,
      "repeating": 7936,
      "officers": 7937,
      "officially": 7938,
      "chickens": 7939,
      "shaves": 7940,
      "heroes": 7941,
      "exhaust": 7942,
      "produces": 7943,
      "tempting": 7944,
      "equi": 7945,
      "messy": 7946,
      "accepting": 7947,
      "recording": 7948,
      "accordion": 7949,
      "elders": 7950,
      "elderly": 7951,
      "illegible": 7952,
      "willingly": 7953,
      "disappointment": 7954,
      "annoy": 7955,
      "launched": 7956,
      "determine": 7957,
      "flags": 7958,
      "speeding": 7959,
      "participants": 7960,
      "budd": 7961,
      "buddy": 7962,
      "educated": 7963,
      "linux": 7964,
      "calculations": 7965,
      "hallway": 7966,
      "negotiate": 7967,
      "summit": 7968,
      "statistics": 7969,
      "attentively": 7970,
      "chubby": 7971,
      "humiliate": 7972,
      "britain": 7973,
      "affection": 7974,
      "surrendered": 7975,
      "surprisingly": 7976,
      "obliged": 7977,
      "clarify": 7978,
      "palms": 7979,
      "celsius": 7980,
      "variety": 7981,
      "designed": 7982,
      "creeps": 7983,
      "yawning": 7984,
      "texas": 7985,
      "imitate": 7986,
      "jewels": 7987,
      "rusty": 7988,
      "autograph": 7989,
      "anticipate": 7990,
      "scraped": 7991,
      "korea": 7992,
      "democracy": 7993,
      "obligated": 7994,
      "cautious": 7995,
      "bullied": 7996,
      "challenges": 7997,
      "reveal": 7998,
      "blinking": 7999,
      "choosy": 8000,
      "troubled": 8001,
      "chapters": 8002,
      "virtue": 8003,
      "blossoms": 8004,
      "muslim": 8005,
      "prejudic": 8006,
      "smokers": 8007,
      "corrections": 8008,
      "omelet": 8009,
      "eclipse": 8010,
      "archae": 8011,
      "noodles": 8012,
      "festival": 8013,
      "deported": 8014,
      "pharmacist": 8015,
      "aunts": 8016,
      "caffeine": 8017,
      "emotions": 8018,
      "oatmeal": 8019,
      "tragic": 8020,
      "procedure": 8021,
      "privacy": 8022,
      "athe": 8023,
      "award": 8024,
      "bble": 8025,
      "bable": 8026,
      "biling": 8027,
      "bakes": 8028,
      "caf": 8029,
      "dna": 8030,
      "elo": 8031,
      "fab": 8032,
      "fame": 8033,
      "gant": 8034,
      "gible": 8035,
      "lor": 8036,
      "mac": 8037,
      "masks": 8038,
      "ore": 8039,
      "ove": 8040,
      "ode": 8041,
      "plow": 8042,
      "pile": 8043,
      "sple": 8044,
      "tide": 8045,
      "uke": 8046,
      "uous": 8047,
      "vacc": 8048,
      "vals": 8049,
      "tofu": 8050,
      "intru": 8051,
      "incl": 8052,
      "rear": 8053,
      "rebels": 8054,
      "islam": 8055,
      "vet": 8056,
      "vegan": 8057,
      "vehic": 8058,
      "ases": 8059,
      "asive": 8060,
      "ories": 8061,
      "stating": 8062,
      "lect": 8063,
      "leap": 8064,
      "leuke": 8065,
      "era": 8066,
      "erase": 8067,
      "envious": 8068,
      "western": 8069,
      "roast": 8070,
      "roman": 8071,
      "nets": 8072,
      "adding": 8073,
      "rip": 8074,
      "ribb": 8075,
      "tific": 8076,
      "inkled": 8077,
      "coo": 8078,
      "cooper": 8079,
      "coworkers": 8080,
      "withdraw": 8081,
      "undone": 8082,
      "unfriendly": 8083,
      "unbiased": 8084,
      "mow": 8085,
      "cereal": 8086,
      "peek": 8087,
      "sailing": 8088,
      "fet": 8089,
      "feather": 8090,
      "feature": 8091,
      "irs": 8092,
      "tering": 8093,
      "ternal": 8094,
      "storage": 8095,
      "worsen": 8096,
      "ained": 8097,
      "iful": 8098,
      "utches": 8099,
      "update": 8100,
      "rag": 8101,
      "raises": 8102,
      "urally": 8103,
      "pod": 8104,
      "deck": 8105,
      "deals": 8106,
      "excess": 8107,
      "exceed": 8108,
      "indian": 8109,
      "comparing": 8110,
      "bugs": 8111,
      "scale": 8112,
      "ishing": 8113,
      "joint": 8114,
      "precau": 8115,
      "prescri": 8116,
      "speakers": 8117,
      "iceland": 8118,
      "manual": 8119,
      "restrain": 8120,
      "bras": 8121,
      "brushes": 8122,
      "aching": 8123,
      "childish": 8124,
      "lump": 8125,
      "singers": 8126,
      "startled": 8127,
      "showered": 8128,
      "disobeyed": 8129,
      "rement": 8130,
      "overdressed": 8131,
      "apping": 8132,
      "doorknob": 8133,
      "moron": 8134,
      "smashed": 8135,
      "hardware": 8136,
      "grin": 8137,
      "ruden": 8138,
      "tics": 8139,
      "portug": 8140,
      "giraff": 8141,
      "laz": 8142,
      "certific": 8143,
      "easter": 8144,
      "rank": 8145,
      "cled": 8146,
      "kindly": 8147,
      "serves": 8148,
      "fasting": 8149,
      "tator": 8150,
      "agreeing": 8151,
      "merry": 8152,
      "payday": 8153,
      "rung": 8154,
      "paints": 8155,
      "skier": 8156,
      "headlights": 8157,
      "lenses": 8158,
      "sunscreen": 8159,
      "berlin": 8160,
      "bernate": 8161,
      "primary": 8162,
      "opard": 8163,
      "ducks": 8164,
      "susp": 8165,
      "dieting": 8166,
      "cia": 8167,
      "custo": 8168,
      "oculars": 8169,
      "allowance": 8170,
      "denies": 8171,
      "milked": 8172,
      "parag": 8173,
      "paraly": 8174,
      "elec": 8175,
      "elegant": 8176,
      "hibernate": 8177,
      "patriot": 8178,
      "warmed": 8179,
      "emphas": 8180,
      "vibr": 8181,
      "appointed": 8182,
      "fights": 8183,
      "crushed": 8184,
      "crutches": 8185,
      "legend": 8186,
      "borrows": 8187,
      "tonic": 8188,
      "calories": 8189,
      "purchase": 8190,
      "dictator": 8191,
      "guitars": 8192,
      "confli": 8193,
      "taxis": 8194,
      "shuttle": 8195,
      "emic": 8196,
      "subtit": 8197,
      "azed": 8198,
      "postcards": 8199,
      "vacant": 8200,
      "reports": 8201,
      "colleague": 8202,
      "successfully": 8203,
      "ashtray": 8204,
      "fatal": 8205,
      "fourteen": 8206,
      "harbor": 8207,
      "burger": 8208,
      "dealt": 8209,
      "mommy": 8210,
      "uncles": 8211,
      "blooded": 8212,
      "extin": 8213,
      "bravery": 8214,
      "approval": 8215,
      "starve": 8216,
      "jealousy": 8217,
      "lakes": 8218,
      "superior": 8219,
      "fruits": 8220,
      "windshield": 8221,
      "contacts": 8222,
      "definite": 8223,
      "evident": 8224,
      "views": 8225,
      "brim": 8226,
      "attending": 8227,
      "castles": 8228,
      "gains": 8229,
      "cheesecake": 8230,
      "explanations": 8231,
      "instructor": 8232,
      "grounds": 8233,
      "screams": 8234,
      "snored": 8235,
      "reaching": 8236,
      "bathe": 8237,
      "grouch": 8238,
      "permitting": 8239,
      "recorded": 8240,
      "naturally": 8241,
      "ancestors": 8242,
      "mysteries": 8243,
      "concentrating": 8244,
      "embarrassment": 8245,
      "princi": 8246,
      "tiptoed": 8247,
      "ambition": 8248,
      "professionals": 8249,
      "bombs": 8250,
      "harmful": 8251,
      "harmless": 8252,
      "electrical": 8253,
      "witnessed": 8254,
      "practices": 8255,
      "dishonest": 8256,
      "wiser": 8257,
      "flipped": 8258,
      "pirates": 8259,
      "pessimist": 8260,
      "reptiles": 8261,
      "tender": 8262,
      "cheerful": 8263,
      "physic": 8264,
      "physically": 8265,
      "announcement": 8266,
      "tents": 8267,
      "bacon": 8268,
      "symph": 8269,
      "fraud": 8270,
      "swimmers": 8271,
      "including": 8272,
      "accommo": 8273,
      "desperately": 8274,
      "strangled": 8275,
      "dedicate": 8276,
      "crawled": 8277,
      "palace": 8278,
      "protested": 8279,
      "retirement": 8280,
      "creepy": 8281,
      "luxu": 8282,
      "priorities": 8283,
      "measles": 8284,
      "clients": 8285,
      "imaginary": 8286,
      "firefighter": 8287,
      "activities": 8288,
      "obstac": 8289,
      "democratic": 8290,
      "vietnam": 8291,
      "canoe": 8292,
      "fuss": 8293,
      "rewarded": 8294,
      "broadcast": 8295,
      "choosing": 8296,
      "sarcasm": 8297,
      "sarcastic": 8298,
      "exports": 8299,
      "frowned": 8300,
      "cycling": 8301,
      "depression": 8302,
      "assignment": 8303,
      "supportive": 8304,
      "loosen": 8305,
      "kidnappers": 8306,
      "binoculars": 8307,
      "inhale": 8308,
      "prompt": 8309,
      "manufactures": 8310,
      "thrilled": 8311,
      "perfectionist": 8312,
      "vigil": 8313,
      "november": 8314,
      "sensible": 8315,
      "migrain": 8316,
      "google": 8317,
      "delighted": 8318,
      "stapler": 8319,
      "concluded": 8320,
      "disguised": 8321,
      "individual": 8322,
      "shuff": 8323,
      "deepest": 8324,
      "hydrogen": 8325,
      "devastated": 8326,
      "anonymous": 8327,
      "robots": 8328,
      "quantity": 8329,
      "episode": 8330,
      "disneyland": 8331,
      "cradle": 8332,
      "buddhis": 8333,
      "bilingual": 8334,
      "inclined": 8335,
      "leukemia": 8336,
      "rudeness": 8337,
      "portugal": 8338,
      "giraffes": 8339,
      "certificate": 8340,
      "paralyzed": 8341,
      "bene": 8342,
      "cate": 8343,
      "cages": 8344,
      "dive": 8345,
      "dang": 8346,
      "eth": 8347,
      "eif": 8348,
      "eag": 8349,
      "fain": 8350,
      "guts": 8351,
      "gonna": 8352,
      "hut": 8353,
      "ime": 8354,
      "iac": 8355,
      "iable": 8356,
      "iphone": 8357,
      "jup": 8358,
      "kk": 8359,
      "kins": 8360,
      "lance": 8361,
      "mum": 8362,
      "mumbling": 8363,
      "maker": 8364,
      "nd": 8365,
      "nit": 8366,
      "ndid": 8367,
      "nun": 8368,
      "nag": 8369,
      "nago": 8370,
      "nile": 8371,
      "rk": 8372,
      "tren": 8373,
      "uk": 8374,
      "vy": 8375,
      "vice": 8376,
      "wrench": 8377,
      "xic": 8378,
      "yment": 8379,
      "toen": 8380,
      "thaw": 8381,
      "thai": 8382,
      "ints": 8383,
      "incorrectly": 8384,
      "inexperienced": 8385,
      "invisible": 8386,
      "incompetent": 8387,
      "inconvenience": 8388,
      "reled": 8389,
      "relent": 8390,
      "repub": 8391,
      "resolved": 8392,
      "rehears": 8393,
      "atm": 8394,
      "ongest": 8395,
      "melt": 8396,
      "assault": 8397,
      "dome": 8398,
      "itated": 8399,
      "leopard": 8400,
      "ides": 8401,
      "encourage": 8402,
      "welf": 8403,
      "bewild": 8404,
      "goof": 8405,
      "liver": 8406,
      "keted": 8407,
      "hokk": 8408,
      "versi": 8409,
      "verbs": 8410,
      "alu": 8411,
      "lob": 8412,
      "lover": 8413,
      "ribu": 8414,
      "teous": 8415,
      "tips": 8416,
      "coco": 8417,
      "outdone": 8418,
      "abused": 8419,
      "abilities": 8420,
      "acity": 8421,
      "unnoticed": 8422,
      "unbeat": 8423,
      "unfamiliar": 8424,
      "unsociable": 8425,
      "unbuttoned": 8426,
      "mored": 8427,
      "moons": 8428,
      "daytime": 8429,
      "fel": 8430,
      "impartial": 8431,
      "icon": 8432,
      "willpower": 8433,
      "rents": 8434,
      "poke": 8435,
      "polished": 8436,
      "indif": 8437,
      "prop": 8438,
      "proceed": 8439,
      "proposition": 8440,
      "gotta": 8441,
      "ques": 8442,
      "misspelled": 8443,
      "goodnight": 8444,
      "constit": 8445,
      "ula": 8446,
      "blessed": 8447,
      "spam": 8448,
      "sprained": 8449,
      "wage": 8450,
      "butt": 8451,
      "restless": 8452,
      "broch": 8453,
      "camels": 8454,
      "asser": 8455,
      "fier": 8456,
      "clerk": 8457,
      "handful": 8458,
      "handles": 8459,
      "overcome": 8460,
      "differs": 8461,
      "surve": 8462,
      "elsewhere": 8463,
      "blond": 8464,
      "rumored": 8465,
      "hunted": 8466,
      "chop": 8467,
      "chole": 8468,
      "intently": 8469,
      "accuse": 8470,
      "flock": 8471,
      "flowed": 8472,
      "creature": 8473,
      "mercur": 8474,
      "votes": 8475,
      "rivers": 8476,
      "favorites": 8477,
      "lens": 8478,
      "priced": 8479,
      "numer": 8480,
      "strongest": 8481,
      "otes": 8482,
      "englishman": 8483,
      "duet": 8484,
      "duties": 8485,
      "shawl": 8486,
      "smallest": 8487,
      "licen": 8488,
      "ferry": 8489,
      "steep": 8490,
      "obtain": 8491,
      "hotter": 8492,
      "expense": 8493,
      "trips": 8494,
      "trium": 8495,
      "complic": 8496,
      "mashed": 8497,
      "tested": 8498,
      "pattern": 8499,
      "chron": 8500,
      "internal": 8501,
      "akened": 8502,
      "formal": 8503,
      "teams": 8504,
      "traveler": 8505,
      "calf": 8506,
      "growth": 8507,
      "husbands": 8508,
      "correcting": 8509,
      "dramatic": 8510,
      "grams": 8511,
      "seatbelts": 8512,
      "preferred": 8513,
      "confusion": 8514,
      "returns": 8515,
      "realizes": 8516,
      "worthless": 8517,
      "freaked": 8518,
      "smartphone": 8519,
      "secondhand": 8520,
      "checks": 8521,
      "introvert": 8522,
      "introverted": 8523,
      "earliest": 8524,
      "crossword": 8525,
      "purposely": 8526,
      "screwed": 8527,
      "snap": 8528,
      "pizzas": 8529,
      "satisfac": 8530,
      "depending": 8531,
      "weirdo": 8532,
      "oppo": 8533,
      "moonlight": 8534,
      "factories": 8535,
      "stuffy": 8536,
      "senior": 8537,
      "memorized": 8538,
      "controversi": 8539,
      "villagers": 8540,
      "aido": 8541,
      "invitations": 8542,
      "goldfish": 8543,
      "straighten": 8544,
      "portra": 8545,
      "graduation": 8546,
      "instructed": 8547,
      "intentional": 8548,
      "responding": 8549,
      "artificial": 8550,
      "embraced": 8551,
      "pushing": 8552,
      "murders": 8553,
      "peacefully": 8554,
      "frightening": 8555,
      "hyster": 8556,
      "knelt": 8557,
      "circled": 8558,
      "brightly": 8559,
      "silently": 8560,
      "leaning": 8561,
      "quarters": 8562,
      "wrapping": 8563,
      "prayers": 8564,
      "relationships": 8565,
      "concentrated": 8566,
      "professionally": 8567,
      "sources": 8568,
      "insecure": 8569,
      "investigate": 8570,
      "geniuses": 8571,
      "achievement": 8572,
      "defending": 8573,
      "uniforms": 8574,
      "valuables": 8575,
      "racco": 8576,
      "widely": 8577,
      "employed": 8578,
      "replying": 8579,
      "biologist": 8580,
      "exceptional": 8581,
      "calculated": 8582,
      "courteous": 8583,
      "frag": 8584,
      "frame": 8585,
      "bulletproof": 8586,
      "titan": 8587,
      "handkerchiefs": 8588,
      "spirit": 8589,
      "contradict": 8590,
      "mansion": 8591,
      "device": 8592,
      "masterpiece": 8593,
      "pinched": 8594,
      "attempts": 8595,
      "absorbs": 8596,
      "stressful": 8597,
      "leaks": 8598,
      "lemons": 8599,
      "pacif": 8600,
      "applause": 8601,
      "socialist": 8602,
      "combination": 8603,
      "architecture": 8604,
      "blanks": 8605,
      "pearl": 8606,
      "sharks": 8607,
      "priority": 8608,
      "blackmailing": 8609,
      "adjusted": 8610,
      "smoothly": 8611,
      "execu": 8612,
      "industri": 8613,
      "toolbox": 8614,
      "gossiping": 8615,
      "activity": 8616,
      "gathering": 8617,
      "dragon": 8618,
      "dragons": 8619,
      "deliberately": 8620,
      "challenged": 8621,
      "christianity": 8622,
      "fussy": 8623,
      "revolt": 8624,
      "liquids": 8625,
      "motivation": 8626,
      "amental": 8627,
      "overdose": 8628,
      "multip": 8629,
      "vampire": 8630,
      "extroverted": 8631,
      "jellyfish": 8632,
      "comprehen": 8633,
      "catalog": 8634,
      "exercises": 8635,
      "cartoon": 8636,
      "prevail": 8637,
      "resourceful": 8638,
      "navy": 8639,
      "route": 8640,
      "eyebrows": 8641,
      "adorable": 8642,
      "benefits": 8643,
      "rhetorical": 8644,
      "inflation": 8645,
      "charismatic": 8646,
      "prejudiced": 8647,
      "archaeologist": 8648,
      "splendid": 8649,
      "ribbon": 8650,
      "cooler": 8651,
      "cooperative": 8652,
      "custody": 8653,
      "subtitles": 8654,
      "eiffel": 8655,
      "eagle": 8656,
      "jupiter": 8657,
      "nagoya": 8658,
      "toenails": 8659,
      "republi": 8660,
      "welfare": 8661,
      "hokkaido": 8662,
      "unbeatable": 8663,
      "constitution": 8664,
      "mercury": 8665,
      "triumph": 8666,
      "controversial": 8667,
      "ao": 8668,
      "adow": 8669,
      "bou": 8670,
      "blast": 8671,
      "bunk": 8672,
      "cain": 8673,
      "cables": 8674,
      "ciful": 8675,
      "dj": 8676,
      "darts": 8677,
      "dutch": 8678,
      "etern": 8679,
      "evolution": 8680,
      "fid": 8681,
      "fice": 8682,
      "gic": 8683,
      "gap": 8684,
      "gical": 8685,
      "hip": 8686,
      "ku": 8687,
      "mule": 8688,
      "mama": 8689,
      "nin": 8690,
      "oath": 8691,
      "ostri": 8692,
      "ogical": 8693,
      "pon": 8694,
      "pad": 8695,
      "pte": 8696,
      "ray": 8697,
      "rist": 8698,
      "swa": 8699,
      "snor": 8700,
      "scars": 8701,
      "vary": 8702,
      "tho": 8703,
      "ino": 8704,
      "infu": 8705,
      "inched": 8706,
      "inations": 8707,
      "intense": 8708,
      "indecisive": 8709,
      "reno": 8710,
      "repaint": 8711,
      "retreat": 8712,
      "isting": 8713,
      "veled": 8714,
      "mered": 8715,
      "merely": 8716,
      "meadow": 8717,
      "aroused": 8718,
      "dote": 8719,
      "nosy": 8720,
      "stal": 8721,
      "ley": 8722,
      "legged": 8723,
      "seed": 8724,
      "selected": 8725,
      "septe": 8726,
      "keting": 8727,
      "donuts": 8728,
      "verdict": 8729,
      "roid": 8730,
      "nether": 8731,
      "ching": 8732,
      "chand": 8733,
      "chir": 8734,
      "chie": 8735,
      "almon": 8736,
      "altogether": 8737,
      "alps": 8738,
      "alarmed": 8739,
      "ading": 8740,
      "tease": 8741,
      "tile": 8742,
      "cocain": 8743,
      "hered": 8744,
      "outlive": 8745,
      "uncertain": 8746,
      "unsolved": 8747,
      "unfortunate": 8748,
      "moist": 8749,
      "mowed": 8750,
      "sador": 8751,
      "fears": 8752,
      "stool": 8753,
      "ima": 8754,
      "impulse": 8755,
      "hasty": 8756,
      "shattered": 8757,
      "uptight": 8758,
      "raph": 8759,
      "urban": 8760,
      "reader": 8761,
      "aging": 8762,
      "agony": 8763,
      "pow": 8764,
      "posal": 8765,
      "poland": 8766,
      "amused": 8767,
      "ambas": 8768,
      "illogical": 8769,
      "prospect": 8770,
      "prophe": 8771,
      "hermit": 8772,
      "newer": 8773,
      "newly": 8774,
      "tens": 8775,
      "tenacious": 8776,
      "aud": 8777,
      "thoughtful": 8778,
      "mischie": 8779,
      "consp": 8780,
      "comparis": 8781,
      "bure": 8782,
      "bubble": 8783,
      "carved": 8784,
      "scattered": 8785,
      "jogs": 8786,
      "mblance": 8787,
      "prey": 8788,
      "prepar": 8789,
      "items": 8790,
      "buyer": 8791,
      "typo": 8792,
      "printed": 8793,
      "madman": 8794,
      "belief": 8795,
      "restroom": 8796,
      "sterol": 8797,
      "monk": 8798,
      "downloaded": 8799,
      "dislikes": 8800,
      "disrespect": 8801,
      "disobey": 8802,
      "disobedient": 8803,
      "disposal": 8804,
      "xture": 8805,
      "cating": 8806,
      "surround": 8807,
      "greasy": 8808,
      "smith": 8809,
      "earning": 8810,
      "grain": 8811,
      "grud": 8812,
      "grumbling": 8813,
      "visibly": 8814,
      "blazing": 8815,
      "prisons": 8816,
      "hunters": 8817,
      "pawn": 8818,
      "hurri": 8819,
      "breeds": 8820,
      "minated": 8821,
      "chores": 8822,
      "chopin": 8823,
      "listener": 8824,
      "desires": 8825,
      "integr": 8826,
      "tales": 8827,
      "merciful": 8828,
      "runners": 8829,
      "beautifully": 8830,
      "skim": 8831,
      "skates": 8832,
      "invaded": 8833,
      "headlines": 8834,
      "explains": 8835,
      "identity": 8836,
      "igned": 8837,
      "passenger": 8838,
      "sili": 8839,
      "hatch": 8840,
      "probability": 8841,
      "nude": 8842,
      "numbered": 8843,
      "monthly": 8844,
      "stupidity": 8845,
      "cavi": 8846,
      "secretive": 8847,
      "fering": 8848,
      "signaled": 8849,
      "steals": 8850,
      "attach": 8851,
      "towns": 8852,
      "venus": 8853,
      "fris": 8854,
      "trial": 8855,
      "trimmed": 8856,
      "compul": 8857,
      "interfering": 8858,
      "presentation": 8859,
      "bandaged": 8860,
      "caps": 8861,
      "mount": 8862,
      "craft": 8863,
      "norway": 8864,
      "northern": 8865,
      "forgiveness": 8866,
      "desks": 8867,
      "flush": 8868,
      "flushed": 8869,
      "flinched": 8870,
      "sleeper": 8871,
      "confusing": 8872,
      "mixture": 8873,
      "immediate": 8874,
      "riser": 8875,
      "appealed": 8876,
      "protesters": 8877,
      "hideous": 8878,
      "banker": 8879,
      "submarine": 8880,
      "fooling": 8881,
      "locking": 8882,
      "resumed": 8883,
      "syll": 8884,
      "checking": 8885,
      "witted": 8886,
      "harass": 8887,
      "nervously": 8888,
      "continues": 8889,
      "attacks": 8890,
      "tux": 8891,
      "barbar": 8892,
      "barric": 8893,
      "basically": 8894,
      "frugal": 8895,
      "injuries": 8896,
      "speechless": 8897,
      "copied": 8898,
      "bikes": 8899,
      "angels": 8900,
      "banned": 8901,
      "sliced": 8902,
      "panels": 8903,
      "cancelled": 8904,
      "beats": 8905,
      "gaining": 8906,
      "sharing": 8907,
      "couraging": 8908,
      "weaker": 8909,
      "operating": 8910,
      "freshly": 8911,
      "swing": 8912,
      "explored": 8913,
      "explorer": 8914,
      "slide": 8915,
      "defended": 8916,
      "pushy": 8917,
      "elevators": 8918,
      "furnished": 8919,
      "accountant": 8920,
      "cabinet": 8921,
      "hydr": 8922,
      "kneel": 8923,
      "vicious": 8924,
      "repairs": 8925,
      "heroin": 8926,
      "bait": 8927,
      "produce": 8928,
      "forests": 8929,
      "appearances": 8930,
      "documentaries": 8931,
      "damages": 8932,
      "poisoning": 8933,
      "aneous": 8934,
      "meanings": 8935,
      "kilometer": 8936,
      "fashionable": 8937,
      "exaggeration": 8938,
      "annoys": 8939,
      "criticizes": 8940,
      "detergent": 8941,
      "autistic": 8942,
      "nearer": 8943,
      "hesitation": 8944,
      "breathed": 8945,
      "insect": 8946,
      "volunteering": 8947,
      "consulted": 8948,
      "unfairly": 8949,
      "nationality": 8950,
      "races": 8951,
      "warnings": 8952,
      "stitches": 8953,
      "employ": 8954,
      "spoonful": 8955,
      "wheelchair": 8956,
      "african": 8957,
      "communist": 8958,
      "survival": 8959,
      "dozens": 8960,
      "unemployment": 8961,
      "resemblance": 8962,
      "immort": 8963,
      "sneezed": 8964,
      "honored": 8965,
      "poorer": 8966,
      "professors": 8967,
      "influential": 8968,
      "inventive": 8969,
      "bitterly": 8970,
      "analyze": 8971,
      "conductor": 8972,
      "concealed": 8973,
      "sacrifice": 8974,
      "zipper": 8975,
      "hiccups": 8976,
      "karao": 8977,
      "loyal": 8978,
      "polluted": 8979,
      "prettiest": 8980,
      "blushing": 8981,
      "frying": 8982,
      "pumpkin": 8983,
      "limping": 8984,
      "muscles": 8985,
      "dolphin": 8986,
      "thumbs": 8987,
      "pudding": 8988,
      "depressing": 8989,
      "occasionally": 8990,
      "bankruptcy": 8991,
      "intimidated": 8992,
      "orchard": 8993,
      "evacuated": 8994,
      "teaspo": 8995,
      "improvise": 8996,
      "groceries": 8997,
      "melody": 8998,
      "session": 8999,
      "administration": 9000,
      "bridges": 9001,
      "contrary": 9002,
      "commercial": 9003,
      "overwhelmed": 9004,
      "atlantic": 9005,
      "shrimp": 9006,
      "psychiatrist": 9007,
      "snuck": 9008,
      "rebellion": 9009,
      "admiring": 9010,
      "precedent": 9011,
      "overestim": 9012,
      "plowed": 9013,
      "conflict": 9014,
      "luxurious": 9015,
      "vigilant": 9016,
      "dangers": 9017,
      "domestic": 9018,
      "bewildered": 9019,
      "cocoa": 9020,
      "cholesterol": 9021,
      "licenses": 9022,
      "bouquet": 9023,
      "ostriches": 9024,
      "infuri": 9025,
      "renov": 9026,
      "september": 9027,
      "netherlands": 9028,
      "cocaine": 9029,
      "ambassador": 9030,
      "mischievous": 9031,
      "comparison": 9032,
      "preparations": 9033,
      "caviar": 9034,
      "karaoke": 9035,
      "ae": 9036,
      "apron": 9037,
      "bend": 9038,
      "bam": 9039,
      "cis": 9040,
      "cart": 9041,
      "cort": 9042,
      "cring": 9043,
      "dread": 9044,
      "dwell": 9045,
      "dged": 9046,
      "ec": 9047,
      "eyed": 9048,
      "flun": 9049,
      "fled": 9050,
      "farms": 9051,
      "fisher": 9052,
      "gin": 9053,
      "gans": 9054,
      "gazed": 9055,
      "ige": 9056,
      "kan": 9057,
      "liness": 9058,
      "mam": 9059,
      "mour": 9060,
      "mical": 9061,
      "nause": 9062,
      "nara": 9063,
      "ox": 9064,
      "ost": 9065,
      "omed": 9066,
      "omer": 9067,
      "oids": 9068,
      "pberries": 9069,
      "pause": 9070,
      "rh": 9071,
      "sigh": 9072,
      "tad": 9073,
      "tack": 9074,
      "ucin": 9075,
      "vity": 9076,
      "vowed": 9077,
      "waking": 9078,
      "wages": 9079,
      "wreck": 9080,
      "yol": 9081,
      "zo": 9082,
      "zone": 9083,
      "ouch": 9084,
      "reread": 9085,
      "resent": 9086,
      "recess": 9087,
      "regg": 9088,
      "resolution": 9089,
      "replac": 9090,
      "atter": 9091,
      "aters": 9092,
      "theore": 9093,
      "venice": 9094,
      "meow": 9095,
      "melting": 9096,
      "hectic": 9097,
      "ingred": 9098,
      "asion": 9099,
      "aspha": 9100,
      "associ": 9101,
      "arche": 9102,
      "armen": 9103,
      "doable": 9104,
      "dots": 9105,
      "dozing": 9106,
      "nomen": 9107,
      "letic": 9108,
      "ida": 9109,
      "erup": 9110,
      "erals": 9111,
      "eria": 9112,
      "encoun": 9113,
      "enna": 9114,
      "whining": 9115,
      "beers": 9116,
      "liking": 9117,
      "sexy": 9118,
      "kel": 9119,
      "wicked": 9120,
      "wiggle": 9121,
      "roared": 9122,
      "areas": 9123,
      "lophone": 9124,
      "loop": 9125,
      "location": 9126,
      "escal": 9127,
      "escort": 9128,
      "marched": 9129,
      "marvel": 9130,
      "rib": 9131,
      "rier": 9132,
      "sole": 9133,
      "tili": 9134,
      "tious": 9135,
      "core": 9136,
      "colo": 9137,
      "cozy": 9138,
      "coded": 9139,
      "cooperation": 9140,
      "outsid": 9141,
      "outstanding": 9142,
      "abor": 9143,
      "abated": 9144,
      "acou": 9145,
      "aced": 9146,
      "acid": 9147,
[...]
