{
  "version": "1.0",
  "truncation": null,
  "padding": null,
  "added_tokens": [
    {
      "id": 0,
      "content": "[UNK]",
      "single_word": false,
      "lstrip": false,
      "rstrip": false,
      "normalized": false,
      "special": true
    },
    {
      "id": 1,
      "content": "[CLS]",
      "single_word": false,
      "lstrip": false,
      "rstrip": false,
      "normalized": false,
      "special": true
    },
    {
      "id": 2,
      "content": "[SEP]",
      "single_word": false,
      "lstrip": false,
      "rstrip": false,
      "normalized": false,
      "special": true
    },
    {
      "id": 3,
      "content": "[PAD]",
      "single_word": false,
      "lstrip": false,
      "rstrip": false,
      "normalized": false,
      "special": true
    },
    {
      "id": 4,
      "content": "[MASK]",
      "single_word": false,
      "lstrip": false,
      "rstrip": false,
      "normalized": false,
      "special": true
    }
  ],
  "normalizer": null,
  "pre_tokenizer": {
    "type": "Whitespace"
  },
  "post_processor": null,
  "decoder": null,
  "model": {
    "type": "BPE",
    "dropout": null,
    "unk_token": "[UNK]",
    "continuing_subword_prefix": null,
    "end_of_word_suffix": null,
    "fuse_unk": false,
    "byte_fallback": false,
    "ignore_merges": false,
    "vocab": {
      "[UNK]": 0,
      "[CLS]": 1,
      "[SEP]": 2,
      "[PAD]": 3,
      "[MASK]": 4,
      "a": 5,
      "b": 6,
      "c": 7,
      "d": 8,
      "e": 9,
      "f": 10,
      "g": 11,
      "h": 12,
      "i": 13,
      "j": 14,
      "k": 15,
      "l": 16,
      "m": 17,
      "n": 18,
      "o": 19,
      "p": 20,
      "q": 21,
      "r": 22,
      "s": 23,
      "t": 24,
      "u": 25,
      "v": 26,
      "w": 27,
      "x": 28,
      "y": 29,
      "z": 30,
      "а": 31,
      "б": 32,
      "в": 33,
      "г": 34,
      "д": 35,
      "е": 36,
      "ж": 37,
      "з": 38,
      "и": 39,
      "й": 40,
      "к": 41,
      "л": 42,
      "м": 43,
      "н": 44,
      "о": 45,
      "п": 46,
      "р": 47,
      "с": 48,
      "т": 49,
      "у": 50,
      "ф": 51,
      "х": 52,
      "ц": 53,
      "ч": 54,
      "ш": 55,
      "щ": 56,
      "ъ": 57,
      "ы": 58,
      "ь": 59,
      "э": 60,
      "ю": 61,
      "я": 62,
      "ё": 63,
      "то": 64,
      "не": 65,
      "том": 66,
      "на": 67,
      "по": 68,
      "ть": 69,
      "те": 70,
      "ра": 71,
      "де": 72,
      "ал": 73,
      "ко": 74,
      "ни": 75,
      "но": 76,
      "го": 77,
      "что": 78,
      "ро": 79,
      "ри": 80,
      "ка": 81,
      "ст": 82,
      "во": 83,
      "мо": 84,
      "ва": 85,
      "это": 86,
      "бы": 87,
      "ли": 88,
      "вы": 89,
      "ла": 90,
      "че": 91,
      "ре": 92,
      "да": 93,
      "ся": 94,
      "ты": 95,
      "за": 96,
      "хо": 97,
      "до": 98,
      "ме": 99,
      "ве": 100,
      "ло": 101,
      "же": 102,
      "бо": 103,
      "ль": 104,
      "ма": 105,
      "та": 106,
      "ви": 107,
      "се": 108,
      "ду": 109,
      "про": 110,
      "ти": 111,
      "ня": 112,
      "ди": 113,
      "сь": 114,
      "зна": 115,
      "ле": 116,
      "мне": 117,
      "бе": 118,
      "со": 119,
      "ет": 120,
      "шь": 121,
      "ны": 122,
      "ну": 123,
      "бу": 124,
      "ку": 125,
      "мы": 126,
      "ска": 127,
      "сто": 128,
      "ше": 129,
      "ста": 130,
      "му": 131,
      "чи": 132,
      "нь": 133,
      "при": 134,
      "дела": 135,
      "ки": 136,
      "ру": 137,
      "си": 138,
      "жи": 139,
      "тома": 140,
      "меня": 141,
      "мэ": 142,
      "мэри": 143,
      "он": 144,
      "пе": 145,
      "от": 146,
      "ча": 147,
      "лю": 148,
      "гда": 149,
      "пи": 150,
      "ми": 151,
      "ши": 152,
      "зал": 153,
      "мог": 154,
      "лу": 155,
      "тому": 156,
      "гово": 157,
      "тся": 158,
      "как": 159,
      "об": 160,
      "ес": 161,
      "делать": 162,
      "дел": 163,
      "сказал": 164,
      "дума": 165,
      "бя": 166,
      "когда": 167,
      "из": 168,
      "говори": 169,
      "тебе": 170,
      "може": 171,
      "ться": 172,
      "все": 173,
      "ту": 174,
      "па": 175,
      "жно": 176,
      "би": 177,
      "чу": 178,
      "раз": 179,
      "ля": 180,
      "был": 181,
      "ско": 182,
      "его": 183,
      "оче": 184,
      "лько": 185,
      "мно": 186,
      "чтобы": 187,
      "сво": 188,
      "вам": 189,
      "кто": 190,
      "вер": 191,
      "дь": 192,
      "очень": 193,
      "са": 194,
      "тебя": 195,
      "пра": 196,
      "вал": 197,
      "дол": 198,
      "ры": 199,
      "так": 200,
      "ешь": 201,
      "боль": 202,
      "вс": 203,
      "сти": 204,
      "мал": 205,
      "знаю": 206,
      "ком": 207,
      "буде": 208,
      "жал": 209,
      "вас": 210,
      "есть": 211,
      "было": 212,
      "думаю": 213,
      "га": 214,
      "она": 215,
      "ние": 216,
      "делал": 217,
      "чему": 218,
      "ря": 219,
      "хоче": 220,
      "пре": 221,
      "почему": 222,
      "ещ": 223,
      "лся": 224,
      "рабо": 225,
      "хоте": 226,
      "всё": 227,
      "хочу": 228,
      "сделать": 229,
      "ете": 230,
      "ещё": 231,
      "вст": 232,
      "нц": 233,
      "ша": 234,
      "ходи": 235,
      "зде": 236,
      "рас": 237,
      "ёт": 238,
      "дал": 239,
      "могу": 240,
      "ный": 241,
      "нам": 242,
      "ом": 243,
      "дру": 244,
      "гра": 245,
      "много": 246,
      "будь": 247,
      "здесь": 248,
      "ба": 249,
      "пла": 250,
      "чего": 251,
      "вать": 252,
      "три": 253,
      "тель": 254,
      "сле": 255,
      "сделал": 256,
      "йте": 257,
      "они": 258,
      "ем": 259,
      "знал": 260,
      "вре": 261,
      "пере": 262,
      "сколько": 263,
      "ей": 264,
      "ги": 265,
      "босто": 266,
      "этого": 267,
      "надо": 268,
      "ёл": 269,
      "тво": 270,
      "дня": 271,
      "ать": 272,
      "нра": 273,
      "уй": 274,
      "ски": 275,
      "томом": 276,
      "дно": 277,
      "уже": 278,
      "хотел": 279,
      "лы": 280,
      "хоро": 281,
      "будет": 282,
      "мой": 283,
      "нет": 284,
      "поз": 285,
      "ву": 286,
      "нужно": 287,
      "нас": 288,
      "больше": 289,
      "слу": 290,
      "чь": 291,
      "никогда": 292,
      "оста": 293,
      "думал": 294,
      "пу": 295,
      "юсь": 296,
      "нрави": 297,
      "щи": 298,
      "ех": 299,
      "нибудь": 300,
      "кой": 301,
      "жен": 302,
      "мя": 303,
      "помо": 304,
      "чем": 305,
      "может": 306,
      "этом": 307,
      "ды": 308,
      "пожал": 309,
      "час": 310,
      "где": 311,
      "если": 312,
      "ния": 313,
      "ке": 314,
      "сего": 315,
      "сегодня": 316,
      "ему": 317,
      "проси": 318,
      "чно": 319,
      "ём": 320,
      "йти": 321,
      "день": 322,
      "нно": 323,
      "тра": 324,
      "це": 325,
      "пожалуй": 326,
      "ется": 327,
      "жа": 328,
      "прав": 329,
      "нима": 330,
      "шёл": 331,
      "быть": 332,
      "нцу": 333,
      "су": 334,
      "пожалуйста": 335,
      "фра": 336,
      "спо": 337,
      "сно": 338,
      "францу": 339,
      "француз": 340,
      "игра": 341,
      "зо": 342,
      "говорить": 343,
      "люби": 344,
      "шо": 345,
      "хочет": 346,
      "купи": 347,
      "стал": 348,
      "жу": 349,
      "смо": 350,
      "под": 351,
      "воз": 352,
      "зать": 353,
      "нравится": 354,
      "её": 355,
      "эти": 356,
      "тал": 357,
      "луч": 358,
      "зы": 359,
      "мени": 360,
      "лось": 361,
      "можно": 362,
      "сей": 363,
      "бра": 364,
      "ще": 365,
      "была": 366,
      "дин": 367,
      "для": 368,
      "ничего": 369,
      "сте": 370,
      "гу": 371,
      "работа": 372,
      "ин": 373,
      "гла": 374,
      "тре": 375,
      "знает": 376,
      "сейчас": 377,
      "бой": 378,
      "маши": 379,
      "тельно": 380,
      "французски": 381,
      "зав": 382,
      "наде": 383,
      "пер": 384,
      "ез": 385,
      "кни": 386,
      "стра": 387,
      "ром": 388,
      "этот": 389,
      "просто": 390,
      "дава": 391,
      "кры": 392,
      "сть": 393,
      "сло": 394,
      "ци": 395,
      "учи": 396,
      "кого": 397,
      "сказать": 398,
      "видел": 399,
      "ные": 400,
      "время": 401,
      "теле": 402,
      "дать": 403,
      "ная": 404,
      "завтра": 405,
      "хочешь": 406,
      "кото": 407,
      "пы": 408,
      "хоти": 409,
      "уме": 410,
      "уве": 411,
      "только": 412,
      "сли": 413,
      "кра": 414,
      "обе": 415,
      "сы": 416,
      "кое": 417,
      "виде": 418,
      "лучше": 419,
      "ца": 420,
      "пока": 421,
      "шком": 422,
      "куда": 423,
      "дей": 424,
      "чал": 425,
      "ют": 426,
      "можешь": 427,
      "слы": 428,
      "были": 429,
      "ис": 430,
      "увере": 431,
      "помочь": 432,
      "ят": 433,
      "сту": 434,
      "их": 435,
      "должен": 436,
      "буду": 437,
      "шло": 438,
      "шу": 439,
      "позво": 440,
      "кон": 441,
      "дома": 442,
      "дёт": 443,
      "дите": 444,
      "скажи": 445,
      "никто": 446,
      "стро": 447,
      "сдела": 448,
      "пред": 449,
      "бле": 450,
      "рали": 451,
      "хорошо": 452,
      "дож": 453,
      "спа": 454,
      "чера": 455,
      "бостоне": 456,
      "стве": 457,
      "ным": 458,
      "бира": 459,
      "слишком": 460,
      "пал": 461,
      "бостон": 462,
      "гото": 463,
      "им": 464,
      "себя": 465,
      "отве": 466,
      "дом": 467,
      "всегда": 468,
      "ехать": 469,
      "дё": 470,
      "после": 471,
      "прави": 472,
      "вчера": 473,
      "авст": 474,
      "австрали": 475,
      "пой": 476,
      "хотите": 477,
      "фо": 478,
      "ща": 479,
      "там": 480,
      "неде": 481,
      "помог": 482,
      "шал": 483,
      "говорит": 484,
      "можете": 485,
      "эту": 486,
      "стви": 487,
      "вз": 488,
      "жны": 489,
      "лись": 490,
      "говорил": 491,
      "ехал": 492,
      "чита": 493,
      "заня": 494,
      "ник": 495,
      "фи": 496,
      "ство": 497,
      "име": 498,
      "клю": 499,
      "один": 500,
      "ньше": 501,
      "лет": 502,
      "вопро": 503,
      "тобой": 504,
      "вери": 505,
      "случи": 506,
      "просил": 507,
      "мной": 508,
      "тере": 509,
      "ню": 510,
      "следу": 511,
      "вно": 512,
      "произ": 513,
      "гля": 514,
      "льно": 515,
      "собира": 516,
      "голо": 517,
      "комна": 518,
      "блю": 519,
      "вече": 520,
      "встре": 521,
      "пробле": 522,
      "доро": 523,
      "поло": 524,
      "интере": 525,
      "времени": 526,
      "ять": 527,
      "без": 528,
      "само": 529,
      "стои": 530,
      "нить": 531,
      "вра": 532,
      "пол": 533,
      "вый": 534,
      "нег": 535,
      "дить": 536,
      "шко": 537,
      "сме": 538,
      "ён": 539,
      "надеюсь": 540,
      "знать": 541,
      "туда": 542,
      "года": 543,
      "ья": 544,
      "кая": 545,
      "пойти": 546,
      "ид": 547,
      "вами": 548,
      "уверен": 549,
      "тер": 550,
      "дит": 551,
      "знаешь": 552,
      "верну": 553,
      "него": 554,
      "реши": 555,
      "соба": 556,
      "раньше": 557,
      "домой": 558,
      "эта": 559,
      "вает": 560,
      "кро": 561,
      "поговорить": 562,
      "дер": 563,
      "моя": 564,
      "лась": 565,
      "вари": 566,
      "немного": 567,
      "вали": 568,
      "этим": 569,
      "одно": 570,
      "чело": 571,
      "действи": 572,
      "вто": 573,
      "сю": 574,
      "или": 575,
      "над": 576,
      "поч": 577,
      "ут": 578,
      "слышал": 579,
      "пло": 580,
      "полу": 581,
      "чувст": 582,
      "идти": 583,
      "работу": 584,
      "смотре": 585,
      "челове": 586,
      "тил": 587,
      "произо": 588,
      "жде": 589,
      "действительно": 590,
      "спе": 591,
      "тру": 592,
      "тя": 593,
      "начал": 594,
      "нии": 595,
      "жив": 596,
      "понима": 597,
      "од": 598,
      "каж": 599,
      "часто": 600,
      "бро": 601,
      "похо": 602,
      "сюда": 603,
      "кому": 604,
      "правда": 605,
      "люблю": 606,
      "пом": 607,
      "вь": 608,
      "свою": 609,
      "част": 610,
      "которы": 611,
      "оши": 612,
      "рь": 613,
      "жил": 614,
      "купил": 615,
      "ствен": 616,
      "жиз": 617,
      "ное": 618,
      "шли": 619,
      "можем": 620,
      "должны": 621,
      "денег": 622,
      "знаете": 623,
      "думаешь": 624,
      "ок": 625,
      "ходить": 626,
      "месте": 627,
      "фе": 628,
      "ней": 629,
      "кие": 630,
      "тоже": 631,
      "машину": 632,
      "поня": 633,
      "жна": 634,
      "два": 635,
      "нее": 636,
      "верь": 637,
      "рт": 638,
      "точно": 639,
      "вот": 640,
      "давай": 641,
      "счаст": 642,
      "моло": 643,
      "всем": 644,
      "какой": 645,
      "вя": 646,
      "зи": 647,
      "ходит": 648,
      "вить": 649,
      "откры": 650,
      "ваше": 651,
      "любит": 652,
      "возможно": 653,
      "зу": 654,
      "себе": 655,
      "ший": 656,
      "нул": 657,
      "кар": 658,
      "ний": 659,
      "смотри": 660,
      "выгля": 661,
      "стоя": 662,
      "ску": 663,
      "этой": 664,
      "нил": 665,
      "давайте": 666,
      "согла": 667,
      "спи": 668,
      "видеть": 669,
      "друз": 670,
      "вил": 671,
      "пря": 672,
      "такой": 673,
      "свой": 674,
      "шка": 675,
      "пар": 676,
      "ан": 677,
      "австралии": 678,
      "ной": 679,
      "кончи": 680,
      "беспо": 681,
      "чём": 682,
      "вой": 683,
      "вле": 684,
      "мен": 685,
      "оте": 686,
      "кал": 687,
      "тить": 688,
      "доста": 689,
      "стоит": 690,
      "яс": 691,
      "деньги": 692,
      "дверь": 693,
      "краси": 694,
      "того": 695,
      "еде": 696,
      "свои": 697,
      "бли": 698,
      "друг": 699,
      "несколько": 700,
      "пода": 701,
      "счастли": 702,
      "зво": 703,
      "жить": 704,
      "французский": 705,
      "ваться": 706,
      "теря": 707,
      "почти": 708,
      "вет": 709,
      "играть": 710,
      "зачем": 711,
      "купить": 712,
      "ним": 713,
      "человек": 714,
      "поли": 715,
      "подо": 716,
      "обы": 717,
      "напи": 718,
      "гру": 719,
      "сов": 720,
      "цу": 721,
      "думаете": 722,
      "ную": 723,
      "рю": 724,
      "книгу": 725,
      "пор": 726,
      "цать": 727,
      "нами": 728,
      "шая": 729,
      "говари": 730,
      "боле": 731,
      "следую": 732,
      "друго": 733,
      "случилось": 734,
      "твой": 735,
      "прошло": 736,
      "перь": 737,
      "иде": 738,
      "теперь": 739,
      "своей": 740,
      "дя": 741,
      "смог": 742,
      "подож": 743,
      "интересно": 744,
      "шла": 745,
      "дово": 746,
      "авто": 747,
      "един": 748,
      "сем": 749,
      "вечером": 750,
      "кре": 751,
      "сал": 752,
      "обще": 753,
      "послед": 754,
      "каже": 755,
      "пись": 756,
      "нце": 757,
      "всего": 758,
      "скажите": 759,
      "получи": 760,
      "кла": 761,
      "даже": 762,
      "хва": 763,
      "разговари": 764,
      "знали": 765,
      "ных": 766,
      "нена": 767,
      "вля": 768,
      "мои": 769,
      "нё": 770,
      "уби": 771,
      "муж": 772,
      "обра": 773,
      "пь": 774,
      "прости": 775,
      "ваю": 776,
      "занима": 777,
      "кажется": 778,
      "поехать": 779,
      "вопрос": 780,
      "кажды": 781,
      "этому": 782,
      "сторо": 783,
      "ге": 784,
      "ось": 785,
      "рад": 786,
      "помощ": 787,
      "объ": 788,
      "ключи": 789,
      "тут": 790,
      "пытал": 791,
      "побе": 792,
      "ошиб": 793,
      "вую": 794,
      "автобу": 795,
      "сделали": 796,
      "работает": 797,
      "ден": 798,
      "чать": 799,
      "остано": 800,
      "мер": 801,
      "закончи": 802,
      "тро": 803,
      "ков": 804,
      "съ": 805,
      "произошло": 806,
      "горо": 807,
      "ните": 808,
      "рез": 809,
      "обычно": 810,
      "уди": 811,
      "жена": 812,
      "дил": 813,
      "нут": 814,
      "фото": 815,
      "жду": 816,
      "похоже": 817,
      "ха": 818,
      "вести": 819,
      "сказали": 820,
      "беспоко": 821,
      "заме": 822,
      "крас": 823,
      "плани": 824,
      "опоз": 825,
      "стре": 826,
      "ведь": 827,
      "каждый": 828,
      "единствен": 829,
      "убе": 830,
      "потеря": 831,
      "отец": 832,
      "помощь": 833,
      "казал": 834,
      "дай": 835,
      "попро": 836,
      "спать": 837,
      "маль": 838,
      "вместе": 839,
      "ел": 840,
      "жать": 841,
      "найти": 842,
      "скоро": 843,
      "вижу": 844,
      "пришёл": 845,
      "слуша": 846,
      "вая": 847,
      "нужна": 848,
      "могли": 849,
      "кофе": 850,
      "ваш": 851,
      "гал": 852,
      "научи": 853,
      "ночь": 854,
      "холо": 855,
      "остал": 856,
      "реше": 857,
      "плохо": 858,
      "вино": 859,
      "поез": 860,
      "пусти": 861,
      "моему": 862,
      "ждать": 863,
      "умер": 864,
      "расска": 865,
      "живёт": 866,
      "твоя": 867,
      "родите": 868,
      "спаси": 869,
      "жизнь": 870,
      "попросил": 871,
      "рить": 872,
      "вала": 873,
      "комнате": 874,
      "ров": 875,
      "одна": 876,
      "будем": 877,
      "спасибо": 878,
      "долго": 879,
      "пыта": 880,
      "язы": 881,
      "ход": 882,
      "знако": 883,
      "зад": 884,
      "дере": 885,
      "объяс": 886,
      "ника": 887,
      "дали": 888,
      "попроси": 889,
      "недель": 890,
      "чина": 891,
      "ятно": 892,
      "глу": 893,
      "стара": 894,
      "австралию": 895,
      "ном": 896,
      "ман": 897,
      "тесь": 898,
      "ряд": 899,
      "решил": 900,
      "достаточно": 901,
      "делает": 902,
      "мся": 903,
      "всех": 904,
      "сла": 905,
      "совер": 906,
      "рожде": 907,
      "реб": 908,
      "кий": 909,
      "перед": 910,
      "чай": 911,
      "забыл": 912,
      "навер": 913,
      "рано": 914,
      "планиру": 915,
      "году": 916,
      "семь": 917,
      "довер": 918,
      "работать": 919,
      "обо": 920,
      "сил": 921,
      "деву": 922,
      "опа": 923,
      "устал": 924,
      "цы": 925,
      "готов": 926,
      "предло": 927,
      "друзья": 928,
      "будешь": 929,
      "школу": 930,
      "правду": 931,
      "снова": 932,
      "шку": 933,
      "никому": 934,
      "дём": 935,
      "пошёл": 936,
      "шься": 937,
      "дождь": 938,
      "рок": 939,
      "щал": 940,
      "моей": 941,
      "пить": 942,
      "дете": 943,
      "ешься": 944,
      "тот": 945,
      "оба": 946,
      "графи": 947,
      "ция": 948,
      "люди": 949,
      "пытался": 950,
      "смотреть": 951,
      "через": 952,
      "занят": 953,
      "ужи": 954,
      "понедель": 955,
      "трудно": 956,
      "сер": 957,
      "быстро": 958,
      "коро": 959,
      "повери": 960,
      "изви": 961,
      "нок": 962,
      "телеви": 963,
      "какие": 964,
      "ожи": 965,
      "придё": 966,
      "ен": 967,
      "ван": 968,
      "жение": 969,
      "откуда": 970,
      "оде": 971,
      "телевизо": 972,
      "хи": 973,
      "приня": 974,
      "остаться": 975,
      "спроси": 976,
      "ули": 977,
      "той": 978,
      "счита": 979,
      "пять": 980,
      "трид": 981,
      "ново": 982,
      "ким": 983,
      "йтесь": 984,
      "нашёл": 985,
      "вай": 986,
      "выигра": 987,
      "проис": 988,
      "проблема": 989,
      "мый": 990,
      "назад": 991,
      "говорили": 992,
      "сол": 993,
      "запла": 994,
      "собой": 995,
      "которые": 996,
      "разве": 997,
      "шел": 998,
      "весь": 999,
      "бога": 1000,
      "дво": 1001,
      "ёр": 1002,
      "совсем": 1003,
      "гли": 1004,
      "тно": 1005,
      "понимаю": 1006,
      "ются": 1007,
      "ваши": 1008,
      "нуть": 1009,
      "сове": 1010,
      "телеф": 1011,
      "детей": 1012,
      "льз": 1013,
      "какая": 1014,
      "поезд": 1015,
      "вут": 1016,
      "письмо": 1017,
      "заста": 1018,
      "следует": 1019,
      "хороший": 1020,
      "вым": 1021,
      "место": 1022,
      "мед": 1023,
      "фотографи": 1024,
      "цве": 1025,
      "них": 1026,
      "знаем": 1027,
      "бла": 1028,
      "ись": 1029,
      "тем": 1030,
      "друга": 1031,
      "дайте": 1032,
      "роди": 1033,
      "сам": 1034,
      "спросил": 1035,
      "носи": 1036,
      "закры": 1037,
      "деся": 1038,
      "большо": 1039,
      "тит": 1040,
      "беспокои": 1041,
      "столько": 1042,
      "говоря": 1043,
      "вело": 1044,
      "должно": 1045,
      "лё": 1046,
      "минут": 1047,
      "ум": 1048,
      "утром": 1049,
      "тив": 1050,
      "лег": 1051,
      "успе": 1052,
      "вообще": 1053,
      "умеет": 1054,
      "ск": 1055,
      "сты": 1056,
      "видели": 1057,
      "стар": 1058,
      "пригла": 1059,
      "меся": 1060,
      "дли": 1061,
      "еду": 1062,
      "ский": 1063,
      "ходил": 1064,
      "дети": 1065,
      "женщи": 1066,
      "кем": 1067,
      "давно": 1068,
      "никого": 1069,
      "щий": 1070,
      "филь": 1071,
      "прийти": 1072,
      "бол": 1073,
      "взя": 1074,
      "дж": 1075,
      "собака": 1076,
      "зада": 1077,
      "мальчи": 1078,
      "слова": 1079,
      "спал": 1080,
      "нию": 1081,
      "япо": 1082,
      "чувство": 1083,
      "зре": 1084,
      "бло": 1085,
      "най": 1086,
      "ваша": 1087,
      "рассказал": 1088,
      "обеща": 1089,
      "коне": 1090,
      "правильно": 1091,
      "ищ": 1092,
      "оно": 1093,
      "поку": 1094,
      "читал": 1095,
      "внима": 1096,
      "увидеть": 1097,
      "спра": 1098,
      "измени": 1099,
      "нужен": 1100,
      "шки": 1101,
      "рин": 1102,
      "рую": 1103,
      "сипе": 1104,
      "держи": 1105,
      "англи": 1106,
      "велосипе": 1107,
      "будете": 1108,
      "етесь": 1109,
      "чёт": 1110,
      "ких": 1111,
      "французско": 1112,
      "рё": 1113,
      "уро": 1114,
      "понрави": 1115,
      "такая": 1116,
      "дишь": 1117,
      "какое": 1118,
      "думает": 1119,
      "рил": 1120,
      "кую": 1121,
      "сни": 1122,
      "яза": 1123,
      "нный": 1124,
      "гор": 1125,
      "говорите": 1126,
      "своего": 1127,
      "вые": 1128,
      "сен": 1129,
      "придёт": 1130,
      "сделаю": 1131,
      "наше": 1132,
      "уйти": 1133,
      "ушёл": 1134,
      "аль": 1135,
      "наверное": 1136,
      "приш": 1137,
      "обяза": 1138,
      "нельз": 1139,
      "мою": 1140,
      "книга": 1141,
      "нельзя": 1142,
      "деле": 1143,
      "пил": 1144,
      "следующ": 1145,
      "зе": 1146,
      "пле": 1147,
      "важно": 1148,
      "разо": 1149,
      "вку": 1150,
      "терпе": 1151,
      "ждал": 1152,
      "хотела": 1153,
      "машина": 1154,
      "ху": 1155,
      "такое": 1156,
      "говорю": 1157,
      "неделе": 1158,
      "ответ": 1159,
      "вался": 1160,
      "идея": 1161,
      "ресто": 1162,
      "моё": 1163,
      "происходит": 1164,
      "англий": 1165,
      "людей": 1166,
      "мать": 1167,
      "приехал": 1168,
      "пора": 1169,
      "шать": 1170,
      "вро": 1171,
      "исто": 1172,
      "жени": 1173,
      "писа": 1174,
      "стно": 1175,
      "согласи": 1176,
      "влю": 1177,
      "имя": 1178,
      "моего": 1179,
      "стать": 1180,
      "единственный": 1181,
      "высо": 1182,
      "жда": 1183,
      "ёз": 1184,
      "работал": 1185,
      "читать": 1186,
      "ино": 1187,
      "продол": 1188,
      "пью": 1189,
      "пришлось": 1190,
      "хра": 1191,
      "нару": 1192,
      "изу": 1193,
      "всю": 1194,
      "помощи": 1195,
      "понедельник": 1196,
      "поехал": 1197,
      "йся": 1198,
      "решение": 1199,
      "последний": 1200,
      "своих": 1201,
      "фа": 1202,
      "телевизор": 1203,
      "сделает": 1204,
      "тридцать": 1205,
      "почи": 1206,
      "тов": 1207,
      "легко": 1208,
      "рти": 1209,
      "музы": 1210,
      "ась": 1211,
      "рассказы": 1212,
      "ключ": 1213,
      "гие": 1214,
      "собираюсь": 1215,
      "уда": 1216,
      "иг": 1217,
      "чка": 1218,
      "посмотри": 1219,
      "смогу": 1220,
      "вос": 1221,
      "неё": 1222,
      "книги": 1223,
      "вёл": 1224,
      "своё": 1225,
      "чки": 1226,
      "довольно": 1227,
      "вается": 1228,
      "дой": 1229,
      "долла": 1230,
      "твои": 1231,
      "ства": 1232,
      "одол": 1233,
      "деть": 1234,
      "веро": 1235,
      "треть": 1236,
      "написал": 1237,
      "жаль": 1238,
      "брат": 1239,
      "осторо": 1240,
      "которо": 1241,
      "заниматься": 1242,
      "свя": 1243,
      "часа": 1244,
      "родители": 1245,
      "тен": 1246,
      "оби": 1247,
      "зовут": 1248,
      "знают": 1249,
      "мага": 1250,
      "пойду": 1251,
      "сказала": 1252,
      "ялся": 1253,
      "соб": 1254,
      "сих": 1255,
      "жизни": 1256,
      "потерял": 1257,
      "льзо": 1258,
      "вол": 1259,
      "лен": 1260,
      "зон": 1261,
      "ужа": 1262,
      "ёте": 1263,
      "чку": 1264,
      "нием": 1265,
      "благода": 1266,
      "шля": 1267,
      "привы": 1268,
      "новый": 1269,
      "вели": 1270,
      "полови": 1271,
      "помню": 1272,
      "едет": 1273,
      "истори": 1274,
      "здоро": 1275,
      "хотели": 1276,
      "обещал": 1277,
      "испо": 1278,
      "ёшь": 1279,
      "придётся": 1280,
      "прине": 1281,
      "кру": 1282,
      "нём": 1283,
      "ред": 1284,
      "ран": 1285,
      "ницу": 1286,
      "начина": 1287,
      "вечерин": 1288,
      "который": 1289,
      "тия": 1290,
      "смотрел": 1291,
      "лага": 1292,
      "следо": 1293,
      "бои": 1294,
      "стол": 1295,
      "хотим": 1296,
      "плавать": 1297,
      "вернулся": 1298,
      "говорят": 1299,
      "свобо": 1300,
      "брать": 1301,
      "разу": 1302,
      "кан": 1303,
      "нит": 1304,
      "возь": 1305,
      "останови": 1306,
      "понадо": 1307,
      "воды": 1308,
      "боти": 1309,
      "емся": 1310,
      "находи": 1311,
      "цело": 1312,
      "комнату": 1313,
      "скаже": 1314,
      "рко": 1315,
      "боюсь": 1316,
      "отли": 1317,
      "шим": 1318,
      "прово": 1319,
      "фор": 1320,
      "школе": 1321,
      "хороше": 1322,
      "нное": 1323,
      "вероятно": 1324,
      "сама": 1325,
      "автобус": 1326,
      "прошлой": 1327,
      "цию": 1328,
      "понял": 1329,
      "пове": 1330,
      "хорошая": 1331,
      "ябло": 1332,
      "сви": 1333,
      "глаза": 1334,
      "прямо": 1335,
      "работы": 1336,
      "телефон": 1337,
      "шно": 1338,
      "подумал": 1339,
      "против": 1340,
      "паль": 1341,
      "оди": 1342,
      "эк": 1343,
      "езжа": 1344,
      "бостона": 1345,
      "дёшь": 1346,
      "клас": 1347,
      "гораз": 1348,
      "ках": 1349,
      "будьте": 1350,
      "руки": 1351,
      "чат": 1352,
      "фильм": 1353,
      "две": 1354,
      "сня": 1355,
      "знакоми": 1356,
      "лён": 1357,
      "бор": 1358,
      "ночью": 1359,
      "подозре": 1360,
      "нулся": 1361,
      "учитель": 1362,
      "помогать": 1363,
      "пти": 1364,
      "выглядит": 1365,
      "дра": 1366,
      "нер": 1367,
      "вид": 1368,
      "позволи": 1369,
      "друзей": 1370,
      "томе": 1371,
      "выход": 1372,
      "предста": 1373,
      "уехал": 1374,
      "поста": 1375,
      "ции": 1376,
      "све": 1377,
      "безо": 1378,
      "проблемы": 1379,
      "гораздо": 1380,
      "вернё": 1381,
      "вайте": 1382,
      "случится": 1383,
      "большой": 1384,
      "поряд": 1385,
      "именно": 1386,
      "коло": 1387,
      "чит": 1388,
      "доб": 1389,
      "идёт": 1390,
      "дело": 1391,
      "взять": 1392,
      "вятся": 1393,
      "познакоми": 1394,
      "своим": 1395,
      "понадоби": 1396,
      "тят": 1397,
      "встреча": 1398,
      "соверше": 1399,
      "рождения": 1400,
      "дет": 1401,
      "самом": 1402,
      "броси": 1403,
      "старше": 1404,
      "третьего": 1405,
      "льный": 1406,
      "ленно": 1407,
      "собра": 1408,
      "долларов": 1409,
      "свет": 1410,
      "улы": 1411,
      "укра": 1412,
      "поверить": 1413,
      "серь": 1414,
      "положи": 1415,
      "любишь": 1416,
      "встрети": 1417,
      "неделю": 1418,
      "хожу": 1419,
      "порядке": 1420,
      "тех": 1421,
      "нужны": 1422,
      "сомне": 1423,
      "отсюда": 1424,
      "шие": 1425,
      "жале": 1426,
      "тор": 1427,
      "показал": 1428,
      "спраши": 1429,
      "сестра": 1430,
      "конце": 1431,
      "часов": 1432,
      "оставил": 1433,
      "простите": 1434,
      "безопа": 1435,
      "цей": 1436,
      "чуть": 1437,
      "тол": 1438,
      "играет": 1439,
      "окно": 1440,
      "думать": 1441,
      "зай": 1442,
      "такого": 1443,
      "взял": 1444,
      "принима": 1445,
      "возвра": 1446,
      "ёнок": 1447,
      "нци": 1448,
      "вни": 1449,
      "понравится": 1450,
      "наш": 1451,
      "вина": 1452,
      "любо": 1453,
      "уверена": 1454,
      "тяб": 1455,
      "пуга": 1456,
      "короб": 1457,
      "мале": 1458,
      "получил": 1459,
      "готови": 1460,
      "ребёнок": 1461,
      "малень": 1462,
      "ными": 1463,
      "поздно": 1464,
      "опозда": 1465,
      "кор": 1466,
      "нице": 1467,
      "коман": 1468,
      "даль": 1469,
      "студен": 1470,
      "кри": 1471,
      "сделала": 1472,
      "октяб": 1473,
      "вста": 1474,
      "мере": 1475,
      "подождать": 1476,
      "извини": 1477,
      "зли": 1478,
      "твоё": 1479,
      "доверя": 1480,
      "посту": 1481,
      "вало": 1482,
      "шан": 1483,
      "ожидал": 1484,
      "вроде": 1485,
      "покупа": 1486,
      "знала": 1487,
      "согласен": 1488,
      "дный": 1489,
      "гости": 1490,
      "таким": 1491,
      "скажу": 1492,
      "ница": 1493,
      "ката": 1494,
      "холодно": 1495,
      "имеет": 1496,
      "разговаривать": 1497,
      "дре": 1498,
      "медленно": 1499,
      "стью": 1500,
      "врач": 1501,
      "одного": 1502,
      "йдёт": 1503,
      "потому": 1504,
      "скоре": 1505,
      "план": 1506,
      "еди": 1507,
      "дале": 1508,
      "посмотреть": 1509,
      "попробу": 1510,
      "прода": 1511,
      "мама": 1512,
      "уста": 1513,
      "компью": 1514,
      "дней": 1515,
      "воло": 1516,
      "мате": 1517,
      "такие": 1518,
      "твоей": 1519,
      "преду": 1520,
      "нравятся": 1521,
      "чувствую": 1522,
      "вопросы": 1523,
      "ужин": 1524,
      "иди": 1525,
      "ного": 1526,
      "ками": 1527,
      "ству": 1528,
      "лый": 1529,
      "сильно": 1530,
      "уво": 1531,
      "тай": 1532,
      "хотелось": 1533,
      "цен": 1534,
      "уви": 1535,
      "говоришь": 1536,
      "удиви": 1537,
      "часть": 1538,
      "возра": 1539,
      "подарок": 1540,
      "безопасно": 1541,
      "ток": 1542,
      "вают": 1543,
      "дёте": 1544,
      "защи": 1545,
      "дили": 1546,
      "кроме": 1547,
      "счастлив": 1548,
      "вещи": 1549,
      "делаешь": 1550,
      "рассказать": 1551,
      "собаку": 1552,
      "щу": 1553,
      "настоя": 1554,
      "доме": 1555,
      "самое": 1556,
      "сможет": 1557,
      "шую": 1558,
      "предложение": 1559,
      "мари": 1560,
      "изве": 1561,
      "совершенно": 1562,
      "приходи": 1563,
      "рый": 1564,
      "тенни": 1565,
      "которую": 1566,
      "тогда": 1567,
      "язык": 1568,
      "прекрас": 1569,
      "надцать": 1570,
      "зем": 1571,
      "пья": 1572,
      "машине": 1573,
      "улице": 1574,
      "дели": 1575,
      "сосе": 1576,
      "делаю": 1577,
      "предупре": 1578,
      "цо": 1579,
      "знаком": 1580,
      "руба": 1581,
      "равно": 1582,
      "дви": 1583,
      "ровать": 1584,
      "пример": 1585,
      "отправи": 1586,
      "поесть": 1587,
      "либо": 1588,
      "лишь": 1589,
      "нёс": 1590,
      "конец": 1591,
      "нили": 1592,
      "номер": 1593,
      "проч": 1594,
      "обязательно": 1595,
      "путе": 1596,
      "щее": 1597,
      "понять": 1598,
      "бал": 1599,
      "наши": 1600,
      "други": 1601,
      "казался": 1602,
      "девушка": 1603,
      "должна": 1604,
      "бан": 1605,
      "обсу": 1606,
      "думала": 1607,
      "узнал": 1608,
      "иногда": 1609,
      "осо": 1610,
      "опять": 1611,
      "часы": 1612,
      "сум": 1613,
      "смот": 1614,
      "мало": 1615,
      "вернуться": 1616,
      "вышел": 1617,
      "лез": 1618,
      "тю": 1619,
      "рядом": 1620,
      "вопросов": 1621,
      "путеше": 1622,
      "ав": 1623,
      "сок": 1624,
      "причи": 1625,
      "отца": 1626,
      "ребён": 1627,
      "ездить": 1628,
      "велосипед": 1629,
      "жды": 1630,
      "виду": 1631,
      "серьёз": 1632,
      "чный": 1633,
      "город": 1634,
      "фут": 1635,
      "другу": 1636,
      "плю": 1637,
      "какую": 1638,
      "писать": 1639,
      "стри": 1640,
      "чает": 1641,
      "другой": 1642,
      "другом": 1643,
      "теннис": 1644,
      "вне": 1645,
      "работе": 1646,
      "начала": 1647,
      "переста": 1648,
      "нем": 1649,
      "ради": 1650,
      "дох": 1651,
      "боли": 1652,
      "запи": 1653,
      "опоздал": 1654,
      "одной": 1655,
      "полно": 1656,
      "рк": 1657,
      "более": 1658,
      "ненави": 1659,
      "возвраща": 1660,
      "попробо": 1661,
      "чет": 1662,
      "самый": 1663,
      "будут": 1664,
      "рёх": 1665,
      "проще": 1666,
      "нной": 1667,
      "любите": 1668,
      "одну": 1669,
      "ненавижу": 1670,
      "зда": 1671,
      "потом": 1672,
      "каза": 1673,
      "моим": 1674,
      "могут": 1675,
      "заметил": 1676,
      "десять": 1677,
      "позвонить": 1678,
      "ошибку": 1679,
      "далеко": 1680,
      "петь": 1681,
      "доверять": 1682,
      "опасно": 1683,
      "дорого": 1684,
      "решить": 1685,
      "находится": 1686,
      "тили": 1687,
      "интерес": 1688,
      "яться": 1689,
      "вое": 1690,
      "разби": 1691,
      "машины": 1692,
      "пойдём": 1693,
      "дальше": 1694,
      "постара": 1695,
      "жит": 1696,
      "наша": 1697,
      "вовремя": 1698,
      "ноше": 1699,
      "бума": 1700,
      "ящи": 1701,
      "лад": 1702,
      "руку": 1703,
      "хватит": 1704,
      "ак": 1705,
      "столе": 1706,
      "нему": 1707,
      "плать": 1708,
      "попросить": 1709,
      "нали": 1710,
      "поможет": 1711,
      "род": 1712,
      "телем": 1713,
      "позвонил": 1714,
      "выключи": 1715,
      "тик": 1716,
      "родителя": 1717,
      "одино": 1718,
      "собирается": 1719,
      "ники": 1720,
      "ваешь": 1721,
      "полиция": 1722,
      "льзу": 1723,
      "уверены": 1724,
      "произойдёт": 1725,
      "раза": 1726,
      "водить": 1727,
      "хотят": 1728,
      "стран": 1729,
      "мальчик": 1730,
      "нови": 1731,
      "тыся": 1732,
      "замуж": 1733,
      "нять": 1734,
      "поцело": 1735,
      "тает": 1736,
      "двад": 1737,
      "около": 1738,
      "поэтому": 1739,
      "строе": 1740,
      "прошлом": 1741,
      "зло": 1742,
      "сразу": 1743,
      "секре": 1744,
      "вашей": 1745,
      "лагаю": 1746,
      "пришли": 1747,
      "пес": 1748,
      "печат": 1749,
      "хочется": 1750,
      "чувствовал": 1751,
      "редко": 1752,
      "нож": 1753,
      "вен": 1754,
      "каждо": 1755,
      "тюрь": 1756,
      "ваюсь": 1757,
      "заслу": 1758,
      "большая": 1759,
      "делали": 1760,
      "сложно": 1761,
      "искал": 1762,
      "боится": 1763,
      "мери": 1764,
      "жела": 1765,
      "лек": 1766,
      "прекра": 1767,
      "слышать": 1768,
      "понятия": 1769,
      "игры": 1770,
      "приятно": 1771,
      "снег": 1772,
      "права": 1773,
      "гуля": 1774,
      "цати": 1775,
      "женат": 1776,
      "чувству": 1777,
      "новую": 1778,
      "многие": 1779,
      "привык": 1780,
      "уго": 1781,
      "выше": 1782,
      "мите": 1783,
      "звонил": 1784,
      "планирует": 1785,
      "трёх": 1786,
      "быстре": 1787,
      "книг": 1788,
      "чёр": 1789,
      "сень": 1790,
      "сооб": 1791,
      "ответить": 1792,
      "цветы": 1793,
      "спря": 1794,
      "шил": 1795,
      "гита": 1796,
      "съел": 1797,
      "спросить": 1798,
      "сообще": 1799,
      "жили": 1800,
      "учить": 1801,
      "спит": 1802,
      "автом": 1803,
      "пя": 1804,
      "пошли": 1805,
      "работаю": 1806,
      "телей": 1807,
      "вернётся": 1808,
      "кло": 1809,
      "такси": 1810,
      "взгля": 1811,
      "мент": 1812,
      "понадобится": 1813,
      "моих": 1814,
      "сын": 1815,
      "воду": 1816,
      "чаю": 1817,
      "год": 1818,
      "отноше": 1819,
      "следующий": 1820,
      "живот": 1821,
      "бят": 1822,
      "автобусе": 1823,
      "следующей": 1824,
      "бес": 1825,
      "живу": 1826,
      "пара": 1827,
      "мужчи": 1828,
      "жем": 1829,
      "откро": 1830,
      "нимал": 1831,
      "случай": 1832,
      "заняты": 1833,
      "винова": 1834,
      "упал": 1835,
      "намного": 1836,
      "зара": 1837,
      "некоторые": 1838,
      "нашли": 1839,
      "купили": 1840,
      "домаш": 1841,
      "совето": 1842,
      "зин": 1843,
      "меньше": 1844,
      "танце": 1845,
      "обходи": 1846,
      "сут": 1847,
      "ётся": 1848,
      "наконец": 1849,
      "бывает": 1850,
      "курить": 1851,
      "чаро": 1852,
      "бросил": 1853,
      "пальто": 1854,
      "ест": 1855,
      "написа": 1856,
      "научиться": 1857,
      "примерно": 1858,
      "платье": 1859,
      "ква": 1860,
      "слушал": 1861,
      "ствовать": 1862,
      "парк": 1863,
      "слушать": 1864,
      "сили": 1865,
      "зды": 1866,
      "чение": 1867,
      "делаете": 1868,
      "библи": 1869,
      "доволь": 1870,
      "рада": 1871,
      "дочь": 1872,
      "подня": 1873,
      "назы": 1874,
      "обви": 1875,
      "выиграть": 1876,
      "добра": 1877,
      "положил": 1878,
      "нечего": 1879,
      "пиа": 1880,
      "ходите": 1881,
      "льзоваться": 1882,
      "вряд": 1883,
      "встал": 1884,
      "вну": 1885,
      "увидел": 1886,
      "хле": 1887,
      "необходи": 1888,
      "покажи": 1889,
      "автомоби": 1890,
      "волосы": 1891,
      "нов": 1892,
      "выз": 1893,
      "дим": 1894,
      "любят": 1895,
      "проблему": 1896,
      "сда": 1897,
      "открыл": 1898,
      "обратно": 1899,
      "авари": 1900,
      "бежал": 1901,
      "держал": 1902,
      "дже": 1903,
      "уж": 1904,
      "дево": 1905,
      "кать": 1906,
      "шесть": 1907,
      "верю": 1908,
      "объяснить": 1909,
      "опазды": 1910,
      "родился": 1911,
      "гром": 1912,
      "сел": 1913,
      "пустил": 1914,
      "очки": 1915,
      "выходные": 1916,
      "тки": 1917,
      "поми": 1918,
      "оставить": 1919,
      "красивая": 1920,
      "нки": 1921,
      "еще": 1922,
      "поги": 1923,
      "стру": 1924,
      "весе": 1925,
      "правы": 1926,
      "строен": 1927,
      "поза": 1928,
      "вили": 1929,
      "пешком": 1930,
      "брата": 1931,
      "дерево": 1932,
      "рой": 1933,
      "ваете": 1934,
      "строи": 1935,
      "шек": 1936,
      "друзьями": 1937,
      "следовало": 1938,
      "скорее": 1939,
      "впечат": 1940,
      "пришла": 1941,
      "силь": 1942,
      "первый": 1943,
      "утро": 1944,
      "вечеринку": 1945,
      "туа": 1946,
      "твоего": 1947,
      "понимает": 1948,
      "амери": 1949,
      "немедленно": 1950,
      "посе": 1951,
      "канад": 1952,
      "между": 1953,
      "сидел": 1954,
      "адво": 1955,
      "пля": 1956,
      "ске": 1957,
      "ницы": 1958,
      "води": 1959,
      "пах": 1960,
      "оставаться": 1961,
      "выиграет": 1962,
      "починить": 1963,
      "футбол": 1964,
      "рен": 1965,
      "парко": 1966,
      "детя": 1967,
      "говорим": 1968,
      "помога": 1969,
      "карти": 1970,
      "посовето": 1971,
      "стя": 1972,
      "чески": 1973,
      "городе": 1974,
      "понравилось": 1975,
      "видела": 1976,
      "голод": 1977,
      "остановить": 1978,
      "ждёт": 1979,
      "казы": 1980,
      "мину": 1981,
      "правля": 1982,
      "сломал": 1983,
      "лекар": 1984,
      "аэ": 1985,
      "удал": 1986,
      "нор": 1987,
      "дам": 1988,
      "пера": 1989,
      "ших": 1990,
      "быстрее": 1991,
      "йс": 1992,
      "уезжа": 1993,
      "меч": 1994,
      "случа": 1995,
      "собираешься": 1996,
      "вьте": 1997,
      "едем": 1998,
      "богаты": 1999,
      "иду": 2000,
      "писал": 2001,
      "осталось": 2002,
      "аэро": 2003,
      "кух": 2004,
      "окна": 2005,
      "адре": 2006,
      "ровал": 2007,
      "мол": 2008,
      "чен": 2009,
      "значит": 2010,
      "близ": 2011,
      "уроки": 2012,
      "нен": 2013,
      "призна": 2014,
      "наро": 2015,
      "посте": 2016,
      "вод": 2017,
      "сами": 2018,
      "обеда": 2019,
      "ответил": 2020,
      "вернусь": 2021,
      "ужина": 2022,
      "бросить": 2023,
      "выяс": 2024,
      "знакомы": 2025,
      "ужасно": 2026,
      "библиоте": 2027,
      "пос": 2028,
      "состоя": 2029,
      "брал": 2030,
      "позволь": 2031,
      "скры": 2032,
      "гать": 2033,
      "предпо": 2034,
      "готовы": 2035,
      "насколько": 2036,
      "вание": 2037,
      "рень": 2038,
      "позже": 2039,
      "странно": 2040,
      "ошиба": 2041,
      "разочаро": 2042,
      "музыку": 2043,
      "димся": 2044,
      "ская": 2045,
      "зови": 2046,
      "перестань": 2047,
      "ап": 2048,
      "вше": 2049,
      "офи": 2050,
      "лом": 2051,
      "сон": 2052,
      "игру": 2053,
      "кт": 2054,
      "лку": 2055,
      "забудь": 2056,
      "компа": 2057,
      "играл": 2058,
      "любимый": 2059,
      "повто": 2060,
      "нишь": 2061,
      "видно": 2062,
      "ситуа": 2063,
      "отказался": 2064,
      "принять": 2065,
      "вес": 2066,
      "дура": 2067,
      "сожале": 2068,
      "ездил": 2069,
      "дорогу": 2070,
      "воскре": 2071,
      "прощения": 2072,
      "забы": 2073,
      "лежит": 2074,
      "прежде": 2075,
      "этих": 2076,
      "имел": 2077,
      "зонтик": 2078,
      "октября": 2079,
      "матери": 2080,
      "сси": 2081,
      "торо": 2082,
      "стоило": 2083,
      "верить": 2084,
      "убий": 2085,
      "заставля": 2086,
      "воскресень": 2087,
      "обу": 2088,
      "яй": 2089,
      "провёл": 2090,
      "подро": 2091,
      "песню": 2092,
      "читы": 2093,
      "принёс": 2094,
      "ской": 2095,
      "аресто": 2096,
      "услышал": 2097,
      "мужем": 2098,
      "безопасности": 2099,
      "неправильно": 2100,
      "тие": 2101,
      "жный": 2102,
      "расс": 2103,
      "едва": 2104,
      "зря": 2105,
      "зву": 2106,
      "нач": 2107,
      "слово": 2108,
      "имею": 2109,
      "принял": 2110,
      "помогу": 2111,
      "помнить": 2112,
      "пиани": 2113,
      "дву": 2114,
      "спорт": 2115,
      "хватает": 2116,
      "фу": 2117,
      "телефо": 2118,
      "гре": 2119,
      "смы": 2120,
      "цвет": 2121,
      "погода": 2122,
      "летом": 2123,
      "буты": 2124,
      "станци": 2125,
      "способ": 2126,
      "половине": 2127,
      "сообщение": 2128,
      "гря": 2129,
      "запер": 2130,
      "встретил": 2131,
      "магазин": 2132,
      "заслужи": 2133,
      "попал": 2134,
      "делается": 2135,
      "отпу": 2136,
      "человека": 2137,
      "гро": 2138,
      "прош": 2139,
      "диль": 2140,
      "диться": 2141,
      "кино": 2142,
      "правила": 2143,
      "компьютер": 2144,
      "удалось": 2145,
      "пят": 2146,
      "расскажи": 2147,
      "умею": 2148,
      "похож": 2149,
      "нашей": 2150,
      "магази": 2151,
      "разбу": 2152,
      "невозможно": 2153,
      "конц": 2154,
      "занята": 2155,
      "нормаль": 2156,
      "стали": 2157,
      "готовить": 2158,
      "недели": 2159,
      "месяце": 2160,
      "уче": 2161,
      "коле": 2162,
      "четы": 2163,
      "льта": 2164,
      "остался": 2165,
      "ально": 2166,
      "улыб": 2167,
      "уходить": 2168,
      "никуда": 2169,
      "лично": 2170,
      "сесть": 2171,
      "фома": 2172,
      "держать": 2173,
      "кошка": 2174,
      "препода": 2175,
      "открыть": 2176,
      "серд": 2177,
      "японии": 2178,
      "поки": 2179,
      "вода": 2180,
      "прос": 2181,
      "стой": 2182,
      "бабу": 2183,
      "суще": 2184,
      "парке": 2185,
      "рождество": 2186,
      "необходимо": 2187,
      "намере": 2188,
      "темно": 2189,
      "места": 2190,
      "показать": 2191,
      "выглядишь": 2192,
      "согласился": 2193,
      "позволить": 2194,
      "уволи": 2195,
      "теля": 2196,
      "выбо": 2197,
      "шед": 2198,
      "началь": 2199,
      "вашего": 2200,
      "кварти": 2201,
      "дят": 2202,
      "ус": 2203,
      "тать": 2204,
      "одному": 2205,
      "одолжить": 2206,
      "болит": 2207,
      "выйти": 2208,
      "смерти": 2209,
      "сва": 2210,
      "сите": 2211,
      "мира": 2212,
      "французском": 2213,
      "жениться": 2214,
      "жь": 2215,
      "тка": 2216,
      "щего": 2217,
      "пое": 2218,
      "ладно": 2219,
      "кури": 2220,
      "счастливы": 2221,
      "галсту": 2222,
      "шить": 2223,
      "баты": 2224,
      "лал": 2225,
      "сходить": 2226,
      "узнать": 2227,
      "посмотрел": 2228,
      "зави": 2229,
      "женщина": 2230,
      "кли": 2231,
      "чная": 2232,
      "единственная": 2233,
      "обещаю": 2234,
      "классе": 2235,
      "шанс": 2236,
      "потре": 2237,
      "мода": 2238,
      "бок": 2239,
      "дала": 2240,
      "решили": 2241,
      "резу": 2242,
      "станови": 2243,
      "стры": 2244,
      "нусь": 2245,
      "мил": 2246,
      "болен": 2247,
      "конечно": 2248,
      "попробовать": 2249,
      "результа": 2250,
      "кол": 2251,
      "мнение": 2252,
      "планы": 2253,
      "твою": 2254,
      "комната": 2255,
      "телефона": 2256,
      "задать": 2257,
      "убить": 2258,
      "чё": 2259,
      "моро": 2260,
      "ходя": 2261,
      "ложи": 2262,
      "полицей": 2263,
      "приду": 2264,
      "пиро": 2265,
      "говорила": 2266,
      "английски": 2267,
      "пообещал": 2268,
      "спокой": 2269,
      "позвоню": 2270,
      "рассчиты": 2271,
      "ор": 2272,
      "лоша": 2273,
      "дится": 2274,
      "бежать": 2275,
      "удив": 2276,
      "недостаточно": 2277,
      "части": 2278,
      "рази": 2279,
      "поймал": 2280,
      "голову": 2281,
      "школы": 2282,
      "сомневаюсь": 2283,
      "тё": 2284,
      "цом": 2285,
      "поблагода": 2286,
      "чемода": 2287,
      "больши": 2288,
      "тельный": 2289,
      "жё": 2290,
      "поеду": 2291,
      "замен": 2292,
      "шите": 2293,
      "стен": 2294,
      "сделаем": 2295,
      "хорошее": 2296,
      "каждое": 2297,
      "детям": 2298,
      "удивлён": 2299,
      "сначала": 2300,
      "выро": 2301,
      "купила": 2302,
      "дён": 2303,
      "своими": 2304,
      "последнее": 2305,
      "пару": 2306,
      "выиграл": 2307,
      "подозреваю": 2308,
      "кот": 2309,
      "вез": 2310,
      "парень": 2311,
      "плакал": 2312,
      "держа": 2313,
      "новости": 2314,
      "навести": 2315,
      "рая": 2316,
      "ними": 2317,
      "осталь": 2318,
      "считает": 2319,
      "лёт": 2320,
      "деду": 2321,
      "новая": 2322,
      "лучший": 2323,
      "адвока": 2324,
      "пианино": 2325,
      "еды": 2326,
      "бери": 2327,
      "могла": 2328,
      "ском": 2329,
      "обраща": 2330,
      "ат": 2331,
      "постоя": 2332,
      "веле": 2333,
      "тите": 2334,
      "переехал": 2335,
      "лёг": 2336,
      "вых": 2337,
      "собаки": 2338,
      "рассказывал": 2339,
      "сообщи": 2340,
      "вла": 2341,
      "утра": 2342,
      "нула": 2343,
      "комнаты": 2344,
      "подоб": 2345,
      "имени": 2346,
      "недо": 2347,
      "дает": 2348,
      "шах": 2349,
      "стей": 2350,
      "украл": 2351,
      "адрес": 2352,
      "большин": 2353,
      "кти": 2354,
      "пожа": 2355,
      "кур": 2356,
      "делай": 2357,
      "газ": 2358,
      "жай": 2359,
      "мёт": 2360,
      "ление": 2361,
      "рыбал": 2362,
      "читаю": 2363,
      "наз": 2364,
      "настолько": 2365,
      "поме": 2366,
      "помы": 2367,
      "очере": 2368,
      "право": 2369,
      "смотрите": 2370,
      "вление": 2371,
      "французского": 2372,
      "следующем": 2373,
      "историю": 2374,
      "зарабаты": 2375,
      "помина": 2376,
      "явля": 2377,
      "обма": 2378,
      "грам": 2379,
      "закончил": 2380,
      "месяца": 2381,
      "весело": 2382,
      "увиде": 2383,
      "сит": 2384,
      "стало": 2385,
      "помоги": 2386,
      "голосо": 2387,
      "победит": 2388,
      "съездить": 2389,
      "пытаюсь": 2390,
      "внимания": 2391,
      "дро": 2392,
      "ору": 2393,
      "напуга": 2394,
      "настрое": 2395,
      "моём": 2396,
      "преж": 2397,
      "ходили": 2398,
      "интересу": 2399,
      "вкус": 2400,
      "кататься": 2401,
      "постели": 2402,
      "жения": 2403,
      "мас": 2404,
      "бере": 2405,
      "старый": 2406,
      "больнице": 2407,
      "победить": 2408,
      "терпеть": 2409,
      "отношения": 2410,
      "сне": 2411,
      "шке": 2412,
      "доволен": 2413,
      "мужчина": 2414,
      "радио": 2415,
      "сре": 2416,
      "шкой": 2417,
      "канаде": 2418,
      "воспо": 2419,
      "устала": 2420,
      "серьёзно": 2421,
      "вья": 2422,
      "начать": 2423,
      "выпил": 2424,
      "чер": 2425,
      "забудьте": 2426,
      "говор": 2427,
      "саха": 2428,
      "умеешь": 2429,
      "пойдёт": 2430,
      "известно": 2431,
      "ар": 2432,
      "каран": 2433,
      "бейс": 2434,
      "делают": 2435,
      "разре": 2436,
      "солнце": 2437,
      "бно": 2438,
      "млад": 2439,
      "чные": 2440,
      "нах": 2441,
      "пораньше": 2442,
      "дости": 2443,
      "первым": 2444,
      "нюю": 2445,
      "встречал": 2446,
      "фотографии": 2447,
      "собрание": 2448,
      "двери": 2449,
      "большую": 2450,
      "обед": 2451,
      "ственно": 2452,
      "моложе": 2453,
      "танцевать": 2454,
      "дне": 2455,
      "чек": 2456,
      "мати": 2457,
      "билет": 2458,
      "своём": 2459,
      "твоему": 2460,
      "инфор": 2461,
      "одежду": 2462,
      "детьми": 2463,
      "торопи": 2464,
      "гло": 2465,
      "яви": 2466,
      "тами": 2467,
      "принад": 2468,
      "завтрак": 2469,
      "замужем": 2470,
      "ские": 2471,
      "собирался": 2472,
      "коробку": 2473,
      "дился": 2474,
      "совет": 2475,
      "думали": 2476,
      "жусь": 2477,
      "взро": 2478,
      "молоко": 2479,
      "закончить": 2480,
      "джон": 2481,
      "изучать": 2482,
      "ботинки": 2483,
      "нила": 2484,
      "вашу": 2485,
      "саду": 2486,
      "глупо": 2487,
      "экзамен": 2488,
      "выбора": 2489,
      "каранда": 2490,
      "вся": 2491,
      "мая": 2492,
      "мире": 2493,
      "сына": 2494,
      "понимаешь": 2495,
      "едешь": 2496,
      "джона": 2497,
      "нные": 2498,
      "уехать": 2499,
      "дение": 2500,
      "чить": 2501,
      "твоём": 2502,
      "щие": 2503,
      "пку": 2504,
      "ноги": 2505,
      "выбор": 2506,
      "доче": 2507,
      "оставля": 2508,
      "молока": 2509,
      "никаких": 2510,
      "еда": 2511,
      "стный": 2512,
      "лая": 2513,
      "сом": 2514,
      "собираетесь": 2515,
      "самая": 2516,
      "концерт": 2517,
      "смотрю": 2518,
      "рыбалку": 2519,
      "нения": 2520,
      "расскажите": 2521,
      "шляпу": 2522,
      "прежнему": 2523,
      "мом": 2524,
      "чей": 2525,
      "добро": 2526,
      "време": 2527,
      "насчёт": 2528,
      "жарко": 2529,
      "города": 2530,
      "ищу": 2531,
      "покупать": 2532,
      "бь": 2533,
      "вли": 2534,
      "уни": 2535,
      "пиво": 2536,
      "дной": 2537,
      "голоден": 2538,
      "карма": 2539,
      "смотрит": 2540,
      "родителей": 2541,
      "пен": 2542,
      "надеялся": 2543,
      "готова": 2544,
      "ствие": 2545,
      "семье": 2546,
      "лекарство": 2547,
      "ждали": 2548,
      "горя": 2549,
      "лил": 2550,
      "обнару": 2551,
      "выглядел": 2552,
      "ошибки": 2553,
      "женаты": 2554,
      "английский": 2555,
      "ствует": 2556,
      "бен": 2557,
      "буд": 2558,
      "голос": 2559,
      "список": 2560,
      "большое": 2561,
      "жли": 2562,
      "ува": 2563,
      "приходить": 2564,
      "решения": 2565,
      "канадец": 2566,
      "щей": 2567,
      "вок": 2568,
      "холодиль": 2569,
      "япон": 2570,
      "прочёл": 2571,
      "свадь": 2572,
      "прошу": 2573,
      "пуска": 2574,
      "любил": 2575,
      "плохой": 2576,
      "рковь": 2577,
      "полагаю": 2578,
      "выходить": 2579,
      "вались": 2580,
      "улицу": 2581,
      "спрятал": 2582,
      "автомобиль": 2583,
      "джек": 2584,
      "включи": 2585,
      "ов": 2586,
      "пиц": 2587,
      "грани": 2588,
      "круг": 2589,
      "впер": 2590,
      "хуже": 2591,
      "наблю": 2592,
      "кора": 2593,
      "тым": 2594,
      "кио": 2595,
      "ступле": 2596,
      "возможность": 2597,
      "семья": 2598,
      "джо": 2599,
      "ненавидит": 2600,
      "ума": 2601,
      "воро": 2602,
      "чения": 2603,
      "логи": 2604,
      "помнишь": 2605,
      "ожида": 2606,
      "лицо": 2607,
      "постоянно": 2608,
      "сидеть": 2609,
      "остане": 2610,
      "сделаешь": 2611,
      "ответа": 2612,
      "замеча": 2613,
      "пытается": 2614,
      "счасть": 2615,
      "поговорим": 2616,
      "закон": 2617,
      "мир": 2618,
      "рыбу": 2619,
      "пыт": 2620,
      "месяц": 2621,
      "история": 2622,
      "устав": 2623,
      "информа": 2624,
      "ялись": 2625,
      "неправда": 2626,
      "али": 2627,
      "нику": 2628,
      "мар": 2629,
      "своему": 2630,
      "расстроен": 2631,
      "проблем": 2632,
      "тяже": 2633,
      "заплатил": 2634,
      "волну": 2635,
      "ящик": 2636,
      "наи": 2637,
      "иметь": 2638,
      "фотографию": 2639,
      "встретиться": 2640,
      "шахма": 2641,
      "ушли": 2642,
      "пользу": 2643,
      "казать": 2644,
      "льси": 2645,
      "пробо": 2646,
      "стая": 2647,
      "расте": 2648,
      "плакать": 2649,
      "жаю": 2650,
      "полицию": 2651,
      "момент": 2652,
      "шоко": 2653,
      "самолёт": 2654,
      "труд": 2655,
      "ресторан": 2656,
      "увидимся": 2657,
      "ждён": 2658,
      "вежли": 2659,
      "молод": 2660,
      "богат": 2661,
      "совету": 2662,
      "угодно": 2663,
      "идите": 2664,
      "посу": 2665,
      "мей": 2666,
      "край": 2667,
      "специ": 2668,
      "которое": 2669,
      "скажет": 2670,
      "случайно": 2671,
      "ев": 2672,
      "жку": 2673,
      "нец": 2674,
      "порт": 2675,
      "ников": 2676,
      "вошёл": 2677,
      "выра": 2678,
      "вышла": 2679,
      "чая": 2680,
      "едете": 2681,
      "беспокоит": 2682,
      "яблоко": 2683,
      "возраста": 2684,
      "секрет": 2685,
      "кно": 2686,
      "клу": 2687,
      "щать": 2688,
      "элек": 2689,
      "попытался": 2690,
      "припарко": 2691,
      "спор": 2692,
      "убил": 2693,
      "аппара": 2694,
      "озе": 2695,
      "зако": 2696,
      "пиш": 2697,
      "больницу": 2698,
      "жах": 2699,
      "снял": 2700,
      "гряз": 2701,
      "мё": 2702,
      "чается": 2703,
      "перестал": 2704,
      "ант": 2705,
      "научил": 2706,
      "мясо": 2707,
      "скую": 2708,
      "разговаривал": 2709,
      "никакого": 2710,
      "тридцати": 2711,
      "извиниться": 2712,
      "рубашку": 2713,
      "какого": 2714,
      "лете": 2715,
      "ского": 2716,
      "сделай": 2717,
      "занимается": 2718,
      "считаю": 2719,
      "ужас": 2720,
      "пры": 2721,
      "необязательно": 2722,
      "выпить": 2723,
      "телен": 2724,
      "помните": 2725,
      "вашем": 2726,
      "звонить": 2727,
      "удивле": 2728,
      "родителям": 2729,
      "виноват": 2730,
      "поедет": 2731,
      "мок": 2732,
      "лым": 2733,
      "лыжах": 2734,
      "хорошие": 2735,
      "просить": 2736,
      "сумас": 2737,
      "исправи": 2738,
      "жнее": 2739,
      "жало": 2740,
      "слышали": 2741,
      "красивый": 2742,
      "носит": 2743,
      "которой": 2744,
      "повезло": 2745,
      "ребёнка": 2746,
      "жник": 2747,
      "услышать": 2748,
      "пользоваться": 2749,
      "приме": 2750,
      "живут": 2751,
      "чашку": 2752,
      "сможешь": 2753,
      "могло": 2754,
      "цатого": 2755,
      "случиться": 2756,
      "дороге": 2757,
      "предложил": 2758,
      "велел": 2759,
      "остро": 2760,
      "возду": 2761,
      "велосипеде": 2762,
      "волно": 2763,
      "сумасшед": 2764,
      "каме": 2765,
      "целу": 2766,
      "странный": 2767,
      "читает": 2768,
      "скучно": 2769,
      "словарь": 2770,
      "женился": 2771,
      "шахматы": 2772,
      "пот": 2773,
      "лето": 2774,
      "станет": 2775,
      "жает": 2776,
      "щая": 2777,
      "закрыл": 2778,
      "спрашивал": 2779,
      "водитель": 2780,
      "стом": 2781,
      "глаз": 2782,
      "страшно": 2783,
      "вашему": 2784,
      "зубы": 2785,
      "посоветовал": 2786,
      "большинство": 2787,
      "рады": 2788,
      "выстре": 2789,
      "доба": 2790,
      "отдох": 2791,
      "играю": 2792,
      "умеете": 2793,
      "попросили": 2794,
      "свободно": 2795,
      "готовит": 2796,
      "тюрьме": 2797,
      "двух": 2798,
      "нку": 2799,
      "жур": 2800,
      "счастливым": 2801,
      "другого": 2802,
      "научился": 2803,
      "понедельника": 2804,
      "посмотрите": 2805,
      "особе": 2806,
      "четыре": 2807,
      "честно": 2808,
      "ошибок": 2809,
      "молоды": 2810,
      "десяти": 2811,
      "умный": 2812,
      "связа": 2813,
      "хлеб": 2814,
      "жён": 2815,
      "уга": 2816,
      "дев": 2817,
      "сильный": 2818,
      "помогли": 2819,
      "валась": 2820,
      "улыба": 2821,
      "будто": 2822,
      "ведли": 2823,
      "встречу": 2824,
      "смеяться": 2825,
      "пустить": 2826,
      "заставил": 2827,
      "справедли": 2828,
      "прекрасно": 2829,
      "телефону": 2830,
      "несчаст": 2831,
      "покое": 2832,
      "честь": 2833,
      "лест": 2834,
      "стакан": 2835,
      "биле": 2836,
      "показы": 2837,
      "шум": 2838,
      "живёте": 2839,
      "фотоаппара": 2840,
      "беспокоиться": 2841,
      "рассказывать": 2842,
      "нервни": 2843,
      "яйца": 2844,
      "убра": 2845,
      "ране": 2846,
      "како": 2847,
      "прове": 2848,
      "кими": 2849,
      "сила": 2850,
      "лые": 2851,
      "позволя": 2852,
      "займёт": 2853,
      "шта": 2854,
      "нал": 2855,
      "наве": 2856,
      "вон": 2857,
      "боялся": 2858,
      "ошибка": 2859,
      "ходят": 2860,
      "понравился": 2861,
      "влюсь": 2862,
      "тысячи": 2863,
      "гитаре": 2864,
      "позвольте": 2865,
      "нка": 2866,
      "явно": 2867,
      "токио": 2868,
      "занимал": 2869,
      "лей": 2870,
      "делаем": 2871,
      "вспомнить": 2872,
      "контро": 2873,
      "отвечать": 2874,
      "понимаете": 2875,
      "соглас": 2876,
      "глубо": 2877,
      "днём": 2878,
      "счёт": 2879,
      "кост": 2880,
      "просту": 2881,
      "приз": 2882,
      "живёшь": 2883,
      "кухне": 2884,
      "милли": 2885,
      "покраси": 2886,
      "ником": 2887,
      "куплю": 2888,
      "людя": 2889,
      "пита": 2890,
      "сделаете": 2891,
      "пьёт": 2892,
      "стороны": 2893,
      "двое": 2894,
      "изба": 2895,
      "спасти": 2896,
      "станции": 2897,
      "ели": 2898,
      "зас": 2899,
      "самолё": 2900,
      "скучать": 2901,
      "свида": 2902,
      "разбил": 2903,
      "апе": 2904,
      "голь": 2905,
      "ету": 2906,
      "пива": 2907,
      "бил": 2908,
      "твоим": 2909,
      "случивше": 2910,
      "других": 2911,
      "смотря": 2912,
      "поезде": 2913,
      "кты": 2914,
      "справи": 2915,
      "восемь": 2916,
      "другие": 2917,
      "позвони": 2918,
      "вечер": 2919,
      "полностью": 2920,
      "прекрати": 2921,
      "галстук": 2922,
      "постра": 2923,
      "закро": 2924,
      "пригото": 2925,
      "езжать": 2926,
      "полне": 2927,
      "носить": 2928,
      "пригласил": 2929,
      "найду": 2930,
      "ищет": 2931,
      "сумку": 2932,
      "мороже": 2933,
      "рик": 2934,
      "пече": 2935,
      "щим": 2936,
      "учителем": 2937,
      "смеялся": 2938,
      "влека": 2939,
      "убедить": 2940,
      "зонт": 2941,
      "апельси": 2942,
      "ори": 2943,
      "охо": 2944,
      "пно": 2945,
      "доку": 2946,
      "тура": 2947,
      "останусь": 2948,
      "двою": 2949,
      "цвета": 2950,
      "высокий": 2951,
      "любовь": 2952,
      "аварии": 2953,
      "карандаш": 2954,
      "нести": 2955,
      "речь": 2956,
      "нужда": 2957,
      "самы": 2958,
      "пугал": 2959,
      "получить": 2960,
      "съесть": 2961,
      "планирую": 2962,
      "помогает": 2963,
      "дочери": 2964,
      "аб": 2965,
      "удоб": 2966,
      "умира": 2967,
      "боро": 2968,
      "делайте": 2969,
      "котором": 2970,
      "влюб": 2971,
      "аэропор": 2972,
      "состоянии": 2973,
      "нелегко": 2974,
      "таких": 2975,
      "тринадцать": 2976,
      "смотрели": 2977,
      "женщины": 2978,
      "потра": 2979,
      "вого": 2980,
      "дила": 2981,
      "соеди": 2982,
      "приве": 2983,
      "жила": 2984,
      "холод": 2985,
      "новое": 2986,
      "вайся": 2987,
      "темпера": 2988,
      "внимательно": 2989,
      "которого": 2990,
      "посуду": 2991,
      "эй": 2992,
      "поспать": 2993,
      "инстру": 2994,
      "требу": 2995,
      "помогал": 2996,
      "стреля": 2997,
      "погиб": 2998,
      "пенси": 2999,
      "евро": 3000,
      "ваем": 3001,
      "тый": 3002,
      "сели": 3003,
      "позвоните": 3004,
      "умерла": 3005,
      "солгал": 3006,
      "изменить": 3007,
      "ребёнком": 3008,
      "написать": 3009,
      "сердце": 3010,
      "вания": 3011,
      "дов": 3012,
      "сот": 3013,
      "которая": 3014,
      "извините": 3015,
      "осторожно": 3016,
      "пьян": 3017,
      "воскресенье": 3018,
      "взрослы": 3019,
      "вокзал": 3020,
      "блу": 3021,
      "поса": 3022,
      "новые": 3023,
      "отцом": 3024,
      "занятие": 3025,
      "терпели": 3026,
      "возьму": 3027,
      "компьюте": 3028,
      "нным": 3029,
      "рёт": 3030,
      "сможем": 3031,
      "невино": 3032,
      "коль": 3033,
      "бом": 3034,
      "стары": 3035,
      "всеми": 3036,
      "заняться": 3037,
      "октябре": 3038,
      "бри": 3039,
      "опре": 3040,
      "рём": 3041,
      "ночи": 3042,
      "вечно": 3043,
      "вила": 3044,
      "верит": 3045,
      "дорога": 3046,
      "письма": 3047,
      "печень": 3048,
      "сра": 3049,
      "увижу": 3050,
      "пошла": 3051,
      "роман": 3052,
      "беру": 3053,
      "прис": 3054,
      "учиться": 3055,
      "заплатить": 3056,
      "пригласили": 3057,
      "собствен": 3058,
      "отлично": 3059,
      "здание": 3060,
      "пишет": 3061,
      "полез": 3062,
      "нике": 3063,
      "тихо": 3064,
      "жие": 3065,
      "отчёт": 3066,
      "обла": 3067,
      "всему": 3068,
      "болез": 3069,
      "внимание": 3070,
      "возьми": 3071,
      "дна": 3072,
      "пли": 3073,
      "нау": 3074,
      "подруга": 3075,
      "ногу": 3076,
      "выбра": 3077,
      "грузови": 3078,
      "получится": 3079,
      "трое": 3080,
      "двига": 3081,
      "покажите": 3082,
      "принадлежит": 3083,
      "кля": 3084,
      "плы": 3085,
      "поре": 3086,
      "поёт": 3087,
      "выхо": 3088,
      "хотя": 3089,
      "кило": 3090,
      "счастлива": 3091,
      "здоровь": 3092,
      "добраться": 3093,
      "тила": 3094,
      "няться": 3095,
      "бега": 3096,
      "нули": 3097,
      "мили": 3098,
      "беспокой": 3099,
      "смогли": 3100,
      "использо": 3101,
      "сосед": 3102,
      "становится": 3103,
      "гнул": 3104,
      "зел": 3105,
      "фру": 3106,
      "такую": 3107,
      "сколь": 3108,
      "многи": 3109,
      "рыба": 3110,
      "препо": 3111,
      "сной": 3112,
      "менить": 3113,
      "украли": 3114,
      "вёз": 3115,
      "жным": 3116,
      "вана": 3117,
      "купа": 3118,
      "пили": 3119,
      "думают": 3120,
      "нца": 3121,
      "ских": 3122,
      "пуля": 3123,
      "покажу": 3124,
      "казалось": 3125,
      "защитить": 3126,
      "бейсбол": 3127,
      "фотоаппарат": 3128,
      "снару": 3129,
      "убира": 3130,
      "поменя": 3131,
      "сидит": 3132,
      "пел": 3133,
      "тельная": 3134,
      "супер": 3135,
      "строй": 3136,
      "собак": 3137,
      "другое": 3138,
      "совершил": 3139,
      "приглаше": 3140,
      "продолжал": 3141,
      "скажете": 3142,
      "скажешь": 3143,
      "снаружи": 3144,
      "сработает": 3145,
      "хло": 3146,
      "подальше": 3147,
      "знамени": 3148,
      "щих": 3149,
      "зоо": 3150,
      "груп": 3151,
      "посмотрим": 3152,
      "позаботи": 3153,
      "нормально": 3154,
      "курсе": 3155,
      "является": 3156,
      "почувствовал": 3157,
      "вокруг": 3158,
      "захочет": 3159,
      "платить": 3160,
      "церковь": 3161,
      "ездит": 3162,
      "самому": 3163,
      "смеялись": 3164,
      "поверил": 3165,
      "родствен": 3166,
      "жёл": 3167,
      "поду": 3168,
      "мое": 3169,
      "соста": 3170,
      "многое": 3171,
      "голова": 3172,
      "родителями": 3173,
      "двадцатого": 3174,
      "костю": 3175,
      "считал": 3176,
      "нес": 3177,
      "нение": 3178,
      "док": 3179,
      "скор": 3180,
      "играли": 3181,
      "дитесь": 3182,
      "верил": 3183,
      "начали": 3184,
      "французскому": 3185,
      "удивился": 3186,
      "преподава": 3187,
      "пообе": 3188,
      "новой": 3189,
      "честве": 3190,
      "приходит": 3191,
      "образ": 3192,
      "гами": 3193,
      "карто": 3194,
      "солда": 3195,
      "пяти": 3196,
      "пожар": 3197,
      "тку": 3198,
      "ясно": 3199,
      "ношу": 3200,
      "жены": 3201,
      "тах": 3202,
      "мнее": 3203,
      "привиде": 3204,
      "всём": 3205,
      "суп": 3206,
      "ствовал": 3207,
      "врача": 3208,
      "слушай": 3209,
      "расскажу": 3210,
      "остановиться": 3211,
      "маленький": 3212,
      "случае": 3213,
      "рки": 3214,
      "попа": 3215,
      "поговорил": 3216,
      "запа": 3217,
      "сестры": 3218,
      "пей": 3219,
      "учителя": 3220,
      "врать": 3221,
      "кровать": 3222,
      "хая": 3223,
      "деревья": 3224,
      "чувствует": 3225,
      "вырос": 3226,
      "избави": 3227,
      "бку": 3228,
      "реть": 3229,
      "продать": 3230,
      "ручку": 3231,
      "нравлюсь": 3232,
      "сыгра": 3233,
      "дождя": 3234,
      "отвез": 3235,
      "подожди": 3236,
      "поцеловал": 3237,
      "поблагодарить": 3238,
      "внут": 3239,
      "джа": 3240,
      "оф": 3241,
      "узнали": 3242,
      "выпол": 3243,
      "заба": 3244,
      "верх": 3245,
      "плачет": 3246,
      "сыпа": 3247,
      "чувства": 3248,
      "полити": 3249,
      "разозли": 3250,
      "впечатление": 3251,
      "нарочно": 3252,
      "уволили": 3253,
      "внутрь": 3254,
      "ово": 3255,
      "неприятно": 3256,
      "поедем": 3257,
      "забыть": 3258,
      "ведёт": 3259,
      "бутер": 3260,
      "креп": 3261,
      "использу": 3262,
      "братья": 3263,
      "мария": 3264,
      "начальник": 3265,
      "зелё": 3266,
      "бутербро": 3267,
      "ог": 3268,
      "хом": 3269,
      "видишь": 3270,
      "очевидно": 3271,
      "любимая": 3272,
      "сделайте": 3273,
      "подарил": 3274,
      "вашим": 3275,
      "сможете": 3276,
      "ровали": 3277,
      "каком": 3278,
      "бывал": 3279,
      "гия": 3280,
      "выглядите": 3281,
      "марии": 3282,
      "двадцать": 3283,
      "подробно": 3284,
      "впервые": 3285,
      "ёк": 3286,
      "подумать": 3287,
      "каким": 3288,
      "паспорт": 3289,
      "языке": 3290,
      "взяли": 3291,
      "поехали": 3292,
      "остановился": 3293,
      "рассчитывать": 3294,
      "людям": 3295,
      "гольф": 3296,
      "офис": 3297,
      "иска": 3298,
      "поправи": 3299,
      "рит": 3300,
      "стира": 3301,
      "жалу": 3302,
      "прези": 3303,
      "дался": 3304,
      "цены": 3305,
      "смер": 3306,
      "похожи": 3307,
      "подождите": 3308,
      "минутку": 3309,
      "путешествовать": 3310,
      "вный": 3311,
      "душ": 3312,
      "нял": 3313,
      "сить": 3314,
      "отра": 3315,
      "отсут": 3316,
      "самой": 3317,
      "нном": 3318,
      "списке": 3319,
      "солне": 3320,
      "познакомился": 3321,
      "уговорить": 3322,
      "ушла": 3323,
      "появи": 3324,
      "каз": 3325,
      "вом": 3326,
      "проти": 3327,
      "сегодняш": 3328,
      "скучаю": 3329,
      "полиции": 3330,
      "планируешь": 3331,
      "девушки": 3332,
      "худ": 3333,
      "девочка": 3334,
      "уснул": 3335,
      "особенно": 3336,
      "сро": 3337,
      "тный": 3338,
      "покончи": 3339,
      "нился": 3340,
      "шен": 3341,
      "чика": 3342,
      "присоеди": 3343,
      "оставь": 3344,
      "утвер": 3345,
      "одни": 3346,
      "убеждён": 3347,
      "извинился": 3348,
      "внеза": 3349,
      "навестить": 3350,
      "йо": 3351,
      "хе": 3352,
      "рение": 3353,
      "зам": 3354,
      "жество": 3355,
      "отри": 3356,
      "помнит": 3357,
      "положите": 3358,
      "проснулся": 3359,
      "увидеться": 3360,
      "надел": 3361,
      "тари": 3362,
      "зная": 3363,
      "солю": 3364,
      "притво": 3365,
      "мяч": 3366,
      "надеется": 3367,
      "слома": 3368,
      "иску": 3369,
      "понравилась": 3370,
      "половины": 3371,
      "свитер": 3372,
      "детстве": 3373,
      "чемодан": 3374,
      "лж": 3375,
      "опти": 3376,
      "уходи": 3377,
      "популя": 3378,
      "комен": 3379,
      "кошки": 3380,
      "выучить": 3381,
      "достал": 3382,
      "метро": 3383,
      "секу": 3384,
      "прое": 3385,
      "верно": 3386,
      "золо": 3387,
      "самостоя": 3388,
      "спросите": 3389,
      "представля": 3390,
      "ситуация": 3391,
      "магазине": 3392,
      "кораб": 3393,
      "мёрт": 3394,
      "вки": 3395,
      "вполне": 3396,
      "напомина": 3397,
      "вайтесь": 3398,
      "жену": 3399,
      "бас": 3400,
      "плавает": 3401,
      "перезво": 3402,
      "пути": 3403,
      "команда": 3404,
      "математи": 3405,
      "абсолю": 3406,
      "дем": 3407,
      "войти": 3408,
      "дива": 3409,
      "любить": 3410,
      "слышу": 3411,
      "предлагаю": 3412,
      "планируете": 3413,
      "новость": 3414,
      "приехали": 3415,
      "бумажник": 3416,
      "внутри": 3417,
      "минуту": 3418,
      "хоть": 3419,
      "боя": 3420,
      "сохра": 3421,
      "спорить": 3422,
      "тали": 3423,
      "машиной": 3424,
      "ствия": 3425,
      "придёшь": 3426,
      "опасности": 3427,
      "случившемся": 3428,
      "оптими": 3429,
      "секун": 3430,
      "рисо": 3431,
      "чество": 3432,
      "дую": 3433,
      "чик": 3434,
      "надое": 3435,
      "спас": 3436,
      "самого": 3437,
      "бре": 3438,
      "мон": 3439,
      "лод": 3440,
      "лон": 3441,
      "умереть": 3442,
      "увели": 3443,
      "объяснил": 3444,
      "осторожен": 3445,
      "испол": 3446,
      "представить": 3447,
      "банк": 3448,
      "самостоятельно": 3449,
      "праз": 3450,
      "уку": 3451,
      "поху": 3452,
      "тая": 3453,
      "чив": 3454,
      "голодный": 3455,
      "яблоки": 3456,
      "выяснить": 3457,
      "вка": 3458,
      "вным": 3459,
      "умнее": 3460,
      "чте": 3461,
      "присут": 3462,
      "обре": 3463,
      "чали": 3464,
      "идём": 3465,
      "вернуть": 3466,
      "гулять": 3467,
      "лошадь": 3468,
      "билеты": 3469,
      "бассей": 3470,
      "опыт": 3471,
      "лам": 3472,
      "зар": 3473,
      "матри": 3474,
      "лени": 3475,
      "сор": 3476,
      "причина": 3477,
      "рыв": 3478,
      "хорошим": 3479,
      "собакой": 3480,
      "начинаю": 3481,
      "называется": 3482,
      "ого": 3483,
      "заказал": 3484,
      "марк": 3485,
      "лежал": 3486,
      "столи": 3487,
      "относи": 3488,
      "сад": 3489,
      "придёте": 3490,
      "десят": 3491,
      "познакомились": 3492,
      "вставать": 3493,
      "повтори": 3494,
      "пирог": 3495,
      "заблу": 3496,
      "таре": 3497,
      "сим": 3498,
      "практи": 3499,
      "слов": 3500,
      "дядя": 3501,
      "женились": 3502,
      "другую": 3503,
      "выключил": 3504,
      "воспользоваться": 3505,
      "пиццу": 3506,
      "влюблён": 3507,
      "супермарк": 3508,
      "щем": 3509,
      "нашу": 3510,
      "нове": 3511,
      "номи": 3512,
      "прочесть": 3513,
      "созна": 3514,
      "отло": 3515,
      "публи": 3516,
      "шляпа": 3517,
      "команде": 3518,
      "поступил": 3519,
      "возвращаться": 3520,
      "адвокат": 3521,
      "зарпла": 3522,
      "сред": 3523,
      "удо": 3524,
      "риско": 3525,
      "провели": 3526,
      "нуться": 3527,
      "бук": 3528,
      "рассла": 3529,
      "пусть": 3530,
      "стране": 3531,
      "полтретьего": 3532,
      "пытаться": 3533,
      "корот": 3534,
      "закрыть": 3535,
      "беспла": 3536,
      "бутылку": 3537,
      "девять": 3538,
      "ина": 3539,
      "ёй": 3540,
      "напря": 3541,
      "бокал": 3542,
      "чий": 3543,
      "шит": 3544,
      "ходила": 3545,
      "чья": 3546,
      "ственное": 3547,
      "плохая": 3548,
      "мужчины": 3549,
      "библиотеке": 3550,
      "разочарован": 3551,
      "концов": 3552,
      "дни": 3553,
      "идёшь": 3554,
      "ниться": 3555,
      "ног": 3556,
      "решать": 3557,
      "заболе": 3558,
      "мат": 3559,
      "шей": 3560,
      "привет": 3561,
      "работаешь": 3562,
      "счастливой": 3563,
      "задание": 3564,
      "почисти": 3565,
      "другим": 3566,
      "бабушка": 3567,
      "свидание": 3568,
      "влюби": 3569,
      "лки": 3570,
      "эко": 3571,
      "ям": 3572,
      "насе": 3573,
      "вец": 3574,
      "руках": 3575,
      "ское": 3576,
      "красный": 3577,
      "ударил": 3578,
      "компании": 3579,
      "здоровье": 3580,
      "шё": 3581,
      "нашла": 3582,
      "захотел": 3583,
      "льше": 3584,
      "танцу": 3585,
      "продал": 3586,
      "приедет": 3587,
      "разговор": 3588,
      "рясе": 3589,
      "тельство": 3590,
      "ступ": 3591,
      "одолжил": 3592,
      "экзаме": 3593,
      "мечта": 3594,
      "очередь": 3595,
      "забыли": 3596,
      "тишь": 3597,
      "зол": 3598,
      "слушает": 3599,
      "весьма": 3600,
      "пахнет": 3601,
      "звучит": 3602,
      "окон": 3603,
      "сса": 3604,
      "побли": 3605,
      "чил": 3606,
      "прият": 3607,
      "больно": 3608,
      "большие": 3609,
      "шает": 3610,
      "работаете": 3611,
      "пойдёшь": 3612,
      "задачу": 3613,
      "поцеловать": 3614,
      "аэропорт": 3615,
      "намерен": 3616,
      "зарабатывает": 3617,
      "отдохнуть": 3618,
      "опера": 3619,
      "шпи": 3620,
      "кошек": 3621,
      "водит": 3622,
      "лан": 3623,
      "забыла": 3624,
      "забуду": 3625,
      "жене": 3626,
      "бель": 3627,
      "руль": 3628,
      "твоих": 3629,
      "стул": 3630,
      "предпоч": 3631,
      "спеть": 3632,
      "зимой": 3633,
      "пытались": 3634,
      "плохое": 3635,
      "принимать": 3636,
      "опоздает": 3637,
      "кнопку": 3638,
      "связаться": 3639,
      "пострадал": 3640,
      "абсолютно": 3641,
      "снима": 3642,
      "похоро": 3643,
      "поиграть": 3644,
      "старо": 3645,
      "любой": 3646,
      "пишу": 3647,
      "перевод": 3648,
      "стала": 3649,
      "врал": 3650,
      "вернулись": 3651,
      "кровь": 3652,
      "слышала": 3653,
      "смогла": 3654,
      "гер": 3655,
      "проводить": 3656,
      "корми": 3657,
      "дорогой": 3658,
      "животных": 3659,
      "пляж": 3660,
      "отпуск": 3661,
      "жная": 3662,
      "убь": 3663,
      "неважно": 3664,
      "дая": 3665,
      "жении": 3666,
      "китай": 3667,
      "бага": 3668,
      "спокое": 3669,
      "возьмите": 3670,
      "сожалению": 3671,
      "поженились": 3672,
      "каса": 3673,
      "баск": 3674,
      "оставьте": 3675,
      "пожале": 3676,
      "любим": 3677,
      "братом": 3678,
      "надеяться": 3679,
      "веришь": 3680,
      "война": 3681,
      "глупы": 3682,
      "телевизору": 3683,
      "фильмы": 3684,
      "земля": 3685,
      "внезапно": 3686,
      "чным": 3687,
      "рует": 3688,
      "преступле": 3689,
      "границу": 3690,
      "пусто": 3691,
      "льной": 3692,
      "победил": 3693,
      "музыка": 3694,
      "собрании": 3695,
      "послал": 3696,
      "вме": 3697,
      "угро": 3698,
      "чную": 3699,
      "неуда": 3700,
      "надень": 3701,
      "навли": 3702,
      "женой": 3703,
      "сказа": 3704,
      "деля": 3705,
      "пари": 3706,
      "нцы": 3707,
      "цев": 3708,
      "талант": 3709,
      "интересо": 3710,
      "крови": 3711,
      "зуб": 3712,
      "получили": 3713,
      "убедил": 3714,
      "плохого": 3715,
      "начинается": 3716,
      "вечеринке": 3717,
      "постарайся": 3718,
      "кет": 3719,
      "нная": 3720,
      "слё": 3721,
      "усло": 3722,
      "ушло": 3723,
      "уезжать": 3724,
      "низ": 3725,
      "запре": 3726,
      "задал": 3727,
      "нулась": 3728,
      "чисти": 3729,
      "отме": 3730,
      "встрече": 3731,
      "надцати": 3732,
      "одним": 3733,
      "грустно": 3734,
      "побежал": 3735,
      "беспокоюсь": 3736,
      "обязан": 3737,
      "зер": 3738,
      "влюбле": 3739,
      "домашнее": 3740,
      "держаться": 3741,
      "исправить": 3742,
      "срочно": 3743,
      "успо": 3744,
      "моби": 3745,
      "даю": 3746,
      "лер": 3747,
      "бело": 3748,
      "триста": 3749,
      "будущее": 3750,
      "полоте": 3751,
      "человеком": 3752,
      "красивые": 3753,
      "подоз": 3754,
      "убили": 3755,
      "дерева": 3756,
      "устали": 3757,
      "нашем": 3758,
      "студент": 3759,
      "газету": 3760,
      "универ": 3761,
      "занимался": 3762,
      "баскет": 3763,
      "нк": 3764,
      "узна": 3765,
      "почто": 3766,
      "нос": 3767,
      "нори": 3768,
      "мого": 3769,
      "мост": 3770,
      "дают": 3771,
      "маме": 3772,
      "тише": 3773,
      "лем": 3774,
      "отста": 3775,
      "верни": 3776,
      "гах": 3777,
      "судь": 3778,
      "французским": 3779,
      "решила": 3780,
      "одном": 3781,
      "фер": 3782,
      "девушку": 3783,
      "нашего": 3784,
      "продолжать": 3785,
      "игнори": 3786,
      "извест": 3787,
      "бумаги": 3788,
      "офисе": 3789,
      "специально": 3790,
      "кнул": 3791,
      "тон": 3792,
      "нечто": 3793,
      "небо": 3794,
      "никак": 3795,
      "рот": 3796,
      "вар": 3797,
      "лиф": 3798,
      "видите": 3799,
      "ктор": 3800,
      "плане": 3801,
      "спосо": 3802,
      "подходит": 3803,
      "вной": 3804,
      "получилось": 3805,
      "отправил": 3806,
      "напуган": 3807,
      "джоном": 3808,
      "оскор": 3809,
      "нечасто": 3810,
      "поте": 3811,
      "горе": 3812,
      "рили": 3813,
      "кам": 3814,
      "бед": 3815,
      "туал": 3816,
      "дважды": 3817,
      "стараюсь": 3818,
      "шоколад": 3819,
      "печенье": 3820,
      "оце": 3821,
      "роста": 3822,
      "рис": 3823,
      "черк": 3824,
      "льная": 3825,
      "прогу": 3826,
      "люб": 3827,
      "переве": 3828,
      "езжу": 3829,
      "терять": 3830,
      "идеаль": 3831,
      "обвиня": 3832,
      "сильнее": 3833,
      "канадка": 3834,
      "перестаньте": 3835,
      "бутерброд": 3836,
      "снего": 3837,
      "недавно": 3838,
      "наказа": 3839,
      "побыть": 3840,
      "прошёл": 3841,
      "школа": 3842,
      "вернул": 3843,
      "стоял": 3844,
      "пыталась": 3845,
      "фотография": 3846,
      "восхи": 3847,
      "принеси": 3848,
      "студенты": 3849,
      "хлеба": 3850,
      "арестовали": 3851,
      "температура": 3852,
      "огонь": 3853,
      "цем": 3854,
      "рах": 3855,
      "ваны": 3856,
      "чена": 3857,
      "заботи": 3858,
      "мест": 3859,
      "проф": 3860,
      "курт": 3861,
      "столом": 3862,
      "чаще": 3863,
      "бар": 3864,
      "молодой": 3865,
      "семьёй": 3866,
      "ванну": 3867,
      "поставил": 3868,
      "попробуй": 3869,
      "брю": 3870,
      "получше": 3871,
      "девя": 3872,
      "бегать": 3873,
      "верните": 3874,
      "работой": 3875,
      "уйдёт": 3876,
      "ездили": 3877,
      "учил": 3878,
      "покаже": 3879,
      "потеряла": 3880,
      "совета": 3881,
      "класс": 3882,
      "познакомиться": 3883,
      "толсты": 3884,
      "картину": 3885,
      "остальные": 3886,
      "успоко": 3887,
      "вместо": 3888,
      "лка": 3889,
      "узнает": 3890,
      "хол": 3891,
      "тий": 3892,
      "бит": 3893,
      "чуде": 3894,
      "хорошую": 3895,
      "дыха": 3896,
      "поддержи": 3897,
      "клады": 3898,
      "семьи": 3899,
      "покуп": 3900,
      "худож": 3901,
      "младше": 3902,
      "гка": 3903,
      "уто": 3904,
      "фли": 3905,
      "яи": 3906,
      "рован": 3907,
      "ревно": 3908,
      "прочитал": 3909,
      "жите": 3910,
      "отдал": 3911,
      "множество": 3912,
      "уйду": 3913,
      "шутка": 3914,
      "рались": 3915,
      "ждение": 3916,
      "остались": 3917,
      "объяснять": 3918,
      "старая": 3919,
      "старался": 3920,
      "скри": 3921,
      "горжусь": 3922,
      "поступа": 3923,
      "едине": 3924,
      "удивительно": 3925,
      "джексон": 3926,
      "избавиться": 3927,
      "ото": 3928,
      "рно": 3929,
      "сё": 3930,
      "сбежал": 3931,
      "хал": 3932,
      "реку": 3933,
      "песня": 3934,
      "валось": 3935,
      "слегка": 3936,
      "сделано": 3937,
      "плох": 3938,
      "влен": 3939,
      "менты": 3940,
      "совпа": 3941,
      "разговаривает": 3942,
      "заставить": 3943,
      "мальчика": 3944,
      "офици": 3945,
      "уставшим": 3946,
      "тяжело": 3947,
      "приготовил": 3948,
      "корабль": 3949,
      "диване": 3950,
      "ьно": 3951,
      "течение": 3952,
      "канику": 3953,
      "выну": 3954,
      "застен": 3955,
      "проду": 3956,
      "разрешения": 3957,
      "больна": 3958,
      "нного": 3959,
      "правильный": 3960,
      "смешно": 3961,
      "трубку": 3962,
      "настоящий": 3963,
      "рубашка": 3964,
      "конца": 3965,
      "пробовал": 3966,
      "чикаго": 3967,
      "искус": 3968,
      "профес": 3969,
      "ждём": 3970,
      "усы": 3971,
      "наедине": 3972,
      "рился": 3973,
      "выпи": 3974,
      "вызы": 3975,
      "выигры": 3976,
      "провести": 3977,
      "песни": 3978,
      "изме": 3979,
      "памя": 3980,
      "биться": 3981,
      "перестать": 3982,
      "позо": 3983,
      "останавли": 3984,
      "целый": 3985,
      "надеемся": 3986,
      "цио": 3987,
      "слышно": 3988,
      "стоить": 3989,
      "похожа": 3990,
      "анта": 3991,
      "ближай": 3992,
      "груст": 3993,
      "идеи": 3994,
      "научить": 3995,
      "приняли": 3996,
      "женщин": 3997,
      "здорово": 3998,
      "круп": 3999,
      "попробую": 4000,
      "предупредить": 4001,
      "сожалею": 4002,
      "грузовик": 4003,
      "неприятности": 4004,
      "иначе": 4005,
      "гри": 4006,
      "идёте": 4007,
      "лов": 4008,
      "руке": 4009,
      "отказы": 4010,
      "разру": 4011,
      "оставили": 4012,
      "чной": 4013,
      "цель": 4014,
      "правды": 4015,
      "возрасте": 4016,
      "бесполез": 4017,
      "однажды": 4018,
      "заплатили": 4019,
      "ваших": 4020,
      "обещание": 4021,
      "боишься": 4022,
      "позволил": 4023,
      "врачом": 4024,
      "стрит": 4025,
      "кольцо": 4026,
      "смерть": 4027,
      "уча": 4028,
      "нале": 4029,
      "пого": 4030,
      "поле": 4031,
      "потише": 4032,
      "горы": 4033,
      "дот": 4034,
      "общего": 4035,
      "думай": 4036,
      "тельным": 4037,
      "нравилось": 4038,
      "пойма": 4039,
      "начался": 4040,
      "трога": 4041,
      "согласится": 4042,
      "доверяю": 4043,
      "дедушка": 4044,
      "берите": 4045,
      "едят": 4046,
      "сму": 4047,
      "ью": 4048,
      "нако": 4049,
      "поспе": 4050,
      "пройти": 4051,
      "прибли": 4052,
      "приезжа": 4053,
      "пау": 4054,
      "читаешь": 4055,
      "живём": 4056,
      "ненадолго": 4057,
      "закончили": 4058,
      "обожаю": 4059,
      "ключён": 4060,
      "обувь": 4061,
      "помогите": 4062,
      "пенсию": 4063,
      "бля": 4064,
      "опла": 4065,
      "фон": 4066,
      "систе": 4067,
      "били": 4068,
      "верё": 4069,
      "верши": 4070,
      "которым": 4071,
      "звонок": 4072,
      "подождём": 4073,
      "извиняться": 4074,
      "держит": 4075,
      "работали": 4076,
      "студентов": 4077,
      "богатый": 4078,
      "предпочитаю": 4079,
      "полицейский": 4080,
      "обманы": 4081,
      "сахара": 4082,
      "границей": 4083,
      "двоюрод": 4084,
      "зоопарк": 4085,
      "ито": 4086,
      "учё": 4087,
      "рода": 4088,
      "мость": 4089,
      "доказать": 4090,
      "дись": 4091,
      "папа": 4092,
      "чусь": 4093,
      "бана": 4094,
      "вляет": 4095,
      "единственным": 4096,
      "спаль": 4097,
      "ресторане": 4098,
      "тысяч": 4099,
      "настроении": 4100,
      "нг": 4101,
      "чрез": 4102,
      "поже": 4103,
      "пожи": 4104,
      "деше": 4105,
      "ств": 4106,
      "выта": 4107,
      "зат": 4108,
      "жесто": 4109,
      "лесу": 4110,
      "соль": 4111,
      "пришло": 4112,
      "перевести": 4113,
      "нравишься": 4114,
      "играешь": 4115,
      "занятия": 4116,
      "карту": 4117,
      "автобуса": 4118,
      "слушайте": 4119,
      "ждает": 4120,
      "видят": 4121,
      "поставь": 4122,
      "постарайтесь": 4123,
      "громко": 4124,
      "убийство": 4125,
      "электро": 4126,
      "отвезти": 4127,
      "свиде": 4128,
      "чных": 4129,
      "щему": 4130,
      "зага": 4131,
      "чаешь": 4132,
      "карты": 4133,
      "ваются": 4134,
      "обещай": 4135,
      "принесу": 4136,
      "свободен": 4137,
      "довольны": 4138,
      "беспокойся": 4139,
      "купаться": 4140,
      "спу": 4141,
      "покры": 4142,
      "роль": 4143,
      "мото": 4144,
      "сядь": 4145,
      "дому": 4146,
      "стати": 4147,
      "распро": 4148,
      "тельства": 4149,
      "суб": 4150,
      "чала": 4151,
      "пойм": 4152,
      "крова": 4153,
      "клад": 4154,
      "хвати": 4155,
      "ошибал": 4156,
      "опас": 4157,
      "ищешь": 4158,
      "продолжа": 4159,
      "подозревал": 4160,
      "обсудить": 4161,
      "странным": 4162,
      "взглянуть": 4163,
      "поднял": 4164,
      "орга": 4165,
      "очереди": 4166,
      "сахар": 4167,
      "волнует": 4168,
      "университе": 4169,
      "иен": 4170,
      "уг": 4171,
      "повре": 4172,
      "водой": 4173,
      "выбрать": 4174,
      "мет": 4175,
      "отре": 4176,
      "отмени": 4177,
      "газе": 4178,
      "правило": 4179,
      "щаться": 4180,
      "положение": 4181,
      "поняли": 4182,
      "подождал": 4183,
      "готовлю": 4184,
      "птицы": 4185,
      "идиот": 4186,
      "озеро": 4187,
      "справедливо": 4188,
      "экономи": 4189,
      "сс": 4190,
      "уговорил": 4191,
      "удоволь": 4192,
      "ях": 4193,
      "надолго": 4194,
      "поможешь": 4195,
      "прожил": 4196,
      "ходишь": 4197,
      "цена": 4198,
      "позвонили": 4199,
      "парня": 4200,
      "подожду": 4201,
      "умерли": 4202,
      "вкусно": 4203,
      "принесите": 4204,
      "встретимся": 4205,
      "жалею": 4206,
      "приходите": 4207,
      "воскресеньям": 4208,
      "помыть": 4209,
      "интересует": 4210,
      "противо": 4211,
      "биз": 4212,
      "отель": 4213,
      "отеле": 4214,
      "ниже": 4215,
      "сят": 4216,
      "запах": 4217,
      "довал": 4218,
      "веща": 4219,
      "няя": 4220,
      "значения": 4221,
      "отпусти": 4222,
      "цели": 4223,
      "правдой": 4224,
      "подходя": 4225,
      "врачу": 4226,
      "убери": 4227,
      "семью": 4228,
      "медлен": 4229,
      "родилась": 4230,
      "осторожны": 4231,
      "особо": 4232,
      "смысла": 4233,
      "улыбнулся": 4234,
      "поймали": 4235,
      "снега": 4236,
      "разреша": 4237,
      "обнаружил": 4238,
      "потратил": 4239,
      "непросто": 4240,
      "тело": 4241,
      "аллер": 4242,
      "кажу": 4243,
      "тыми": 4244,
      "сестрой": 4245,
      "сидели": 4246,
      "жим": 4247,
      "паци": 4248,
      "переехать": 4249,
      "пусты": 4250,
      "просили": 4251,
      "завтрака": 4252,
      "верите": 4253,
      "проблемой": 4254,
      "сторону": 4255,
      "ждут": 4256,
      "расскаже": 4257,
      "нового": 4258,
      "изменится": 4259,
      "крити": 4260,
      "причин": 4261,
      "вызвать": 4262,
      "прошлым": 4263,
      "останется": 4264,
      "кси": 4265,
      "упа": 4266,
      "нете": 4267,
      "дешё": 4268,
      "доказа": 4269,
      "стола": 4270,
      "мужа": 4271,
      "привлека": 4272,
      "завтраш": 4273,
      "испа": 4274,
      "окру": 4275,
      "звонит": 4276,
      "ищете": 4277,
      "птица": 4278,
      "доверял": 4279,
      "едим": 4280,
      "цент": 4281,
      "пляже": 4282,
      "свадьбу": 4283,
      "взрослый": 4284,
      "вке": 4285,
      "вклю": 4286,
      "джи": 4287,
      "тник": 4288,
      "небольшой": 4289,
      "недалеко": 4290,
      "напол": 4291,
      "послушал": 4292,
      "поужина": 4293,
      "тели": 4294,
      "рак": 4295,
      "рома": 4296,
      "тые": 4297,
      "мец": 4298,
      "лой": 4299,
      "берё": 4300,
      "мым": 4301,
      "шести": 4302,
      "сига": 4303,
      "пит": 4304,
      "сай": 4305,
      "работаем": 4306,
      "работают": 4307,
      "перчат": 4308,
      "которых": 4309,
      "хватил": 4310,
      "хорошей": 4311,
      "поведение": 4312,
      "драться": 4313,
      "попробовал": 4314,
      "казаться": 4315,
      "потря": 4316,
      "мороженое": 4317,
      "зеркал": 4318,
      "мотоци": 4319,
      "сбежать": 4320,
      "чкой": 4321,
      "насту": 4322,
      "стря": 4323,
      "закан": 4324,
      "домом": 4325,
      "вещ": 4326,
      "ветер": 4327,
      "разница": 4328,
      "рассер": 4329,
      "правь": 4330,
      "будущем": 4331,
      "щает": 4332,
      "верится": 4333,
      "стороне": 4334,
      "попросите": 4335,
      "силён": 4336,
      "щался": 4337,
      "фамили": 4338,
      "коробке": 4339,
      "чёрный": 4340,
      "джексо": 4341,
      "электри": 4342,
      "спорта": 4343,
      "лестнице": 4344,
      "талантли": 4345,
      "заканчи": 4346,
      "вши": 4347,
      "зме": 4348,
      "сдал": 4349,
      "сплю": 4350,
      "усили": 4351,
      "торт": 4352,
      "коли": 4353,
      "рила": 4354,
      "вор": 4355,
      "довать": 4356,
      "вите": 4357,
      "мысли": 4358,
      "рука": 4359,
      "играют": 4360,
      "зости": 4361,
      "страна": 4362,
      "страны": 4363,
      "последним": 4364,
      "занимаюсь": 4365,
      "чайно": 4366,
      "обоих": 4367,
      "успеха": 4368,
      "найдём": 4369,
      "американ": 4370,
      "потребо": 4371,
      "везёт": 4372,
      "заснул": 4373,
      "президен": 4374,
      "поблизости": 4375,
      "сходи": 4376,
      "подру": 4377,
      "поцелу": 4378,
      "риск": 4379,
      "выста": 4380,
      "вышли": 4381,
      "дога": 4382,
      "вее": 4383,
      "масло": 4384,
      "таться": 4385,
      "вит": 4386,
      "признал": 4387,
      "отъ": 4388,
      "отцу": 4389,
      "миро": 4390,
      "пережи": 4391,
      "правле": 4392,
      "зов": 4393,
      "поддер": 4394,
      "цией": 4395,
      "собираемся": 4396,
      "второй": 4397,
      "кали": 4398,
      "другому": 4399,
      "потеряли": 4400,
      "согласиться": 4401,
      "благодарен": 4402,
      "поставьте": 4403,
      "злится": 4404,
      "чувствуешь": 4405,
      "народа": 4406,
      "темноты": 4407,
      "понедельникам": 4408,
      "успокои": 4409,
      "вскоре": 4410,
      "урок": 4411,
      "участи": 4412,
      "нера": 4413,
      "построи": 4414,
      "выбрал": 4415,
      "дар": 4416,
      "забо": 4417,
      "нулись": 4418,
      "делала": 4419,
      "интер": 4420,
      "вчераш": 4421,
      "дороги": 4422,
      "положить": 4423,
      "сюр": 4424,
      "трудом": 4425,
      "тянул": 4426,
      "беспокоился": 4427,
      "длинные": 4428,
      "одинако": 4429,
      "приходится": 4430,
      "интересная": 4431,
      "ящике": 4432,
      "жёг": 4433,
      "голосовать": 4434,
      "оружие": 4435,
      "холодильник": 4436,
      "крайней": 4437,
      "увеличи": 4438,
      "вещь": 4439,
      "вная": 4440,
      "некогда": 4441,
      "тепло": 4442,
      "вае": 4443,
      "выми": 4444,
      "ческий": 4445,
      "дото": 4446,
      "дии": 4447,
      "значение": 4448,
      "кусо": 4449,
      "чисто": 4450,
      "нью": 4451,
      "приготови": 4452,
      "руками": 4453,
      "пасса": 4454,
      "разбира": 4455,
      "исче": 4456,
      "смеш": 4457,
      "красное": 4458,
      "убедиться": 4459,
      "девушкой": 4460,
      "попробуем": 4461,
      "ножом": 4462,
      "тюрьмы": 4463,
      "квартиру": 4464,
      "коллек": 4465,
      "овощи": 4466,
      "предпочёл": 4467,
      "итоге": 4468,
      "пассажи": 4469,
      "ам": 4470,
      "жные": 4471,
      "ора": 4472,
      "ссо": 4473,
      "ранен": 4474,
      "голу": 4475,
      "выбира": 4476,
      "выходит": 4477,
      "матер": 4478,
      "такими": 4479,
      "прогуля": 4480,
      "проверить": 4481,
      "делся": 4482,
      "разобра": 4483,
      "скольз": 4484,
      "малы": 4485,
      "мяса": 4486,
      "страи": 4487,
      "обеспокое": 4488,
      "языка": 4489,
      "попросила": 4490,
      "ответственно": 4491,
      "маленькая": 4492,
      "опаздывает": 4493,
      "начнём": 4494,
      "старые": 4495,
      "скольких": 4496,
      "чрезвы": 4497,
      "матерью": 4498,
      "взо": 4499,
      "едите": 4500,
      "энер": 4501,
      "неве": 4502,
      "невероятно": 4503,
      "теори": 4504,
      "кана": 4505,
      "чено": 4506,
      "седь": 4507,
      "мыс": 4508,
      "мых": 4509,
      "стоять": 4510,
      "синий": 4511,
      "перерыв": 4512,
      "помогла": 4513,
      "летрясе": 4514,
      "закончилось": 4515,
      "попробуйте": 4516,
      "землетрясе": 4517,
      "наших": 4518,
      "вызвал": 4519,
      "существует": 4520,
      "колле": 4521,
      "закрой": 4522,
      "многих": 4523,
      "осно": 4524,
      "уши": 4525,
      "услы": 4526,
      "нешь": 4527,
      "кота": 4528,
      "ванной": 4529,
      "реке": 4530,
      "загля": 4531,
      "веди": 4532,
      "просты": 4533,
      "сосре": 4534,
      "прибыл": 4535,
      "гара": 4536,
      "подпи": 4537,
      "лучшее": 4538,
      "пойдёте": 4539,
      "смотришь": 4540,
      "опоздали": 4541,
      "друзьям": 4542,
      "стыдно": 4543,
      "истории": 4544,
      "встречается": 4545,
      "минуты": 4546,
      "сумасшедший": 4547,
      "присматри": 4548,
      "килограм": 4549,
      "костюм": 4550,
      "боятся": 4551,
      "вытащи": 4552,
      "аллергия": 4553,
      "пациен": 4554,
      "пру": 4555,
      "щён": 4556,
      "напугал": 4557,
      "поводу": 4558,
      "мор": 4559,
      "белый": 4560,
      "скамей": 4561,
      "менять": 4562,
      "мини": 4563,
      "тури": 4564,
      "верт": 4565,
      "подписал": 4566,
      "первой": 4567,
      "полчаса": 4568,
      "хие": 4569,
      "держите": 4570,
      "возража": 4571,
      "настоящее": 4572,
      "месяцев": 4573,
      "торопиться": 4574,
      "выстрелил": 4575,
      "согласна": 4576,
      "глубоко": 4577,
      "напоминает": 4578,
      "сосредото": 4579,
      "ане": 4580,
      "зей": 4581,
      "несмотря": 4582,
      "поговорю": 4583,
      "мора": 4584,
      "вано": 4585,
      "чест": 4586,
      "даёт": 4587,
      "значи": 4588,
      "приходил": 4589,
      "люсь": 4590,
      "ешьте": 4591,
      "гражда": 4592,
      "платят": 4593,
      "сыну": 4594,
      "брось": 4595,
      "открыта": 4596,
      "нётся": 4597,
      "закончился": 4598,
      "беспокойтесь": 4599,
      "беспокоится": 4600,
      "важное": 4601,
      "добры": 4602,
      "отправить": 4603,
      "налил": 4604,
      "посетить": 4605,
      "близко": 4606,
      "заслуживает": 4607,
      "зависит": 4608,
      "пирога": 4609,
      "днев": 4610,
      "холодильнике": 4611,
      "согласны": 4612,
      "искать": 4613,
      "жка": 4614,
      "подал": 4615,
      "поможете": 4616,
      "конь": 4617,
      "кошку": 4618,
      "везде": 4619,
      "сестру": 4620,
      "ручка": 4621,
      "зался": 4622,
      "лую": 4623,
      "разные": 4624,
      "лят": 4625,
      "ценю": 4626,
      "тался": 4627,
      "лучшая": 4628,
      "контра": 4629,
      "вернулась": 4630,
      "жизнью": 4631,
      "терпением": 4632,
      "английском": 4633,
      "половину": 4634,
      "одиночку": 4635,
      "америка": 4636,
      "использовать": 4637,
      "преподаватель": 4638,
      "суббо": 4639,
      "джин": 4640,
      "чрезвычайно": 4641,
      "очка": 4642,
      "сша": 4643,
      "сфотографи": 4644,
      "упря": 4645,
      "управля": 4646,
      "гом": 4647,
      "зая": 4648,
      "пропал": 4649,
      "прошла": 4650,
      "нравился": 4651,
      "пожало": 4652,
      "деньгами": 4653,
      "играем": 4654,
      "странное": 4655,
      "встретить": 4656,
      "войны": 4657,
      "боитесь": 4658,
      "громче": 4659,
      "смыс": 4660,
      "информация": 4661,
      "професси": 4662,
      "дешевле": 4663,
      "жди": 4664,
      "оре": 4665,
      "огра": 4666,
      "охра": 4667,
      "неплохо": 4668,
      "нат": 4669,
      "делу": 4670,
      "гов": 4671,
      "выклю": 4672,
      "вещей": 4673,
      "проголо": 4674,
      "музей": 4675,
      "шила": 4676,
      "сах": 4677,
      "надеть": 4678,
      "произвести": 4679,
      "произойти": 4680,
      "ненавидят": 4681,
      "благо": 4682,
      "высокая": 4683,
      "поставить": 4684,
      "лжёт": 4685,
      "надоело": 4686,
      "празд": 4687,
      "совпадение": 4688,
      "озна": 4689,
      "ула": 4690,
      "ухо": 4691,
      "кори": 4692,
      "копи": 4693,
      "нится": 4694,
      "розы": 4695,
      "стрый": 4696,
      "воде": 4697,
      "замок": 4698,
      "мера": 4699,
      "весит": 4700,
      "шее": 4701,
      "старик": 4702,
      "отправля": 4703,
      "микро": 4704,
      "шили": 4705,
      "разли": 4706,
      "ктов": 4707,
      "жали": 4708,
      "плачу": 4709,
      "тратить": 4710,
      "стене": 4711,
      "подарки": 4712,
      "письме": 4713,
      "одет": 4714,
      "цветов": 4715,
      "гордится": 4716,
      "вернёшься": 4717,
      "любое": 4718,
      "гостинице": 4719,
      "настоящему": 4720,
      "предупредил": 4721,
      "невиновен": 4722,
      "приглашение": 4723,
      "метров": 4724,
      "баскетбол": 4725,
      "смысл": 4726,
      "кле": 4727,
      "эн": 4728,
      "давать": 4729,
      "шего": 4730,
      "приём": 4731,
      "пришел": 4732,
      "шишь": 4733,
      "плана": 4734,
      "остаётся": 4735,
      "имеете": 4736,
      "безу": 4737,
      "выйдет": 4738,
      "терпи": 4739,
      "каждую": 4740,
      "возможности": 4741,
      "единственное": 4742,
      "обрати": 4743,
      "яблок": 4744,
      "выключить": 4745,
      "мужчин": 4746,
      "богатым": 4747,
      "крайне": 4748,
      "убраться": 4749,
      "мёртв": 4750,
      "сработал": 4751,
      "чок": 4752,
      "моне": 4753,
      "море": 4754,
      "быв": 4755,
      "запол": 4756,
      "заинтересо": 4757,
      "вечера": 4758,
      "проспал": 4759,
      "раздра": 4760,
      "рассказали": 4761,
      "многому": 4762,
      "стену": 4763,
      "тельное": 4764,
      "каль": 4765,
      "последние": 4766,
      "разговаривали": 4767,
      "разговариваю": 4768,
      "одежда": 4769,
      "принести": 4770,
      "заперта": 4771,
      "владе": 4772,
      "помыл": 4773,
      "удивлена": 4774,
      "определ": 4775,
      "родственники": 4776,
      "зелёный": 4777,
      "бесплатно": 4778,
      "герма": 4779,
      "вдруг": 4780,
      "освобо": 4781,
      "нетерпением": 4782,
      "пови": 4783,
      "похи": 4784,
      "почерк": 4785,
      "тему": 4786,
      "носки": 4787,
      "река": 4788,
      "реки": 4789,
      "хоз": 4790,
      "вень": 4791,
      "провали": 4792,
      "пропустил": 4793,
      "програм": 4794,
      "мнения": 4795,
      "чаете": 4796,
      "шими": 4797,
      "вернём": 4798,
      "переби": 4799,
      "играете": 4800,
      "любила": 4801,
      "сложный": 4802,
      "сыр": 4803,
      "конфе": 4804,
      "изменился": 4805,
      "дурак": 4806,
      "встречались": 4807,
      "советую": 4808,
      "популяр": 4809,
      "кровати": 4810,
      "брас": 4811,
      "вру": 4812,
      "ец": 4813,
      "оке": 4814,
      "тори": 4815,
      "нарко": 4816,
      "нарисо": 4817,
      "послушать": 4818,
      "гора": 4819,
      "восто": 4820,
      "воору": 4821,
      "мов": 4822,
      "лок": 4823,
      "проигры": 4824,
      "мыть": 4825,
      "откло": 4826,
      "друже": 4827,
      "щен": 4828,
      "стья": 4829,
      "имеешь": 4830,
      "убит": 4831,
      "найдёт": 4832,
      "согласились": 4833,
      "хорошего": 4834,
      "опоздаешь": 4835,
      "земли": 4836,
      "разбудить": 4837,
      "выбрали": 4838,
      "выходной": 4839,
      "подумы": 4840,
      "лондо": 4841,
      "встать": 4842,
      "одоб": 4843,
      "эго": 4844,
      "никакой": 4845,
      "кат": 4846,
      "речи": 4847,
      "данный": 4848,
      "допоз": 4849,
      "меди": 4850,
      "таком": 4851,
      "рыбы": 4852,
      "передать": 4853,
      "переезжа": 4854,
      "ским": 4855,
      "нравитесь": 4856,
      "жар": 4857,
      "исклю": 4858,
      "искре": 4859,
      "ственной": 4860,
      "помнил": 4861,
      "пряче": 4862,
      "простил": 4863,
      "планировал": 4864,
      "поезда": 4865,
      "цветок": 4866,
      "успеть": 4867,
      "терпение": 4868,
      "осторожнее": 4869,
      "отличается": 4870,
      "опоздаю": 4871,
      "записку": 4872,
      "откройте": 4873,
      "канадцы": 4874,
      "голодные": 4875,
      "разбудил": 4876,
      "настроение": 4877,
      "включил": 4878,
      "летел": 4879,
      "покрасил": 4880,
      "сюрприз": 4881,
      "допоздна": 4882,
      "аре": 4883,
      "вна": 4884,
      "ела": 4885,
      "усер": 4886,
      "фет": 4887,
      "постри": 4888,
      "каких": 4889,
      "соблю": 4890,
      "чивый": 4891,
      "тринад": 4892,
      "гии": 4893,
      "учится": 4894,
      "скучает": 4895,
      "кредит": 4896,
      "сторон": 4897,
      "языках": 4898,
      "пригласить": 4899,
      "изменилось": 4900,
      "форму": 4901,
      "коробка": 4902,
      "одиночестве": 4903,
      "открой": 4904,
      "повторя": 4905,
      "вежливо": 4906,
      "аэропорту": 4907,
      "требуется": 4908,
      "вмеши": 4909,
      "медленнее": 4910,
      "сигаре": 4911,
      "кстати": 4912,
      "лём": 4913,
      "огром": 4914,
      "умо": 4915,
      "тое": 4916,
      "подели": 4917,
      "рели": 4918,
      "давал": 4919,
      "захочешь": 4920,
      "хотво": 4921,
      "пробыл": 4922,
      "няка": 4923,
      "живет": 4924,
      "обиде": 4925,
      "изи": 4926,
      "путь": 4927,
      "подвал": 4928,
      "обез": 4929,
      "видео": 4930,
      "предлага": 4931,
      "читаете": 4932,
      "зить": 4933,
      "моими": 4934,
      "закончилась": 4935,
      "ожидали": 4936,
      "одея": 4937,
      "успел": 4938,
      "обещания": 4939,
      "высоко": 4940,
      "гитару": 4941,
      "животные": 4942,
      "уезжает": 4943,
      "идут": 4944,
      "зависи": 4945,
      "результаты": 4946,
      "аэропорта": 4947,
      "компьютером": 4948,
      "яиц": 4949,
      "сёстры": 4950,
      "вёр": 4951,
      "вдох": 4952,
      "исти": 4953,
      "лке": 4954,
      "нную": 4955,
      "ощу": 4956,
      "уходите": 4957,
      "небе": 4958,
      "надё": 4959,
      "пото": 4960,
      "горит": 4961,
      "кашля": 4962,
      "даст": 4963,
      "лета": 4964,
      "стоят": 4965,
      "прия": 4966,
      "людь": 4967,
      "расхо": 4968,
      "передай": 4969,
      "переоде": 4970,
      "чься": 4971,
      "щаю": 4972,
      "карман": 4973,
      "зрение": 4974,
      "уроками": 4975,
      "приехала": 4976,
      "свобод": 4977,
      "команды": 4978,
      "записал": 4979,
      "искали": 4980,
      "звук": 4981,
      "назвал": 4982,
      "улыбается": 4983,
      "справиться": 4984,
      "самых": 4985,
      "удобно": 4986,
      "крепко": 4987,
      "касается": 4988,
      "брюки": 4989,
      "людьми": 4990,
      "вход": 4991,
      "нт": 4992,
      "капита": 4993,
      "вей": 4994,
      "види": 4995,
      "винить": 4996,
      "думайте": 4997,
      "также": 4998,
      "коммен": 4999,
      "предоста": 5000,
      "нность": 5001,
      "влетво": 5002,
      "ошибкой": 5003,
      "музыкан": 5004,
      "вечеринка": 5005,
      "форме": 5006,
      "центре": 5007,
      "предупреждал": 5008,
      "интересный": 5009,
      "чувствуете": 5010,
      "поднялся": 5011,
      "позабо": 5012,
      "спокойно": 5013,
      "утрам": 5014,
      "арми": 5015,
      "попасть": 5016,
      "удовлетво": 5017,
      "кормить": 5018,
      "перчатки": 5019,
      "звёз": 5020,
      "пнул": 5021,
      "упор": 5022,
      "ёд": 5023,
      "ности": 5024,
      "роваться": 5025,
      "воспи": 5026,
      "моли": 5027,
      "дольше": 5028,
      "знак": 5029,
      "туи": 5030,
      "пая": 5031,
      "сан": 5032,
      "больной": 5033,
      "нности": 5034,
      "сумо": 5035,
      "возможное": 5036,
      "соверша": 5037,
      "горло": 5038,
      "изучал": 5039,
      "кричал": 5040,
      "тайне": 5041,
      "банке": 5042,
      "одиноко": 5043,
      "библиотеку": 5044,
      "покинул": 5045,
      "ступления": 5046,
      "счастью": 5047,
      "гни": 5048,
      "жки": 5049,
      "звали": 5050,
      "нных": 5051,
      "убор": 5052,
      "поря": 5053,
      "поел": 5054,
      "полага": 5055,
      "рака": 5056,
      "ничто": 5057,
      "новых": 5058,
      "вообра": 5059,
      "душе": 5060,
      "проте": 5061,
      "оттуда": 5062,
      "всерь": 5063,
      "долг": 5064,
      "расписа": 5065,
      "щение": 5066,
      "первая": 5067,
      "дётся": 5068,
      "поймать": 5069,
      "менный": 5070,
      "хватать": 5071,
      "рассказ": 5072,
      "объясню": 5073,
      "предложения": 5074,
      "спали": 5075,
      "японию": 5076,
      "двенадцать": 5077,
      "снять": 5078,
      "катастро": 5079,
      "отношение": 5080,
      "упала": 5081,
      "парковой": 5082,
      "преподаёт": 5083,
      "временно": 5084,
      "законно": 5085,
      "память": 5086,
      "налево": 5087,
      "органи": 5088,
      "участие": 5089,
      "дневник": 5090,
      "профессиона": 5091,
      "зве": 5092,
      "огля": 5093,
      "основа": 5094,
      "сна": 5095,
      "шну": 5096,
      "немец": 5097,
      "наж": 5098,
      "нигде": 5099,
      "вось": 5100,
      "лиш": 5101,
      "рей": 5102,
      "даться": 5103,
      "признать": 5104,
      "отдать": 5105,
      "пикни": 5106,
      "разгово": 5107,
      "граду": 5108,
      "помол": 5109,
      "собаке": 5110,
      "смотрела": 5111,
      "выгляжу": 5112,
      "шкаф": 5113,
      "звоните": 5114,
      "напишите": 5115,
      "наверняка": 5116,
      "считаешь": 5117,
      "обидел": 5118,
      "показалось": 5119,
      "принимаю": 5120,
      "сумка": 5121,
      "заранее": 5122,
      "домашнюю": 5123,
      "курит": 5124,
      "голосовал": 5125,
      "толстый": 5126,
      "зла": 5127,
      "чо": 5128,
      "неправ": 5129,
      "чере": 5130,
      "замени": 5131,
      "вился": 5132,
      "мую": 5133,
      "рукой": 5134,
      "зала": 5135,
      "разрешение": 5136,
      "стихотво": 5137,
      "хорош": 5138,
      "жат": 5139,
      "австралия": 5140,
      "держу": 5141,
      "плохие": 5142,
      "тяжёл": 5143,
      "помощью": 5144,
      "выиграли": 5145,
      "найдёте": 5146,
      "поехала": 5147,
      "здоровья": 5148,
      "добрался": 5149,
      "голодная": 5150,
      "лекарства": 5151,
      "ложиться": 5152,
      "адвокатом": 5153,
      "прислал": 5154,
      "проек": 5155,
      "бассейн": 5156,
      "повторится": 5157,
      "багаж": 5158,
      "услови": 5159,
      "вернёмся": 5160,
      "аги": 5161,
      "ждите": 5162,
      "кнулся": 5163,
      "шом": 5164,
      "напал": 5165,
      "направо": 5166,
      "бояться": 5167,
      "продли": 5168,
      "приди": 5169,
      "туфли": 5170,
      "работ": 5171,
      "расстрое": 5172,
      "переди": 5173,
      "передал": 5174,
      "оставлю": 5175,
      "учит": 5176,
      "испе": 5177,
      "тяжё": 5178,
      "простит": 5179,
      "закончится": 5180,
      "пустили": 5181,
      "поверит": 5182,
      "считают": 5183,
      "дворе": 5184,
      "успех": 5185,
      "задавать": 5186,
      "следовать": 5187,
      "света": 5188,
      "положиться": 5189,
      "причины": 5190,
      "постараюсь": 5191,
      "клиен": 5192,
      "увидев": 5193,
      "каково": 5194,
      "тяжёлы": 5195,
      "ктив": 5196,
      "лгал": 5197,
      "спер": 5198,
      "употре": 5199,
      "рай": 5200,
      "алкого": 5201,
      "ничем": 5202,
      "нога": 5203,
      "вырази": 5204,
      "застря": 5205,
      "хоб": 5206,
      "льные": 5207,
      "дут": 5208,
      "лее": 5209,
      "мые": 5210,
      "пиджа": 5211,
      "изо": 5212,
      "тупой": 5213,
      "сломан": 5214,
      "испугал": 5215,
      "дороже": 5216,
      "рождествен": 5217,
      "япония": 5218,
      "щую": 5219,
      "странные": 5220,
      "животное": 5221,
      "прошлый": 5222,
      "необходимости": 5223,
      "привидения": 5224,
      "секунду": 5225,
      "укусила": 5226,
      "художник": 5227,
      "верёвку": 5228,
      "вшись": 5229,
      "отъез": 5230,
      "анек": 5231,
      "уходит": 5232,
      "ёшься": 5233,
      "недоста": 5234,
      "посы": 5235,
      "тест": 5236,
      "лин": 5237,
      "видит": 5238,
      "семи": 5239,
      "летать": 5240,
      "белая": 5241,
      "соли": 5242,
      "соврал": 5243,
      "ньте": 5244,
      "отказал": 5245,
      "долги": 5246,
      "поздра": 5247,
      "остань": 5248,
      "любимое": 5249,
      "поднима": 5250,
      "простой": 5251,
      "пыты": 5252,
      "позволю": 5253,
      "пойди": 5254,
      "головой": 5255,
      "верьте": 5256,
      "осталась": 5257,
      "наверх": 5258,
      "умная": 5259,
      "старший": 5260,
      "мальчиков": 5261,
      "обещайте": 5262,
      "вниматель": 5263,
      "рёшь": 5264,
      "всюду": 5265,
      "ствуют": 5266,
      "ческие": 5267,
      "постель": 5268,
      "горячий": 5269,
      "прыгнул": 5270,
      "камень": 5271,
      "смотрят": 5272,
      "нуждается": 5273,
      "супермаркет": 5274,
      "бесполезно": 5275,
      "зеркало": 5276,
      "умоля": 5277,
      "всерьёз": 5278,
      "хобби": 5279,
      "арен": 5280,
      "врёт": 5281,
      "ждёшь": 5282,
      "ими": 5283,
      "оказался": 5284,
      "скал": 5285,
      "поедешь": 5286,
      "посмотрю": 5287,
      "радо": 5288,
      "зайти": 5289,
      "веге": 5290,
      "бог": 5291,
      "прочитать": 5292,
      "просыпа": 5293,
      "изобре": 5294,
      "всей": 5295,
      "хороших": 5296,
      "учите": 5297,
      "красивое": 5298,
      "глуп": 5299,
      "поездку": 5300,
      "женщину": 5301,
      "найдёшь": 5302,
      "статью": 5303,
      "остановились": 5304,
      "вниз": 5305,
      "поступить": 5306,
      "марию": 5307,
      "пьяный": 5308,
      "молча": 5309,
      "среди": 5310,
      "спрятался": 5311,
      "порекомен": 5312,
      "позаботиться": 5313,
      "жалуется": 5314,
      "присоединиться": 5315,
      "любви": 5316,
      "контракт": 5317,
      "усердно": 5318,
      "вегетари": 5319,
      "чле": 5320,
      "тек": 5321,
      "бегло": 5322,
      "читься": 5323,
      "приготовить": 5324,
      "ружь": 5325,
      "широ": 5326,
      "большим": 5327,
      "франци": 5328,
      "ждения": 5329,
      "открытой": 5330,
      "обращал": 5331,
      "объя": 5332,
      "обычного": 5333,
      "пытаешься": 5334,
      "спросила": 5335,
      "лёд": 5336,
      "отличная": 5337,
      "уехали": 5338,
      "встаёт": 5339,
      "картина": 5340,
      "счастье": 5341,
      "клуб": 5342,
      "документ": 5343,
      "йоне": 5344,
      "вынужде": 5345,
      "впереди": 5346,
      "оказал": 5347,
      "устрои": 5348,
      "нахожу": 5349,
      "побольше": 5350,
      "подруги": 5351,
      "ницей": 5352,
      "рекомен": 5353,
      "льным": 5354,
      "тировать": 5355,
      "состоит": 5356,
      "столет": 5357,
      "старин": 5358,
      "старую": 5359,
      "отклады": 5360,
      "мное": 5361,
      "преувеличи": 5362,
      "пуль": 5363,
      "пустой": 5364,
      "надежду": 5365,
      "учился": 5366,
      "умеют": 5367,
      "испыты": 5368,
      "ступа": 5369,
      "правил": 5370,
      "занять": 5371,
      "этаже": 5372,
      "кроли": 5373,
      "скучал": 5374,
      "прошлого": 5375,
      "получила": 5376,
      "красне": 5377,
      "начинает": 5378,
      "проводит": 5379,
      "добр": 5380,
      "доверяет": 5381,
      "тюрьму": 5382,
      "знакомых": 5383,
      "компания": 5384,
      "начнётся": 5385,
      "фун": 5386,
      "учеб": 5387,
      "поблагодарил": 5388,
      "подобного": 5389,
      "грязные": 5390,
      "ужасный": 5391,
      "сломана": 5392,
      "слёз": 5393,
      "запреще": 5394,
      "дю": 5395,
      "дку": 5396,
      "кл": 5397,
      "нке": 5398,
      "почитать": 5399,
      "ревну": 5400,
      "доктор": 5401,
      "меша": 5402,
      "сест": 5403,
      "дились": 5404,
      "мусор": 5405,
      "нько": 5406,
      "чаем": 5407,
      "бара": 5408,
      "мяг": 5409,
      "цену": 5410,
      "подчи": 5411,
      "страхо": 5412,
      "стут": 5413,
      "вное": 5414,
      "враг": 5415,
      "пьёшь": 5416,
      "слад": 5417,
      "заплакал": 5418,
      "заставили": 5419,
      "мальчики": 5420,
      "великоле": 5421,
      "вернётесь": 5422,
      "внизу": 5423,
      "готовиться": 5424,
      "продавать": 5425,
      "прекрасный": 5426,
      "возвращайся": 5427,
      "опаздывать": 5428,
      "заставляй": 5429,
      "свободное": 5430,
      "закройте": 5431,
      "двоюро": 5432,
      "плыть": 5433,
      "подробности": 5434,
      "покончил": 5435,
      "замёр": 5436,
      "белое": 5437,
      "гры": 5438,
      "спусти": 5439,
      "схожу": 5440,
      "шный": 5441,
      "нашим": 5442,
      "моря": 5443,
      "стано": 5444,
      "число": 5445,
      "признаю": 5446,
      "приехать": 5447,
      "пише": 5448,
      "пистолет": 5449,
      "друж": 5450,
      "испуга": 5451,
      "звони": 5452,
      "напиши": 5453,
      "следующие": 5454,
      "объяснение": 5455,
      "ждала": 5456,
      "встречаться": 5457,
      "увидела": 5458,
      "желания": 5459,
      "обуви": 5460,
      "магазинам": 5461,
      "лошади": 5462,
      "помешал": 5463,
      "доброво": 5464,
      "жаловаться": 5465,
      "журнал": 5466,
      "мороженого": 5467,
      "фрукты": 5468,
      "образом": 5469,
      "подозри": 5470,
      "подружи": 5471,
      "кусочек": 5472,
      "гне": 5473,
      "ию": 5474,
      "увидели": 5475,
      "юб": 5476,
      "неожида": 5477,
      "районе": 5478,
      "дед": 5479,
      "лице": 5480,
      "вышло": 5481,
      "ческая": 5482,
      "мел": 5483,
      "маша": 5484,
      "прощу": 5485,
      "безна": 5486,
      "отдай": 5487,
      "бить": 5488,
      "передайте": 5489,
      "позвал": 5490,
      "поздоро": 5491,
      "любили": 5492,
      "возник": 5493,
      "таль": 5494,
      "лучшего": 5495,
      "заняло": 5496,
      "спишь": 5497,
      "вления": 5498,
      "болел": 5499,
      "следующим": 5500,
      "считаете": 5501,
      "закрыты": 5502,
      "починил": 5503,
      "концер": 5504,
      "желаю": 5505,
      "мужчину": 5506,
      "аварию": 5507,
      "девочки": 5508,
      "мечты": 5509,
      "квартире": 5510,
      "несчастный": 5511,
      "какова": 5512,
      "миллио": 5513,
      "самолёте": 5514,
      "перезвоню": 5515,
      "способен": 5516,
      "ответственность": 5517,
      "седьмого": 5518,
      "означает": 5519,
      "лгать": 5520,
      "оправда": 5521,
      "тёт": 5522,
      "услу": 5523,
      "фри": 5524,
      "ённо": 5525,
      "настроен": 5526,
      "поможем": 5527,
      "ровно": 5528,
      "вато": 5529,
      "бывают": 5530,
      "листья": 5531,
      "выле": 5532,
      "льную": 5533,
      "дишься": 5534,
      "чие": 5535,
      "лях": 5536,
      "преда": 5537,
      "занял": 5538,
      "получается": 5539,
      "произошед": 5540,
      "трудный": 5541,
      "подошёл": 5542,
      "идеально": 5543,
      "убежал": 5544,
      "деревне": 5545,
      "другая": 5546,
      "храб": 5547,
      "собственно": 5548,
      "птиц": 5549,
      "принимает": 5550,
      "удивило": 5551,
      "рубашки": 5552,
      "путешествие": 5553,
      "посоветовала": 5554,
      "забывай": 5555,
      "европе": 5556,
      "влюбился": 5557,
      "куртку": 5558,
      "каникулы": 5559,
      "еже": 5560,
      "ил": 5561,
      "юмора": 5562,
      "ясь": 5563,
      "позавтра": 5564,
      "кожа": 5565,
      "рису": 5566,
      "зашёл": 5567,
      "договори": 5568,
      "ложь": 5569,
      "бое": 5570,
      "виа": 5571,
      "сестре": 5572,
      "пейте": 5573,
      "чают": 5574,
      "извести": 5575,
      "тало": 5576,
      "тельной": 5577,
      "позвонит": 5578,
      "палец": 5579,
      "трус": 5580,
      "слушаю": 5581,
      "умру": 5582,
      "читали": 5583,
      "велосипеда": 5584,
      "принесли": 5585,
      "одинок": 5586,
      "встаю": 5587,
      "ошибается": 5588,
      "вшей": 5589,
      "квартира": 5590,
      "чемоданы": 5591,
      "штаны": 5592,
      "инструмен": 5593,
      "клянусь": 5594,
      "картошку": 5595,
      "туалет": 5596,
      "мысль": 5597,
      "искрен": 5598,
      "ата": 5599,
      "ждёте": 5600,
      "схватил": 5601,
      "неделя": 5602,
      "нанять": 5603,
      "наступления": 5604,
      "бые": 5605,
      "выпь": 5606,
      "забор": 5607,
      "завиду": 5608,
      "заменить": 5609,
      "маму": 5610,
      "кусок": 5611,
      "руют": 5612,
      "пеще": 5613,
      "отказаться": 5614,
      "пила": 5615,
      "био": 5616,
      "дняя": 5617,
      "пози": 5618,
      "цатом": 5619,
      "чаль": 5620,
      "вопроса": 5621,
      "встречи": 5622,
      "спите": 5623,
      "звонили": 5624,
      "занимаетесь": 5625,
      "слушаешь": 5626,
      "телевизора": 5627,
      "чувствовать": 5628,
      "ненавидишь": 5629,
      "адвоката": 5630,
      "зовите": 5631,
      "ситуацию": 5632,
      "подроб": 5633,
      "отпуска": 5634,
      "выращи": 5635,
      "бегает": 5636,
      "похудеть": 5637,
      "мобильный": 5638,
      "скрип": 5639,
      "вытащил": 5640,
      "бю": 5641,
      "оцен": 5642,
      "осень": 5643,
      "огро": 5644,
      "пёк": 5645,
      "тные": 5646,
      "уедет": 5647,
      "фла": 5648,
      "чков": 5649,
      "непри": 5650,
      "посвя": 5651,
      "пожениться": 5652,
      "посмотрели": 5653,
      "десе": 5654,
      "лис": 5655,
      "довери": 5656,
      "вица": 5657,
      "ления": 5658,
      "мыш": 5659,
      "стов": 5660,
      "принимал": 5661,
      "живы": 5662,
      "думаем": 5663,
      "большом": 5664,
      "слух": 5665,
      "играла": 5666,
      "циона": 5667,
      "стую": 5668,
      "конверт": 5669,
      "отвезу": 5670,
      "красива": 5671,
      "каждым": 5672,
      "геро": 5673,
      "опоздать": 5674,
      "передви": 5675,
      "девушке": 5676,
      "богата": 5677,
      "поездке": 5678,
      "чувствовала": 5679,
      "находиться": 5680,
      "позволит": 5681,
      "выходных": 5682,
      "бросила": 5683,
      "торта": 5684,
      "отправился": 5685,
      "обсудим": 5686,
      "называть": 5687,
      "сдаст": 5688,
      "сдаться": 5689,
      "кухню": 5690,
      "скрыть": 5691,
      "двумя": 5692,
      "недооце": 5693,
      "вкусный": 5694,
      "информацию": 5695,
      "болезни": 5696,
      "сказанное": 5697,
      "полотенце": 5698,
      "чудес": 5699,
      "распростра": 5700,
      "количество": 5701,
      "комментари": 5702,
      "десерт": 5703,
      "зь": 5704,
      "лже": 5705,
      "сдержал": 5706,
      "понимал": 5707,
      "гой": 5708,
      "чтоб": 5709,
      "стка": 5710,
      "важнее": 5711,
      "выру": 5712,
      "реги": 5713,
      "заду": 5714,
      "духо": 5715,
      "проверил": 5716,
      "беден": 5717,
      "приеду": 5718,
      "рулём": 5719,
      "печа": 5720,
      "пати": 5721,
      "разуме": 5722,
      "разницы": 5723,
      "веря": 5724,
      "насла": 5725,
      "оставайся": 5726,
      "циони": 5727,
      "предска": 5728,
      "собираются": 5729,
      "открыт": 5730,
      "парков": 5731,
      "войне": 5732,
      "прошлое": 5733,
      "пьёте": 5734,
      "победу": 5735,
      "троих": 5736,
      "пытаетесь": 5737,
      "наверху": 5738,
      "заплачет": 5739,
      "ищем": 5740,
      "уронил": 5741,
      "начинать": 5742,
      "братьев": 5743,
      "отличный": 5744,
      "представление": 5745,
      "свете": 5746,
      "тормо": 5747,
      "опоздаете": 5748,
      "погибли": 5749,
      "ошибаетесь": 5750,
      "ситуации": 5751,
      "уснуть": 5752,
      "вокзала": 5753,
      "посадил": 5754,
      "притворя": 5755,
      "приятный": 5756,
      "спустя": 5757,
      "ошибался": 5758,
      "исчез": 5759,
      "сби": 5760,
      "тща": 5761,
      "шён": 5762,
      "наста": 5763,
      "поро": 5764,
      "получ": 5765,
      "поговорили": 5766,
      "пошел": 5767,
      "повсюду": 5768,
      "ковал": 5769,
      "гонку": 5770,
      "стё": 5771,
      "ремон": 5772,
      "доехать": 5773,
      "тим": 5774,
      "лес": 5775,
      "пели": 5776,
      "певец": 5777,
      "пижа": 5778,
      "пароль": 5779,
      "размер": 5780,
      "позвать": 5781,
      "чьи": 5782,
      "пута": 5783,
      "пунк": 5784,
      "завя": 5785,
      "показа": 5786,
      "имена": 5787,
      "проблеме": 5788,
      "достать": 5789,
      "занимаешься": 5790,
      "заднем": 5791,
      "считать": 5792,
      "зрения": 5793,
      "изучает": 5794,
      "испор": 5795,
      "спрашивать": 5796,
      "защищать": 5797,
      "открою": 5798,
      "довольна": 5799,
      "телефоном": 5800,
      "учеников": 5801,
      "тёп": 5802,
      "обращаться": 5803,
      "подобное": 5804,
      "берегу": 5805,
      "вперёд": 5806,
      "ворота": 5807,
      "документы": 5808,
      "кроватью": 5809,
      "супермаркете": 5810,
      "влюблена": 5811,
      "хватило": 5812,
      "коньках": 5813,
      "ружьё": 5814,
      "гнали": 5815,
      "змей": 5816,
      "исте": 5817,
      "спят": 5818,
      "упо": 5819,
      "улуч": 5820,
      "удали": 5821,
      "чник": 5822,
      "ёку": 5823,
      "ненормаль": 5824,
      "напро": 5825,
      "поедете": 5826,
      "качестве": 5827,
      "вора": 5828,
      "водите": 5829,
      "завер": 5830,
      "заклю": 5831,
      "процен": 5832,
      "няется": 5833,
      "диван": 5834,
      "соедин": 5835,
      "придержи": 5836,
      "присни": 5837,
      "руко": 5838,
      "расстрои": 5839,
      "тельны": 5840,
      "оставайтесь": 5841,
      "этими": 5842,
      "стесня": 5843,
      "обеих": 5844,
      "спешить": 5845,
      "зима": 5846,
      "болеет": 5847,
      "салат": 5848,
      "деревя": 5849,
      "провожу": 5850,
      "встретились": 5851,
      "любом": 5852,
      "продаётся": 5853,
      "соседя": 5854,
      "обсуждать": 5855,
      "поцеловала": 5856,
      "ошибаешься": 5857,
      "гресси": 5858,
      "воздух": 5859,
      "камеру": 5860,
      "дорогая": 5861,
      "утверждает": 5862,
      "рисковать": 5863,
      "усилия": 5864,
      "обидеть": 5865,
      "видимо": 5866,
      "сче": 5867,
      "тём": 5868,
      "узнаю": 5869,
      "некуда": 5870,
      "назна": 5871,
      "направля": 5872,
      "направле": 5873,
      "тей": 5874,
      "дения": 5875,
      "рост": 5876,
      "ствую": 5877,
      "выр": 5878,
      "лечь": 5879,
      "сорок": 5880,
      "будиль": 5881,
      "отды": 5882,
      "отпустить": 5883,
      "образо": 5884,
      "избра": 5885,
      "саю": 5886,
      "шар": 5887,
      "купит": 5888,
      "цами": 5889,
      "ответы": 5890,
      "помогло": 5891,
      "врати": 5892,
      "подой": 5893,
      "грустный": 5894,
      "хватало": 5895,
      "улицы": 5896,
      "беспокоить": 5897,
      "продолжил": 5898,
      "написала": 5899,
      "благодарить": 5900,
      "глазами": 5901,
      "прекрасная": 5902,
      "каждого": 5903,
      "прекратить": 5904,
      "спрятаться": 5905,
      "авария": 5906,
      "близне": 5907,
      "острове": 5908,
      "угадай": 5909,
      "бороду": 5910,
      "солдаты": 5911,
      "покупками": 5912,
      "мотоцикл": 5913,
      "фамилия": 5914,
      "построил": 5915,
      "определённо": 5916,
      "нарисовал": 5917,
      "безнадё": 5918,
      "вные": 5919,
      "уходил": 5920,
      "фанта": 5921,
      "неохо": 5922,
      "пои": 5923,
      "пола": 5924,
      "поту": 5925,
      "захотите": 5926,
      "зазвонил": 5927,
      "хок": 5928,
      "доберё": 5929,
      "весной": 5930,
      "пробыть": 5931,
      "бели": 5932,
      "кив": 5933,
      "сими": 5934,
      "чаше": 5935,
      "пакет": 5936,
      "шаг": 5937,
      "шам": 5938,
      "переть": 5939,
      "пустая": 5940,
      "словно": 5941,
      "сделан": 5942,
      "сделана": 5943,
      "дорогие": 5944,
      "молода": 5945,
      "открытым": 5946,
      "следующее": 5947,
      "последней": 5948,
      "казали": 5949,
      "умён": 5950,
      "торго": 5951,
      "уволь": 5952,
      "деревом": 5953,
      "забывайте": 5954,
      "влия": 5955,
      "инструк": 5956,
      "солдат": 5957,
      "золото": 5958,
      "газеты": 5959,
      "амби": 5960,
      "терпится": 5961,
      "наркоти": 5962,
      "агресси": 5963,
      "вдо": 5964,
      "вдвое": 5965,
      "рка": 5966,
      "тёр": 5967,
      "посторон": 5968,
      "тера": 5969,
      "теат": 5970,
      "растут": 5971,
      "моет": 5972,
      "лировать": 5973,
      "мебель": 5974,
      "лову": 5975,
      "жено": 5976,
      "протянул": 5977,
      "бур": 5978,
      "курил": 5979,
      "шем": 5980,
      "избе": 5981,
      "пан": 5982,
      "верят": 5983,
      "гам": 5984,
      "гар": 5985,
      "предал": 5986,
      "плавал": 5987,
      "щик": 5988,
      "щения": 5989,
      "стены": 5990,
      "первое": 5991,
      "даваться": 5992,
      "сыном": 5993,
      "ствовали": 5994,
      "почту": 5995,
      "помни": 5996,
      "нцев": 5997,
      "девушек": 5998,
      "носишь": 5999,
      "рассказала": 6000,
      "рёте": 6001,
      "факт": 6002,
      "привыкла": 6003,
      "начинаются": 6004,
      "свини": 6005,
      "понадобиться": 6006,
      "покупает": 6007,
      "гостиной": 6008,
      "пессими": 6009,
      "клонился": 6010,
      "детях": 6011,
      "бабушки": 6012,
      "интересуется": 6013,
      "апельсины": 6014,
      "группа": 6015,
      "пообедать": 6016,
      "проект": 6017,
      "столица": 6018,
      "письменном": 6019,
      "брасы": 6020,
      "шнурки": 6021,
      "пикник": 6022,
      "брил": 6023,
      "гет": 6024,
      "дню": 6025,
      "ее": 6026,
      "оказалось": 6027,
      "очков": 6028,
      "рён": 6029,
      "сру": 6030,
      "спрошу": 6031,
      "напротив": 6032,
      "послушай": 6033,
      "гори": 6034,
      "гору": 6035,
      "рове": 6036,
      "лица": 6037,
      "захва": 6038,
      "лог": 6039,
      "вило": 6040,
      "нят": 6041,
      "левой": 6042,
      "приез": 6043,
      "сидень": 6044,
      "чашки": 6045,
      "мимо": 6046,
      "обру": 6047,
      "тельна": 6048,
      "передо": 6049,
      "днях": 6050,
      "кер": 6051,
      "лучшие": 6052,
      "трени": 6053,
      "стуют": 6054,
      "ством": 6055,
      "человече": 6056,
      "начало": 6057,
      "броса": 6058,
      "дятся": 6059,
      "опасен": 6060,
      "извинения": 6061,
      "плее": 6062,
      "связи": 6063,
      "шляпе": 6064,
      "уволят": 6065,
      "стях": 6066,
      "весна": 6067,
      "ссия": 6068,
      "бутылки": 6069,
      "пятнадцать": 6070,
      "уволить": 6071,
      "назвали": 6072,
      "встречался": 6073,
      "кармане": 6074,
      "болезнь": 6075,
      "лифт": 6076,
      "стихотворение": 6077,
      "упомя": 6078,
      "ровесни": 6079,
      "описать": 6080,
      "углу": 6081,
      "хнул": 6082,
      "што": 6083,
      "шту": 6084,
      "элис": 6085,
      "набрал": 6086,
      "повы": 6087,
      "погоду": 6088,
      "повыше": 6089,
      "дешь": 6090,
      "депре": 6091,
      "новым": 6092,
      "рим": 6093,
      "морковь": 6094,
      "важный": 6095,
      "вытер": 6096,
      "рейс": 6097,
      "мерт": 6098,
      "ложил": 6099,
      "лье": 6100,
      "марок": 6101,
      "татуи": 6102,
      "няет": 6103,
      "столь": 6104,
      "привле": 6105,
      "избежать": 6106,
      "жной": 6107,
      "верг": 6108,
      "тельные": 6109,
      "суд": 6110,
      "шоки": 6111,
      "лучших": 6112,
      "машин": 6113,
      "страну": 6114,
      "конфет": 6115,
      "готово": 6116,
      "полон": 6117,
      "чувстви": 6118,
      "произошла": 6119,
      "ственный": 6120,
      "письменный": 6121,
      "пустите": 6122,
      "планируем": 6123,
      "легче": 6124,
      "спала": 6125,
      "уроков": 6126,
      "снимите": 6127,
      "иностра": 6128,
      "удачи": 6129,
      "часами": 6130,
      "подозревае": 6131,
      "учительница": 6132,
      "здания": 6133,
      "здании": 6134,
      "сильная": 6135,
      "заслуживаю": 6136,
      "прошлые": 6137,
      "счастливыми": 6138,
      "оставлять": 6139,
      "джону": 6140,
      "счастья": 6141,
      "удивлены": 6142,
      "солнечные": 6143,
      "математике": 6144,
      "симпати": 6145,
      "расслабиться": 6146,
      "напряжён": 6147,
      "двоюродные": 6148,
      "поймёшь": 6149,
      "сосредоточиться": 6150,
      "сестёр": 6151,
      "тщательно": 6152,
      "нными": 6153,
      "пё": 6154,
      "необы": 6155,
      "напа": 6156,
      "носил": 6157,
      "кает": 6158,
      "вании": 6159,
      "мекси": 6160,
      "таки": 6161,
      "вим": 6162,
      "прост": 6163,
      "диа": 6164,
      "отвёз": 6165,
      "пуст": 6166,
      "тратит": 6167,
      "слышишь": 6168,
      "испёк": 6169,
      "шутки": 6170,
      "самоубийство": 6171,
      "молодо": 6172,
      "выглядят": 6173,
      "дверью": 6174,
      "нитесь": 6175,
      "обоим": 6176,
      "поездка": 6177,
      "фотографий": 6178,
      "велико": 6179,
      "коробки": 6180,
      "гостиница": 6181,
      "чёрная": 6182,
      "слушали": 6183,
      "уезжаю": 6184,
      "преподавал": 6185,
      "дедушки": 6186,
      "японский": 6187,
      "волноваться": 6188,
      "сыграть": 6189,
      "преступление": 6190,
      "бананы": 6191,
      "бизне": 6192,
      "сайт": 6193,
      "пассажиров": 6194,
      "услыша": 6195,
      "конфере": 6196,
      "тринадцатом": 6197,
      "астро": 6198,
      "иму": 6199,
      "сп": 6200,
      "непре": 6201,
      "нар": 6202,
      "нала": 6203,
      "поэ": 6204,
      "раст": 6205,
      "ровес": 6206,
      "риску": 6207,
      "завести": 6208,
      "лья": 6209,
      "вину": 6210,
      "дилась": 6211,
      "соби": 6212,
      "мышь": 6213,
      "стану": 6214,
      "привёл": 6215,
      "мило": 6216,
      "преступ": 6217,
      "рассме": 6218,
      "оставила": 6219,
      "дышать": 6220,
      "чное": 6221,
      "судно": 6222,
      "летний": 6223,
      "полный": 6224,
      "смеётся": 6225,
      "открывать": 6226,
      "открывается": 6227,
      "открытку": 6228,
      "напиток": 6229,
      "ненавидел": 6230,
      "простить": 6231,
      "дерев": 6232,
      "спросили": 6233,
      "изменил": 6234,
      "любопы": 6235,
      "идио": 6236,
      "ненавидите": 6237,
      "пойдёмте": 6238,
      "странная": 6239,
      "поднять": 6240,
      "голодна": 6241,
      "ужасное": 6242,
      "скрывает": 6243,
      "заставляйте": 6244,
      "преподавать": 6245,
      "газете": 6246,
      "всякий": 6247,
      "тяжелее": 6248,
      "девяно": 6249,
      "потребовалось": 6250,
      "гараже": 6251,
      "килограмм": 6252,
      "подвале": 6253,
      "пиджак": 6254,
      "ровесник": 6255,
      "зен": 6256,
      "нник": 6257,
      "осуще": 6258,
      "пси": 6259,
      "срок": 6260,
      "уеду": 6261,
      "физи": 6262,
      "чке": 6263,
      "независи": 6264,
      "подруг": 6265,
      "рам": 6266,
      "быстрый": 6267,
      "чества": 6268,
      "честен": 6269,
      "ческую": 6270,
      "реди": 6271,
      "забудем": 6272,
      "мень": 6273,
      "тан": 6274,
      "стари": 6275,
      "силы": 6276,
      "падает": 6277,
      "садитесь": 6278,
      "больницы": 6279,
      "ходим": 6280,
      "раскры": 6281,
      "оставался": 6282,
      "пуго": 6283,
      "просите": 6284,
      "вариан": 6285,
      "почте": 6286,
      "полуночи": 6287,
      "началось": 6288,
      "понимать": 6289,
      "списы": 6290,
      "потерять": 6291,
      "трудности": 6292,
      "серде": 6293,
      "держись": 6294,
      "льзовался": 6295,
      "благодар": 6296,
      "кормил": 6297,
      "земле": 6298,
      "соседи": 6299,
      "секрета": 6300,
      "молния": 6301,
      "признателен": 6302,
      "состояние": 6303,
      "достиг": 6304,
      "оставляй": 6305,
      "ужасная": 6306,
      "остров": 6307,
      "показывать": 6308,
      "пенсии": 6309,
      "чтение": 6310,
      "танцует": 6311,
      "кивнул": 6312,
      "гетти": 6313,
      "имуще": 6314,
      "арах": 6315,
      "лгу": 6316,
      "ограни": 6317,
      "узнаем": 6318,
      "чне": 6319,
      "негде": 6320,
      "нескольких": 6321,
      "помедленнее": 6322,
      "розо": 6323,
      "реально": 6324,
      "забро": 6325,
      "мело": 6326,
      "визи": 6327,
      "нятся": 6328,
      "сока": 6329,
      "меняется": 6330,
      "луна": 6331,
      "парик": 6332,
      "разреши": 6333,
      "садись": 6334,
      "расстал": 6335,
      "просит": 6336,
      "чного": 6337,
      "деньгах": 6338,
      "жается": 6339,
      "жают": 6340,
      "ступил": 6341,
      "почта": 6342,
      "красные": 6343,
      "попрошу": 6344,
      "долгое": 6345,
      "никами": 6346,
      "обожает": 6347,
      "происше": 6348,
      "английского": 6349,
      "сомнения": 6350,
      "сумке": 6351,
      "интересным": 6352,
      "каждому": 6353,
      "прекратите": 6354,
      "картины": 6355,
      "убийца": 6356,
      "арестован": 6357,
      "потребу": 6358,
      "сообщить": 6359,
      "времена": 6360,
      "припарковаться": 6361,
      "сравни": 6362,
      "разозлился": 6363,
      "отриц": 6364,
      "оптимисти": 6365,
      "подписы": 6366,
      "возражаете": 6367,
      "коричне": 6368,
      "тяжёлый": 6369,
      "будильник": 6370,
      "арахис": 6371,
      "включён": 6372,
      "сдать": 6373,
      "сдержать": 6374,
      "ушел": 6375,
      "нется": 6376,
      "нашел": 6377,
      "ничему": 6378,
      "госпо": 6379,
      "родной": 6380,
      "вазу": 6381,
      "бый": 6382,
      "выносить": 6383,
      "ческой": 6384,
      "заря": 6385,
      "загру": 6386,
      "менее": 6387,
      "масла": 6388,
      "берём": 6389,
      "разницу": 6390,
      "лягу": 6391,
      "плаче": 6392,
      "ёмся": 6393,
      "сном": 6394,
      "книге": 6395,
      "обедать": 6396,
      "консер": 6397,
      "строили": 6398,
      "пала": 6399,
      "пойдите": 6400,
      "врачи": 6401,
      "одновременно": 6402,
      "молодая": 6403,
      "остановке": 6404,
      "попросит": 6405,
      "пятьдесят": 6406,
      "гордился": 6407,
      "вечеринки": 6408,
      "форте": 6409,
      "хорошем": 6410,
      "птицу": 6411,
      "уехала": 6412,
      "дрем": 6413,
      "соседей": 6414,
      "акку": 6415,
      "желание": 6416,
      "угодить": 6417,
      "написано": 6418,
      "обвинили": 6419,
      "заснуть": 6420,
      "нуждаюсь": 6421,
      "полезно": 6422,
      "заболел": 6423,
      "операция": 6424,
      "наденьте": 6425,
      "наказан": 6426,
      "погоды": 6427,
      "потрясаю": 6428,
      "поддержку": 6429,
      "скамейке": 6430,
      "джинсы": 6431,
      "восьми": 6432,
      "запрещено": 6433,
      "соседями": 6434,
      "театр": 6435,
      "сиденье": 6436,
      "пёс": 6437,
      "отрицал": 6438,
      "жную": 6439,
      "оли": 6440,
      "ётесь": 6441,
      "необычно": 6442,
      "нажал": 6443,
      "покер": 6444,
      "нин": 6445,
      "роз": 6446,
      "риться": 6447,
      "выжил": 6448,
      "выходил": 6449,
      "забра": 6450,
      "дипло": 6451,
      "соз": 6452,
      "приро": 6453,
      "пило": 6454,
      "пиши": 6455,
      "туру": 6456,
      "всту": 6457,
      "шается": 6458,
      "располо": 6459,
      "нравилась": 6460,
      "церк": 6461,
      "купишь": 6462,
      "подве": 6463,
      "подвез": 6464,
      "брату": 6465,
      "пыль": 6466,
      "умел": 6467,
      "спагетти": 6468,
      "ствии": 6469,
      "спел": 6470,
      "фель": 6471,
      "пытаемся": 6472,
      "языки": 6473,
      "предложить": 6474,
      "сердится": 6475,
      "ожидать": 6476,
      "улица": 6477,
      "заплачу": 6478,
      "факты": 6479,
      "осторожна": 6480,
      "повесели": 6481,
      "увидит": 6482,
      "землю": 6483,
      "возвращается": 6484,
      "возвращайтесь": 6485,
      "погибло": 6486,
      "ческих": 6487,
      "апте": 6488,
      "колено": 6489,
      "сообщите": 6490,
      "вежлив": 6491,
      "двигатель": 6492,
      "пообедал": 6493,
      "насеко": 6494,
      "слёзы": 6495,
      "застенчи": 6496,
      "система": 6497,
      "обезья": 6498,
      "татуиров": 6499,
      "врас": 6500,
      "здра": 6501,
      "спя": 6502,
      "послу": 6503,
      "рав": 6504,
      "коми": 6505,
      "ровала": 6506,
      "каков": 6507,
      "вошли": 6508,
      "ваешься": 6509,
      "выхожу": 6510,
      "выучил": 6511,
      "дак": 6512,
      "дашь": 6513,
      "сядем": 6514,
      "засыпа": 6515,
      "запереть": 6516,
      "дови": 6517,
      "мето": 6518,
      "бов": 6519,
      "север": 6520,
      "дур": 6521,
      "музе": 6522,
      "больным": 6523,
      "купите": 6524,
      "возмо": 6525,
      "надежда": 6526,
      "крыше": 6527,
      "красо": 6528,
      "шутку": 6529,
      "дождей": 6530,
      "имся": 6531,
      "последняя": 6532,
      "ехали": 6533,
      "головы": 6534,
      "стоимость": 6535,
      "началась": 6536,
      "подольше": 6537,
      "рюк": 6538,
      "холодный": 6539,
      "пытайся": 6540,
      "приняла": 6541,
      "солнца": 6542,
      "скло": 6543,
      "длинный": 6544,
      "продолжай": 6545,
      "написали": 6546,
      "здоров": 6547,
      "следовал": 6548,
      "возьм": 6549,
      "свечи": 6550,
      "встретила": 6551,
      "шанса": 6552,
      "причину": 6553,
      "опоздала": 6554,
      "держался": 6555,
      "казывать": 6556,
      "дураком": 6557,
      "корабле": 6558,
      "специали": 6559,
      "привидение": 6560,
      "притворился": 6561,
      "сознание": 6562,
      "ногти": 6563,
      "оконча": 6564,
      "дыхание": 6565,
      "трогай": 6566,
      "теория": 6567,
      "арестуют": 6568,
      "вмешиваться": 6569,
      "вынужден": 6570,
      "двоюродный": 6571,
      "посторонней": 6572,
      "растёт": 6573,
      "врасплох": 6574,
      "афри": 6575,
      "авиа": 6576,
      "драз": 6577,
      "едой": 6578,
      "опубли": 6579,
      "ртво": 6580,
      "смени": 6581,
      "сдался": 6582,
      "упра": 6583,
      "указал": 6584,
      "чна": 6585,
      "член": 6586,
      "ялась": 6587,
      "пога": 6588,
      "нисколько": 6589,
      "честный": 6590,
      "ребя": 6591,
      "заказ": 6592,
      "заподоз": 6593,
      "хода": 6594,
      "местно": 6595,
      "дует": 6596,
      "созда": 6597,
      "чисты": 6598,
      "жива": 6599,
      "пира": 6600,
      "времен": 6601,
      "лых": 6602,
      "правде": 6603,
      "требо": 6604,
      "тельного": 6605,
      "учили": 6606,
      "уметь": 6607,
      "чался": 6608,
      "льного": 6609,
      "началу": 6610,
      "карта": 6611,
      "выглядеть": 6612,
      "списка": 6613,
      "интересное": 6614,
      "заметили": 6615,
      "дались": 6616,
      "закрывается": 6617,
      "плевать": 6618,
      "фай": 6619,
      "половина": 6620,
      "свободна": 6621,
      "глазах": 6622,
      "экспер": 6623,
      "понадобилось": 6624,
      "спрашивай": 6625,
      "кричать": 6626,
      "злишься": 6627,
      "осозна": 6628,
      "сумки": 6629,
      "виноваты": 6630,
      "девочек": 6631,
      "сильным": 6632,
      "голодны": 6633,
      "ужинать": 6634,
      "компанию": 6635,
      "станцию": 6636,
      "темноте": 6637,
      "галстуке": 6638,
      "плакала": 6639,
      "курс": 6640,
      "наблюдал": 6641,
      "романти": 6642,
      "группе": 6643,
      "поправился": 6644,
      "лодка": 6645,
      "заблудился": 6646,
      "практически": 6647,
      "отставку": 6648,
      "заботиться": 6649,
      "центр": 6650,
      "приготовила": 6651,
      "сработало": 6652,
      "заинтересован": 6653,
      "соблюдать": 6654,
      "воображение": 6655,
      "доброволь": 6656,
      "выпьем": 6657,
      "скрипке": 6658,
      "потребуется": 6659,
      "дная": 6660,
      "ист": 6661,
      "отой": 6662,
      "осве": 6663,
      "неф": 6664,
      "небольшая": 6665,
      "нанял": 6666,
      "годы": 6667,
      "мокра": 6668,
      "менно": 6669,
      "лотере": 6670,
      "мамы": 6671,
      "машу": 6672,
      "проиграл": 6673,
      "бер": 6674,
      "сошёл": 6675,
      "сокра": 6676,
      "отменить": 6677,
      "передумал": 6678,
      "тран": 6679,
      "цеп": 6680,
      "суль": 6681,
      "степе": 6682,
      "сложил": 6683,
      "сложная": 6684,
      "ответь": 6685,
      "ответили": 6686,
      "щается": 6687,
      "ствием": 6688,
      "имеют": 6689,
      "собиралась": 6690,
      "смерт": 6691,
      "полудня": 6692,
      "понятно": 6693,
      "шкафу": 6694,
      "подождёт": 6695,
      "герой": 6696,
      "красного": 6697,
      "одета": 6698,
      "умные": 6699,
      "умрёт": 6700,
      "задавал": 6701,
      "изучаю": 6702,
      "связь": 6703,
      "обещали": 6704,
      "отличить": 6705,
      "опоздаем": 6706,
      "устано": 6707,
      "домашним": 6708,
      "америку": 6709,
      "америке": 6710,
      "уезжаем": 6711,
      "ошибаюсь": 6712,
      "уставший": 6713,
      "шокола": 6714,
      "молодым": 6715,
      "нервничает": 6716,
      "покрасить": 6717,
      "самым": 6718,
      "покончить": 6719,
      "ландии": 6720,
      "глупый": 6721,
      "прогулку": 6722,
      "приезжает": 6723,
      "заткни": 6724,
      "отменили": 6725,
      "германии": 6726,
      "подумываю": 6727,
      "одеяло": 6728,
      "расходы": 6729,
      "переодеться": 6730,
      "напрокат": 6731,
      "процентов": 6732,
      "любопытно": 6733,
      "спуска": 6734,
      "невы": 6735,
      "нечем": 6736,
      "наизу": 6737,
      "пома": 6738,
      "попы": 6739,
      "покля": 6740,
      "поедим": 6741,
      "кос": 6742,
      "ниц": 6743,
      "рии": 6744,
      "хой": 6745,
      "метра": 6746,
      "желе": 6747,
      "жерт": 6748,
      "семей": 6749,
      "няли": 6750,
      "диете": 6751,
      "дицио": 6752,
      "бесе": 6753,
      "совой": 6754,
      "сотруд": 6755,
      "кучу": 6756,
      "курение": 6757,
      "чиком": 6758,
      "привести": 6759,
      "сидите": 6760,
      "разы": 6761,
      "скому": 6762,
      "верхом": 6763,
      "трижды": 6764,
      "трата": 6765,
      "первого": 6766,
      "действовать": 6767,
      "кондицио": 6768,
      "спаса": 6769,
      "пойму": 6770,
      "влены": 6771,
      "подарили": 6772,
      "звоню": 6773,
      "напишу": 6774,
      "груб": 6775,
      "семнадцать": 6776,
      "гений": 6777,
      "автобусной": 6778,
      "слушаете": 6779,
      "виногра": 6780,
      "выиграла": 6781,
      "медсестра": 6782,
      "родились": 6783,
      "закрыт": 6784,
      "гордиться": 6785,
      "нарушил": 6786,
      "музыкаль": 6787,
      "принес": 6788,
      "пальцев": 6789,
      "делить": 6790,
      "прочти": 6791,
      "записы": 6792,
      "выключите": 6793,
      "взгляд": 6794,
      "встали": 6795,
      "мечтал": 6796,
      "черда": 6797,
      "бному": 6798,
      "глупость": 6799,
      "бензин": 6800,
      "убрался": 6801,
      "апельсин": 6802,
      "ленивый": 6803,
      "ферме": 6804,
      "повредил": 6805,
      "змея": 6806,
      "взор": 6807,
      "употребля": 6808,
      "получал": 6809,
      "церкви": 6810,
      "наизусть": 6811,
      "вё": 6812,
      "вший": 6813,
      "клет": 6814,
      "твер": 6815,
      "ффе": 6816,
      "чными": 6817,
      "накажу": 6818,
      "поль": 6819,
      "попить": 6820,
      "подержа": 6821,
      "дель": 6822,
      "мокры": 6823,
      "выки": 6824,
      "вызо": 6825,
      "давление": 6826,
      "зато": 6827,
      "зака": 6828,
      "заключён": 6829,
      "докто": 6830,
      "пропа": 6831,
      "сою": 6832,
      "шель": 6833,
      "руга": 6834,
      "пев": 6835,
      "песен": 6836,
      "отправь": 6837,
      "садиться": 6838,
      "превос": 6839,
      "вредно": 6840,
      "главный": 6841,
      "надежды": 6842,
      "словами": 6843,
      "взволно": 6844,
      "читай": 6845,
      "смело": 6846,
      "вернули": 6847,
      "зубному": 6848,
      "спиной": 6849,
      "разговаривай": 6850,
      "виновен": 6851,
      "носите": 6852,
      "ищут": 6853,
      "плечо": 6854,
      "писатель": 6855,
      "работала": 6856,
      "скорей": 6857,
      "увидишь": 6858,
      "приходилось": 6859,
      "тысяча": 6860,
      "секреты": 6861,
      "быстрей": 6862,
      "библиотека": 6863,
      "подрост": 6864,
      "грязная": 6865,
      "покинуть": 6866,
      "обманул": 6867,
      "младший": 6868,
      "оставляйте": 6869,
      "обнаружили": 6870,
      "алиби": 6871,
      "пробовали": 6872,
      "берусь": 6873,
      "выбраться": 6874,
      "знаменитым": 6875,
      "появился": 6876,
      "похудел": 6877,
      "прогули": 6878,
      "приблизи": 6879,
      "разобраться": 6880,
      "заглянул": 6881,
      "субботу": 6882,
      "орехи": 6883,
      "хозяй": 6884,
      "капитан": 6885,
      "недооцени": 6886,
      "чашечку": 6887,
      "чердаке": 6888,
      "гнал": 6889,
      "дзи": 6890,
      "опыта": 6891,
      "рёл": 6892,
      "свари": 6893,
      "участ": 6894,
      "хла": 6895,
      "хладно": 6896,
      "эффе": 6897,
      "нений": 6898,
      "несправедливо": 6899,
      "незаконно": 6900,
      "наме": 6901,
      "народ": 6902,
      "ничать": 6903,
      "водил": 6904,
      "выздоро": 6905,
      "выбросить": 6906,
      "рения": 6907,
      "договор": 6908,
      "вела": 6909,
      "сель": 6910,
      "куль": 6911,
      "отне": 6912,
      "зале": 6913,
      "стил": 6914,
      "стихи": 6915,
      "бабо": 6916,
      "плаваю": 6917,
      "перегово": 6918,
      "цене": 6919,
      "жайте": 6920,
      "подра": 6921,
      "трево": 6922,
      "пали": 6923,
      "вздрем": 6924,
      "занятий": 6925,
      "стоил": 6926,
      "вьев": 6927,
      "красиво": 6928,
      "красивой": 6929,
      "ближе": 6930,
      "идею": 6931,
      "занимает": 6932,
      "объе": 6933,
      "плохом": 6934,
      "предложили": 6935,
      "поездки": 6936,
      "заданием": 6937,
      "читала": 6938,
      "сними": 6939,
      "гордимся": 6940,
      "альбом": 6941,
      "следующего": 6942,
      "фак": 6943,
      "класси": 6944,
      "любопыт": 6945,
      "гостиницу": 6946,
      "актёр": 6947,
      "сообрази": 6948,
      "сообщения": 6949,
      "попали": 6950,
      "пятницу": 6951,
      "выросли": 6952,
      "назвать": 6953,
      "пользуюсь": 6954,
      "добавить": 6955,
      "холодная": 6956,
      "сыграем": 6957,
      "отрицать": 6958,
      "похороны": 6959,
      "горел": 6960,
      "обманывать": 6961,
      "наполнил": 6962,
      "президент": 6963,
      "коллекциони": 6964,
      "граждан": 6965,
      "упорно": 6966,
      "вегетариа": 6967,
      "биологи": 6968,
      "амбицио": 6969,
      "брилли": 6970,
      "непременно": 6971,
      "накажут": 6972,
      "итали": 6973,
      "нан": 6974,
      "поделать": 6975,
      "поторопи": 6976,
      "поначалу": 6977,
      "раб": 6978,
      "дется": 6979,
      "кости": 6980,
      "ковать": 6981,
      "ноут": 6982,
      "номере": 6983,
      "гостей": 6984,
      "моз": 6985,
      "ваетесь": 6986,
      "бывать": 6987,
      "лист": 6988,
      "замол": 6989,
      "вин": 6990,
      "душа": 6991,
      "сож": 6992,
      "шевели": 6993,
      "старой": 6994,
      "отпустил": 6995,
      "чайте": 6996,
      "пищу": 6997,
      "зало": 6998,
      "обнял": 6999,
      "обрёл": 7000,
      "свое": 7001,
      "стить": 7002,
      "передумать": 7003,
      "подви": 7004,
      "лучшим": 7005,
      "стер": 7006,
      "бойся": 7007,
      "страх": 7008,
      "шучу": 7009,
      "позвонила": 7010,
      "голове": 7011,
      "смен": 7012,
      "молоток": 7013,
      "открывай": 7014,
      "груди": 7015,
      "разговаривайте": 7016,
      "языком": 7017,
      "деревьев": 7018,
      "закрыта": 7019,
      "умным": 7020,
      "племя": 7021,
      "разор": 7022,
      "иностран": 7023,
      "одолжи": 7024,
      "осторожным": 7025,
      "подумала": 7026,
      "серьё": 7027,
      "рубашке": 7028,
      "бался": 7029,
      "запира": 7030,
      "заслужил": 7031,
      "встала": 7032,
      "уезжаешь": 7033,
      "повторить": 7034,
      "яйцо": 7035,
      "отпуске": 7036,
      "остальных": 7037,
      "временем": 7038,
      "пускать": 7039,
      "марки": 7040,
      "растения": 7041,
      "клубе": 7042,
      "глазом": 7043,
      "нервничал": 7044,
      "миллион": 7045,
      "презира": 7046,
      "праздно": 7047,
      "отложить": 7048,
      "грустная": 7049,
      "пожертво": 7050,
      "удовольствие": 7051,
      "заканчивается": 7052,
      "праздну": 7053,
      "проигрывать": 7054,
      "дружелюб": 7055,
      "сумочку": 7056,
      "порядок": 7057,
      "тётя": 7058,
      "договорились": 7059,
      "настаи": 7060,
      "направлении": 7061,
      "упраж": 7062,
      "гно": 7063,
      "дт": 7064,
      "зм": 7065,
      "кей": 7066,
      "сны": 7067,
      "фей": 7068,
      "яр": 7069,
      "неправду": 7070,
      "навсегда": 7071,
      "поговори": 7072,
      "поменьше": 7073,
      "кома": 7074,
      "вошла": 7075,
      "запри": 7076,
      "застре": 7077,
      "бод": 7078,
      "бую": 7079,
      "нья": 7080,
      "прилично": 7081,
      "приготовлю": 7082,
      "сижу": 7083,
      "обдумать": 7084,
      "парт": 7085,
      "разрешил": 7086,
      "рым": 7087,
      "рят": 7088,
      "расстраи": 7089,
      "многого": 7090,
      "тельств": 7091,
      "слухи": 7092,
      "дым": 7093,
      "жаться": 7094,
      "подгото": 7095,
      "страдает": 7096,
      "завтраком": 7097,
      "исследо": 7098,
      "предмет": 7099,
      "читайте": 7100,
      "летние": 7101,
      "открыты": 7102,
      "мента": 7103,
      "каждые": 7104,
      "победили": 7105,
      "ошибся": 7106,
      "остановка": 7107,
      "богате": 7108,
      "заставила": 7109,
      "скром": 7110,
      "обязаны": 7111,
      "ждался": 7112,
      "игрок": 7113,
      "одолжу": 7114,
      "повесил": 7115,
      "спрашивайте": 7116,
      "маленьким": 7117,
      "опоздание": 7118,
      "крик": 7119,
      "шансов": 7120,
      "известный": 7121,
      "соседней": 7122,
      "дорогое": 7123,
      "пиано": 7124,
      "случается": 7125,
      "признался": 7126,
      "убийстве": 7127,
      "смысле": 7128,
      "спокойствие": 7129,
      "уничто": 7130,
      "свадьбе": 7131,
      "замечательный": 7132,
      "информации": 7133,
      "озере": 7134,
      "жаловался": 7135,
      "волновался": 7136,
      "найдут": 7137,
      "требует": 7138,
      "многим": 7139,
      "поменять": 7140,
      "отрица": 7141,
      "снегом": 7142,
      "оплачи": 7143,
      "отреаги": 7144,
      "поужинать": 7145,
      "прогуляться": 7146,
      "землетрясение": 7147,
      "очках": 7148,
      "владеет": 7149,
      "религи": 7150,
      "стёг": 7151,
      "берёмся": 7152,
      "фортепиано": 7153,
      "джен": 7154,
      "ить": 7155,
      "огор": 7156,
      "ссы": 7157,
      "тль": 7158,
      "хих": 7159,
      "неле": 7160,
      "накры": 7161,
      "поп": 7162,
      "поплавать": 7163,
      "подумай": 7164,
      "покрасне": 7165,
      "деда": 7166,
      "ванием": 7167,
      "дадим": 7168,
      "заеду": 7169,
      "доби": 7170,
      "вете": 7171,
      "ведите": 7172,
      "лопа": 7173,
      "желез": 7174,
      "седа": 7175,
      "тился": 7176,
      "берёт": 7177,
      "соро": 7178,
      "собы": 7179,
      "принц": 7180,
      "отчасти": 7181,
      "рыва": 7182,
      "бая": 7183,
      "перео": 7184,
      "перезвонить": 7185,
      "пуста": 7186,
      "цере": 7187,
      "жаре": 7188,
      "страницу": 7189,
      "обедал": 7190,
      "блестя": 7191,
      "жных": 7192,
      "открывайте": 7193,
      "решено": 7194,
      "взяла": 7195,
      "женится": 7196,
      "храни": 7197,
      "хранить": 7198,
      "показали": 7199,
      "маленькой": 7200,
      "прочли": 7201,
      "новили": 7202,
      "открове": 7203,
      "игрушки": 7204,
      "заставляет": 7205,
      "заслуживаешь": 7206,
      "попала": 7207,
      "лошадей": 7208,
      "дневно": 7209,
      "закончу": 7210,
      "пользуется": 7211,
      "воздуха": 7212,
      "занимались": 7213,
      "стрелять": 7214,
      "невиновно": 7215,
      "новень": 7216,
      "шпион": 7217,
      "бедным": 7218,
      "утонул": 7219,
      "выигрывает": 7220,
      "позови": 7221,
      "успокоиться": 7222,
      "орать": 7223,
      "бросьте": 7224,
      "свободны": 7225,
      "организо": 7226,
      "останься": 7227,
      "неожиданно": 7228,
      "огромное": 7229,
      "свинину": 7230,
      "конференци": 7231,
      "аккура": 7232,
      "рюкза": 7233,
      "дтп": 7234,
      "джентль": 7235,
      "вверх": 7236,
      "сэн": 7237,
      "узнаешь": 7238,
      "фона": 7239,
      "штра": 7240,
      "нелов": 7241,
      "наклонился": 7242,
      "погла": 7243,
      "пошло": 7244,
      "поговорите": 7245,
      "поиска": 7246,
      "постира": 7247,
      "ноче": 7248,
      "госу": 7249,
      "годится": 7250,
      "ват": 7251,
      "ливень": 7252,
      "ребен": 7253,
      "рецеп": 7254,
      "зажи": 7255,
      "местный": 7256,
      "веси": 7257,
      "вились": 7258,
      "кула": 7259,
      "придумал": 7260,
      "отделе": 7261,
      "жном": 7262,
      "гает": 7263,
      "нией": 7264,
      "рассе": 7265,
      "вреда": 7266,
      "передох": 7267,
      "перестали": 7268,
      "гите": 7269,
      "чьё": 7270,
      "сур": 7271,
      "странах": 7272,
      "крыша": 7273,
      "шут": 7274,
      "шутит": 7275,
      "шутишь": 7276,
      "правительство": 7277,
      "спину": 7278,
      "подождали": 7279,
      "ошибке": 7280,
      "языков": 7281,
      "совершили": 7282,
      "выиграю": 7283,
      "богатая": 7284,
      "успеш": 7285,
      "старшая": 7286,
      "терпения": 7287,
      "наружу": 7288,
      "привычка": 7289,
      "толстая": 7290,
      "пугает": 7291,
      "чёрном": 7292,
      "подняться": 7293,
      "добрались": 7294,
      "впечатлён": 7295,
      "уезжаете": 7296,
      "убийства": 7297,
      "существуют": 7298,
      "жьте": 7299,
      "результатом": 7300,
      "придут": 7301,
      "кармана": 7302,
      "замечательно": 7303,
      "каковы": 7304,
      "самые": 7305,
      "умирает": 7306,
      "рыбачить": 7307,
      "представлял": 7308,
      "убьёт": 7309,
      "пожалеешь": 7310,
      "преступления": 7311,
      "восхища": 7312,
      "университет": 7313,
      "бизнес": 7314,
      "талантливый": 7315,
      "разбираюсь": 7316,
      "лондон": 7317,
      "прячется": 7318,
      "условия": 7319,
      "выразить": 7320,
      "долгий": 7321,
      "шарф": 7322,
      "фантасти": 7323,
      "заподозрил": 7324,
      "церемо": 7325,
      "государ": 7326,
      "зку": 7327,
      "хри": 7328,
      "чны": 7329,
      "швей": 7330,
      "точку": 7331,
      "неу": 7332,
      "нало": 7333,
      "находя": 7334,
      "позав": 7335,
      "попытаться": 7336,
      "ногах": 7337,
      "носят": 7338,
      "стр": 7339,
      "воли": 7340,
      "вовсе": 7341,
      "мости": 7342,
      "монет": 7343,
      "бывали": 7344,
      "выношу": 7345,
      "чены": 7346,
      "рекла": 7347,
      "ремень": 7348,
      "засмеялись": 7349,
      "танц": 7350,
      "табле": 7351,
      "виш": 7352,
      "бей": 7353,
      "сой": 7354,
      "сочи": 7355,
      "куки": 7356,
      "шему": 7357,
      "чашка": 7358,
      "туры": 7359,
      "ляю": 7360,
      "своя": 7361,
      "предот": 7362,
      "батаре": 7363,
      "слуши": 7364,
      "частен": 7365,
      "подстри": 7366,
      "блефу": 7367,
      "палат": 7368,
      "послезавтра": 7369,
      "враги": 7370,
      "красив": 7371,
      "съели": 7372,
      "решении": 7373,
      "попросишь": 7374,
      "успехи": 7375,
      "изменились": 7376,
      "рестора": 7377,
      "подумали": 7378,
      "классни": 7379,
      "жалеет": 7380,
      "толпа": 7381,
      "зайду": 7382,
      "принимай": 7383,
      "корзи": 7384,
      "марией": 7385,
      "причиной": 7386,
      "актри": 7387,
      "держали": 7388,
      "помидо": 7389,
      "позади": 7390,
      "водителем": 7391,
      "выяснил": 7392,
      "фудзи": 7393,
      "разбуди": 7394,
      "ворот": 7395,
      "останемся": 7396,
      "останешься": 7397,
      "прыг": 7398,
      "сумасшедшая": 7399,
      "собственный": 7400,
      "подругами": 7401,
      "столик": 7402,
      "сознания": 7403,
      "влюблены": 7404,
      "продукты": 7405,
      "продолжайте": 7406,
      "уладить": 7407,
      "копию": 7408,
      "обратиться": 7409,
      "катастрофе": 7410,
      "соединён": 7411,
      "консерва": 7412,
      "ребята": 7413,
      "сэндви": 7414,
      "поисках": 7415,
      "позавчера": 7416,
      "впу": 7417,
      "двер": 7418,
      "двой": 7419,
      "очаро": 7420,
      "счё": 7421,
      "убрать": 7422,
      "учусь": 7423,
      "чёл": 7424,
      "нером": 7425,
      "неплохой": 7426,
      "копа": 7427,
      "рист": 7428,
      "водо": 7429,
      "выжи": 7430,
      "выбрасы": 7431,
      "чению": 7432,
      "ческое": 7433,
      "засте": 7434,
      "заказы": 7435,
      "ходом": 7436,
      "добира": 7437,
      "ведро": 7438,
      "виню": 7439,
      "души": 7440,
      "мнеет": 7441,
      "мудро": 7442,
      "чим": 7443,
      "чился": 7444,
      "придется": 7445,
      "кита": 7446,
      "обстоя": 7447,
      "обнять": 7448,
      "тую": 7449,
      "разбор": 7450,
      "разбогате": 7451,
      "перевёл": 7452,
      "служ": 7453,
      "шоу": 7454,
      "подготов": 7455,
      "подтвер": 7456,
      "возле": 7457,
      "шутил": 7458,
      "бление": 7459,
      "последовал": 7460,
      "поймёт": 7461,
      "полку": 7462,
      "брошу": 7463,
      "рью": 7464,
      "зиа": 7465,
      "открытыми": 7466,
      "звонила": 7467,
      "красная": 7468,
      "научились": 7469,
      "серди": 7470,
      "одежде": 7471,
      "спросим": 7472,
      "словаре": 7473,
      "чувствовали": 7474,
      "онов": 7475,
      "держитесь": 7476,
      "разоча": 7477,
      "наруч": 7478,
      "детства": 7479,
      "бросили": 7480,
      "холодной": 7481,
      "волос": 7482,
      "увидите": 7483,
      "безопасность": 7484,
      "пьяные": 7485,
      "другими": 7486,
      "взглянул": 7487,
      "посетил": 7488,
      "признавать": 7489,
      "дурац": 7490,
      "пожара": 7491,
      "принадле": 7492,
      "трудная": 7493,
      "клуба": 7494,
      "припарковал": 7495,
      "провела": 7496,
      "навещает": 7497,
      "двигаться": 7498,
      "покажешь": 7499,
      "ревновать": 7500,
      "позовите": 7501,
      "грип": 7502,
      "безупре": 7503,
      "монеты": 7504,
      "вооружён": 7505,
      "музыкант": 7506,
      "умолял": 7507,
      "услышав": 7508,
      "предотвра": 7509,
      "апло": 7510,
      "звал": 7511,
      "злюсь": 7512,
      "осты": 7513,
      "тная": 7514,
      "уз": 7515,
      "упомина": 7516,
      "устраи": 7517,
      "немногие": 7518,
      "неподал": 7519,
      "неизбе": 7520,
      "пок": 7521,
      "попо": 7522,
      "побудь": 7523,
      "рами": 7524,
      "ален": 7525,
      "волей": 7526,
      "выходите": 7527,
      "резал": 7528,
      "забрать": 7529,
      "дого": 7530,
      "довали": 7531,
      "дование": 7532,
      "мебели": 7533,
      "борт": 7534,
      "пробудет": 7535,
      "промок": 7536,
      "тии": 7537,
      "дия": 7538,
      "шево": 7539,
      "пристал": 7540,
      "делам": 7541,
      "сиди": 7542,
      "синее": 7543,
      "пишите": 7544,
      "жное": 7545,
      "больны": 7546,
      "граф": 7547,
      "лыми": 7548,
      "позд": 7549,
      "тренер": 7550,
      "езжал": 7551,
      "цион": 7552,
      "виделись": 7553,
      "цара": 7554,
      "исключи": 7555,
      "отвечает": 7556,
      "ключа": 7557,
      "гляды": 7558,
      "смеешь": 7559,
      "получает": 7560,
      "которыми": 7561,
      "вляю": 7562,
      "городом": 7563,
      "красную": 7564,
      "виновным": 7565,
      "объяснения": 7566,
      "заставило": 7567,
      "длинная": 7568,
      "делец": 7569,
      "высокие": 7570,
      "доллара": 7571,
      "благодаря": 7572,
      "шляпы": 7573,
      "принимайте": 7574,
      "постучал": 7575,
      "возраст": 7576,
      "цов": 7577,
      "прочтите": 7578,
      "футболь": 7579,
      "двадцати": 7580,
      "злой": 7581,
      "ножницы": 7582,
      "торопись": 7583,
      "преподаю": 7584,
      "бабушкой": 7585,
      "результатами": 7586,
      "везучи": 7587,
      "остальное": 7588,
      "переехали": 7589,
      "наблюдает": 7590,
      "припарковался": 7591,
      "озера": 7592,
      "свободного": 7593,
      "лестницы": 7594,
      "фруктов": 7595,
      "джаз": 7596,
      "сохранять": 7597,
      "относится": 7598,
      "население": 7599,
      "девяти": 7600,
      "отказываюсь": 7601,
      "джексона": 7602,
      "океан": 7603,
      "звёзды": 7604,
      "ревнует": 7605,
      "искренне": 7606,
      "подробнее": 7607,
      "отдых": 7608,
      "подвезти": 7609,
      "хихи": 7610,
      "аплоди": 7611,
      "неподалёку": 7612,
      "вную": 7613,
      "идей": 7614,
      "пка": 7615,
      "сдаваться": 7616,
      "уще": 7617,
      "узнала": 7618,
      "упустил": 7619,
      "хво": 7620,
      "яро": 7621,
      "това": 7622,
      "некоторое": 7623,
      "напра": 7624,
      "построен": 7625,
      "послушайте": 7626,
      "поиграем": 7627,
      "лик": 7628,
      "литься": 7629,
      "выбежал": 7630,
      "тых": 7631,
      "засмеялся": 7632,
      "допустил": 7633,
      "допустить": 7634,
      "метал": 7635,
      "желу": 7636,
      "села": 7637,
      "лев": 7638,
      "бумага": 7639,
      "сток": 7640,
      "шение": 7641,
      "муд": 7642,
      "чили": 7643,
      "прибыли": 7644,
      "кисло": 7645,
      "меняет": 7646,
      "любую": 7647,
      "разили": 7648,
      "разделя": 7649,
      "граби": 7650,
      "планов": 7651,
      "емле": 7652,
      "большего": 7653,
      "остаток": 7654,
      "жут": 7655,
      "подскажете": 7656,
      "обеим": 7657,
      "слышит": 7658,
      "ответила": 7659,
      "смеха": 7660,
      "смеются": 7661,
      "второ": 7662,
      "спине": 7663,
      "парни": 7664,
      "войну": 7665,
      "подарить": 7666,
      "болела": 7667,
      "идее": 7668,
      "победи": 7669,
      "знакомо": 7670,
      "дереву": 7671,
      "старайся": 7672,
      "рождества": 7673,
      "жением": 7674,
      "богаче": 7675,
      "советы": 7676,
      "фотографировать": 7677,
      "успехом": 7678,
      "найдётся": 7679,
      "правильное": 7680,
      "вероят": 7681,
      "привычки": 7682,
      "проводишь": 7683,
      "пугать": 7684,
      "команду": 7685,
      "причине": 7686,
      "внешно": 7687,
      "бумагу": 7688,
      "трёхсот": 7689,
      "скрывать": 7690,
      "правилам": 7691,
      "ученики": 7692,
      "уважаю": 7693,
      "труднее": 7694,
      "привере": 7695,
      "европу": 7696,
      "науш": 7697,
      "знаменит": 7698,
      "рисовать": 7699,
      "зарплату": 7700,
      "матч": 7701,
      "снегови": 7702,
      "холле": 7703,
      "официан": 7704,
      "искусство": 7705,
      "трогайте": 7706,
      "поймёте": 7707,
      "уберите": 7708,
      "отправляется": 7709,
      "востор": 7710,
      "позабочусь": 7711,
      "продлится": 7712,
      "придира": 7713,
      "испекла": 7714,
      "испугался": 7715,
      "великолеп": 7716,
      "лжец": 7717,
      "предсказу": 7718,
      "неохота": 7719,
      "гарвар": 7720,
      "собирались": 7721,
      "союз": 7722,
      "переговоры": 7723,
      "попкор": 7724,
      "ущер": 7725,
      "анали": 7726,
      "рту": 7727,
      "утом": 7728,
      "чён": 7729,
      "чёте": 7730,
      "нетерпели": 7731,
      "наказали": 7732,
      "поя": 7733,
      "потя": 7734,
      "кошел": 7735,
      "рите": 7736,
      "выжить": 7737,
      "выпей": 7738,
      "зади": 7739,
      "заговорил": 7740,
      "ведёшь": 7741,
      "лоу": 7742,
      "лосо": 7743,
      "маше": 7744,
      "проб": 7745,
      "тиши": 7746,
      "дие": 7747,
      "знанку": 7748,
      "мыл": 7749,
      "стака": 7750,
      "мум": 7751,
      "прихожу": 7752,
      "отдайте": 7753,
      "пищи": 7754,
      "писем": 7755,
      "залез": 7756,
      "размера": 7757,
      "скон": 7758,
      "мала": 7759,
      "нцем": 7760,
      "слепы": 7761,
      "переезжать": 7762,
      "уйдём": 7763,
      "нетру": 7764,
      "сложнее": 7765,
      "обеспе": 7766,
      "строги": 7767,
      "финан": 7768,
      "понимают": 7769,
      "согласно": 7770,
      "красивых": 7771,
      "подар": 7772,
      "обратил": 7773,
      "гали": 7774,
      "научилась": 7775,
      "старайтесь": 7776,
      "женщиной": 7777,
      "высокое": 7778,
      "рассказывали": 7779,
      "удаётся": 7780,
      "лентя": 7781,
      "принесла": 7782,
      "пальцем": 7783,
      "маленькие": 7784,
      "злитесь": 7785,
      "продаёт": 7786,
      "настоящая": 7787,
      "обсуждали": 7788,
      "автома": 7789,
      "сообщу": 7790,
      "мужчиной": 7791,
      "автомобиля": 7792,
      "аппе": 7793,
      "офиса": 7794,
      "арестовала": 7795,
      "заслуживаете": 7796,
      "выросла": 7797,
      "сообщил": 7798,
      "владелец": 7799,
      "напуганы": 7800,
      "наизнанку": 7801,
      "силах": 7802,
      "стрелял": 7803,
      "составил": 7804,
      "несчастен": 7805,
      "овощей": 7806,
      "сегодняшней": 7807,
      "влюбилась": 7808,
      "старого": 7809,
      "ближайшая": 7810,
      "малыш": 7811,
      "армию": 7812,
      "анекдот": 7813,
      "серьёзная": 7814,
      "кошелёк": 7815,
      "входить": 7816,
      "ннее": 7817,
      "опе": 7818,
      "одал": 7819,
      "юг": 7820,
      "ющий": 7821,
      "неправильный": 7822,
      "пору": 7823,
      "погромче": 7824,
      "нилось": 7825,
      "риф": 7826,
      "вани": 7827,
      "лить": 7828,
      "реша": 7829,
      "доделал": 7830,
      "жений": 7831,
      "мах": 7832,
      "проверю": 7833,
      "титься": 7834,
      "диск": 7835,
      "стойте": 7836,
      "присмотреть": 7837,
      "рук": 7838,
      "миль": 7839,
      "лук": 7840,
      "тур": 7841,
      "разно": 7842,
      "малей": 7843,
      "бак": 7844,
      "баре": 7845,
      "слеп": 7846,
      "перец": 7847,
      "перейти": 7848,
      "третий": 7849,
      "дёшево": 7850,
      "голоса": 7851,
      "одноклассни": 7852,
      "поняла": 7853,
      "молодости": 7854,
      "карте": 7855,
      "кончился": 7856,
      "красивее": 7857,
      "звонка": 7858,
      "подойдёт": 7859,
      "закончим": 7860,
      "закончила": 7861,
      "харак": 7862,
      "пытайтесь": 7863,
      "одежды": 7864,
      "развелись": 7865,
      "найди": 7866,
      "изменилась": 7867,
      "снимал": 7868,
      "снимок": 7869,
      "собственной": 7870,
      "пальцы": 7871,
      "борту": 7872,
      "ожидала": 7873,
      "тайну": 7874,
      "ребёнку": 7875,
      "возвращаюсь": 7876,
      "опаздывал": 7877,
      "ссии": 7878,
      "улыбка": 7879,
      "намерения": 7880,
      "поели": 7881,
      "курицу": 7882,
      "орке": 7883,
      "включить": 7884,
      "волнуйся": 7885,
      "лететь": 7886,
      "целую": 7887,
      "угадайте": 7888,
      "улыбаться": 7889,
      "влюбля": 7890,
      "старым": 7891,
      "костюме": 7892,
      "забавно": 7893,
      "огне": 7894,
      "огня": 7895,
      "лодку": 7896,
      "лампу": 7897,
      "удосто": 7898,
      "буквал": 7899,
      "почистил": 7900,
      "почистить": 7901,
      "похоронах": 7902,
      "угрожал": 7903,
      "усыновили": 7904,
      "удовольствием": 7905,
      "пожаловать": 7906,
      "внимательнее": 7907,
      "молчание": 7908,
      "замёрз": 7909,
      "услугу": 7910,
      "ежедневно": 7911,
      "позавтракал": 7912,
      "флаг": 7913,
      "пункту": 7914,
      "хоккей": 7915,
      "осуществи": 7916,
      "невыноси": 7917,
      "ноутбук": 7918,
      "партнё": 7919,
      "пополам": 7920,
      "волейбол": 7921,
      "одалжи": 7922,
      "нён": 7923,
      "тным": 7924,
      "ухожу": 7925,
      "штор": 7926,
      "шуметь": 7927,
      "незачем": 7928,
      "повар": 7929,
      "подумайте": 7930,
      "поподробнее": 7931,
      "нилась": 7932,
      "кара": 7933,
      "выбери": 7934,
      "выпили": 7935,
      "дадите": 7936,
      "заходи": 7937,
      "вел": 7938,
      "ветре": 7939,
      "мамой": 7940,
      "дида": 7941,
      "примите": 7942,
      "мина": 7943,
      "моги": 7944,
      "облег": 7945,
      "правой": 7946,
      "больших": 7947,
      "баш": 7948,
      "тринадцати": 7949,
      "переку": 7950,
      "чном": 7951,
      "подвер": 7952,
      "губы": 7953,
      "тельность": 7954,
      "книжный": 7955,
      "краже": 7956,
      "обеими": 7957,
      "сыт": 7958,
      "ступи": 7959,
      "контак": 7960,
      "правился": 7961,
      "льное": 7962,
      "полки": 7963,
      "зия": 7964,
      "влена": 7965,
      "счастливый": 7966,
      "разговаривают": 7967,
      "ковёр": 7968,
      "дереве": 7969,
      "совершить": 7970,
      "иностранный": 7971,
      "кандида": 7972,
      "провод": 7973,
      "проводите": 7974,
      "представи": 7975,
      "свеже": 7976,
      "сомневался": 7977,
      "показала": 7978,
      "корм": 7979,
      "студентом": 7980,
      "покупаю": 7981,
      "уволен": 7982,
      "гитара": 7983,
      "скепти": 7984,
      "самим": 7985,
      "обедаем": 7986,
      "предпочитаешь": 7987,
      "четырёх": 7988,
      "намеренно": 7989,
      "местами": 7990,
      "начальником": 7991,
      "сообщили": 7992,
      "недоразуме": 7993,
      "радиоприём": 7994,
      "дочерью": 7995,
      "наивен": 7996,
      "журна": 7997,
      "журнали": 7998,
      "контролировать": 7999,
      "справился": 8000,
      "вокзале": 8001,
      "подробностей": 8002,
      "зарплата": 8003,
      "шпинат": 8004,
      "судьба": 8005,
      "бардак": 8006,
      "участвовать": 8007,
      "свидетель": 8008,
      "покрыта": 8009,
      "университете": 8010,
      "отменил": 8011,
      "вещах": 8012,
      "расскажешь": 8013,
      "доказательства": 8014,
      "завтрашнему": 8015,
      "сходим": 8016,
      "энергии": 8017,
      "упрямый": 8018,
      "расстроена": 8019,
      "гнев": 8020,
      "оценки": 8021,
      "передвинуть": 8022,
      "сбила": 8023,
      "показаться": 8024,
      "опублико": 8025,
      "степени": 8026,
      "кондиционер": 8027,
      "рюкзак": 8028,
      "дка": 8029,
      "зма": 8030,
      "кнуться": 8031,
      "отор": 8032,
      "сходил": 8033,
      "твёр": 8034,
      "невер": 8035,
      "небезопасно": 8036,
      "невежливо": 8037,
      "пох": 8038,
      "поёте": 8039,
      "поёшь": 8040,
      "попозже": 8041,
      "поверх": 8042,
      "темы": 8043,
      "теплее": 8044,
      "рако": 8045,
      "ногами": 8046,
      "морок": 8047,
      "лай": 8048,
      "лает": 8049,
      "чением": 8050,
      "заключи": 8051,
      "затем": 8052,
      "доске": 8053,
      "мене": 8054,
      "меню": 8055,
      "везло": 8056,
      "бойтесь": 8057,
      "вида": 8058,
      "сезон": 8059,
      "проходит": 8060,
      "лены": 8061,
      "бедный": 8062,
      "состои": 8063,
      "ныне": 8064,
      "сказав": 8065,
      "чистая": 8066,
      "привя": 8067,
      "привело": 8068,
      "придет": 8069,
      "приедешь": 8070,
      "сия": 8071,
      "отчая": 8072,
      "любез": 8073,
      "обморок": 8074,
      "есте": 8075,
      "лятор": 8076,
      "самую": 8077,
      "больница": 8078,
      "расстоя": 8079,
      "расследо": 8080,
      "слеза": 8081,
      "подни": 8082,
      "действует": 8083,
      "дёр": 8084,
      "правильным": 8085,
      "одиннадцать": 8086,
      "произнести": 8087,
      "полная": 8088,
      "смеете": 8089,
      "труда": 8090,
      "одних": 8091,
      "вью": 8092,
      "зил": 8093,
      "скучаешь": 8094,
      "парка": 8095,
      "разговариваешь": 8096,
      "остановил": 8097,
      "поезжай": 8098,
      "ужином": 8099,
      "богатой": 8100,
      "закрыли": 8101,
      "задам": 8102,
      "согласилась": 8103,
      "фабри": 8104,
      "музыке": 8105,
      "рассказывает": 8106,
      "обидит": 8107,
      "ужасов": 8108,
      "целовать": 8109,
      "хорошенько": 8110,
      "делом": 8111,
      "познакомил": 8112,
      "встречаются": 8113,
      "встречаемся": 8114,
      "встретился": 8115,
      "принимаешь": 8116,
      "команди": 8117,
      "пьяная": 8118,
      "банку": 8119,
      "виновата": 8120,
      "богатые": 8121,
      "обедает": 8122,
      "предпочитает": 8123,
      "предпочитаете": 8124,
      "забывать": 8125,
      "навестил": 8126,
      "лёгкий": 8127,
      "достигли": 8128,
      "свадьбы": 8129,
      "позволяй": 8130,
      "навещал": 8131,
      "самолёта": 8132,
      "охоту": 8133,
      "карандашом": 8134,
      "потратили": 8135,
      "поменял": 8136,
      "лодке": 8137,
      "пожалеете": 8138,
      "неудачу": 8139,
      "поймает": 8140,
      "поцелуй": 8141,
      "микрофон": 8142,
      "повидать": 8143,
      "тяжёлая": 8144,
      "приснился": 8145,
      "заброни": 8146,
      "сэндвич": 8147,
      "нетрудно": 8148,
      "ауди": 8149,
      "вны": 8150,
      "врёшь": 8151,
      "сзади": 8152,
      "ухуд": 8153,
      "хэ": 8154,
      "несправедли": 8155,
      "наделал": 8156,
      "подругой": 8157,
      "поскольз": 8158,
      "тени": 8159,
      "раду": 8160,
      "дено": 8161,
      "дением": 8162,
      "алфа": 8163,
      "коме": 8164,
      "говя": 8165,
      "рована": 8166,
      "ровано": 8167,
      "рина": 8168,
      "бым": 8169,
      "выберите": 8170,
      "заи": 8171,
      "забудет": 8172,
      "заходил": 8173,
      "запомнить": 8174,
      "проми": 8175,
      "прояс": 8176,
      "соче": 8177,
      "нужды": 8178,
      "буря": 8179,
      "жир": 8180,
      "отвлека": 8181,
      "туман": 8182,
      "своем": 8183,
      "рынок": 8184,
      "компроми": 8185,
      "ган": 8186,
      "гаран": 8187,
      "хотеть": 8188,
      "шат": 8189,
      "перезвонил": 8190,
      "суши": 8191,
      "подпись": 8192,
      "щенка": 8193,
      "стесни": 8194,
      "перси": 8195,
      "первом": 8196,
      "обещать": 8197,
      "исправь": 8198,
      "бледный": 8199,
      "имён": 8200,
      "отвези": 8201,
      "помогали": 8202,
      "взят": 8203,
      "взрыв": 8204,
      "стоила": 8205,
      "полна": 8206,
      "каждой": 8207,
      "порти": 8208,
      "интересной": 8209,
      "пьют": 8210,
      "съем": 8211,
      "удивил": 8212,
      "удивляет": 8213,
      "поездом": 8214,
      "поезжайте": 8215,
      "объясни": 8216,
      "объясните": 8217,
      "глуби": 8218,
      "медве": 8219,
      "фильма": 8220,
      "словарём": 8221,
      "покупку": 8222,
      "продолжить": 8223,
      "проводил": 8224,
      "известен": 8225,
      "путешествия": 8226,
      "танцевал": 8227,
      "танцевали": 8228,
      "шестьдесят": 8229,
      "посети": 8230,
      "стями": 8231,
      "народу": 8232,
      "вшего": 8233,
      "заставлял": 8234,
      "заставлять": 8235,
      "запертой": 8236,
      "проснулась": 8237,
      "голосовали": 8238,
      "оружи": 8239,
      "солнцезащи": 8240,
      "свадьба": 8241,
      "добавьте": 8242,
      "бомба": 8243,
      "научу": 8244,
      "появится": 8245,
      "популярен": 8246,
      "чтением": 8247,
      "присутствовать": 8248,
      "экзамены": 8249,
      "бельё": 8250,
      "поймают": 8251,
      "спальне": 8252,
      "догада": 8253,
      "обеспокоен": 8254,
      "пациент": 8255,
      "возражаешь": 8256,
      "пишешь": 8257,
      "произошедшем": 8258,
      "храбрый": 8259,
      "восхищаюсь": 8260,
      "везучий": 8261,
      "наушники": 8262,
      "буквально": 8263,
      "говяди": 8264,
      "ана": 8265,
      "ер": 8266,
      "звез": 8267,
      "одо": 8268,
      "оле": 8269,
      "сбил": 8270,
      "указа": 8271,
      "шлем": 8272,
      "шрам": 8273,
      "ян": 8274,
      "пожела": 8275,
      "поверните": 8276,
      "детали": 8277,
      "ножа": 8278,
      "волю": 8279,
      "лили": 8280,
      "лагал": 8281,
      "рем": 8282,
      "сяду": 8283,
      "заходите": 8284,
      "дочитал": 8285,
      "доберусь": 8286,
      "махе": 8287,
      "манера": 8288,
      "прось": 8289,
      "проща": 8290,
      "пройдёт": 8291,
      "проиграли": 8292,
      "диету": 8293,
      "числа": 8294,
      "синя": 8295,
      "жий": 8296,
      "песок": 8297,
      "отврати": 8298,
      "разви": 8299,
      "раздели": 8300,
      "прер": 8301,
      "преимуще": 8302,
      "ходило": 8303,
      "следят": 8304,
      "вред": 8305,
      "перепол": 8306,
      "насы": 8307,
      "женюсь": 8308,
      "просила": 8309,
      "трать": 8310,
      "правлю": 8311,
      "щед": 8312,
      "щена": 8313,
      "ездила": 8314,
      "ступить": 8315,
      "фици": 8316,
      "верим": 8317,
      "полной": 8318,
      "понимаем": 8319,
      "поход": 8320,
      "стояли": 8321,
      "красивым": 8322,
      "дяди": 8323,
      "автор": 8324,
      "влять": 8325,
      "пьес": 8326,
      "убежде": 8327,
      "глупая": 8328,
      "короче": 8329,
      "поверили": 8330,
      "новом": 8331,
      "проблемах": 8332,
      "заплатит": 8333,
      "двоих": 8334,
      "склон": 8335,
      "храпит": 8336,
      "игро": 8337,
      "твоими": 8338,
      "благодарю": 8339,
      "испорти": 8340,
      "телефонный": 8341,
      "экспе": 8342,
      "положила": 8343,
      "спрашиваю": 8344,
      "толкнул": 8345,
      "девочку": 8346,
      "улыбнулась": 8347,
      "английским": 8348,
      "отношениях": 8349,
      "выборах": 8350,
      "щиеся": 8351,
      "карманы": 8352,
      "пишется": 8353,
      "позволят": 8354,
      "посадили": 8355,
      "определе": 8356,
      "выходу": 8357,
      "скольку": 8358,
      "отсутствует": 8359,
      "бассейне": 8360,
      "старое": 8361,
      "убью": 8362,
      "чудесно": 8363,
      "официант": 8364,
      "приближается": 8365,
      "электронной": 8366,
      "доказательств": 8367,
      "проголодался": 8368,
      "расписание": 8369,
      "анекдо": 8370,
      "порекомендовать": 8371,
      "завидую": 8372,
      "парикмахе": 8373,
      "находятся": 8374,
      "помидоры": 8375,
      "привередли": 8376,
      "ущерб": 8377,
      "бразили": 8378,
      "впустил": 8379,
      "еру": 8380,
      "итал": 8381,
      "мла": 8382,
      "ой": 8383,
      "окончи": 8384,
      "сма": 8385,
      "сменить": 8386,
      "уло": 8387,
      "ути": 8388,
      "щё": 8389,
      "яму": 8390,
      "нае": 8391,
      "побуду": 8392,
      "потол": 8393,
      "пошевели": 8394,
      "поскольку": 8395,
      "кость": 8396,
      "горь": 8397,
      "важная": 8398,
      "заж": 8399,
      "дотро": 8400,
      "жет": 8401,
      "прошли": 8402,
      "проверь": 8403,
      "проверя": 8404,
      "летит": 8405,
      "белые": 8406,
      "кули": 8407,
      "ручки": 8408,
      "живает": 8409,
      "туре": 8410,
      "чудо": 8411,
      "разрешили": 8412,
      "разрешено": 8413,
      "сков": 8414,
      "скоп": 8415,
      "вспомнил": 8416,
      "жалоб": 8417,
      "предо": 8418,
      "преуспе": 8419,
      "здеш": 8420,
      "бам": 8421,
      "платок": 8422,
      "планах": 8423,
      "гию": 8424,
      "хорошими": 8425,
      "чью": 8426,
      "тради": 8427,
      "тала": 8428,
      "брак": 8429,
      "кран": 8430,
      "крат": 8431,
      "слышите": 8432,
      "стула": 8433,
      "предме": 8434,
      "блюсь": 8435,
      "полночь": 8436,
      "ьян": 8437,
      "варианта": 8438,
      "вторая": 8439,
      "зиму": 8440,
      "парнем": 8441,
      "звон": 8442,
      "идеален": 8443,
      "убивать": 8444,
      "закончились": 8445,
      "съела": 8446,
      "убежать": 8447,
      "убедили": 8448,
      "попроща": 8449,
      "скорость": 8450,
      "слаб": 8451,
      "слать": 8452,
      "слабо": 8453,
      "детектив": 8454,
      "трудное": 8455,
      "происходя": 8456,
      "умрёшь": 8457,
      "японцы": 8458,
      "блон": 8459,
      "уровень": 8460,
      "ударила": 8461,
      "одолжите": 8462,
      "автобусная": 8463,
      "принимаете": 8464,
      "уставшей": 8465,
      "обсудили": 8466,
      "путешествовал": 8467,
      "четвёр": 8468,
      "одинока": 8469,
      "взгляни": 8470,
      "виноватым": 8471,
      "называют": 8472,
      "ченным": 8473,
      "разочарованы": 8474,
      "станция": 8475,
      "разбудите": 8476,
      "ученик": 8477,
      "рассчитываю": 8478,
      "младшая": 8479,
      "пиццы": 8480,
      "ожидания": 8481,
      "пробовать": 8482,
      "показывал": 8483,
      "стреляли": 8484,
      "компьютера": 8485,
      "старых": 8486,
      "родственник": 8487,
      "составляет": 8488,
      "выполнять": 8489,
      "разозлило": 8490,
      "чтения": 8491,
      "девятьсот": 8492,
      "низкий": 8493,
      "известным": 8494,
      "вызывает": 8495,
      "сядьте": 8496,
      "испан": 8497,
      "вчерашнего": 8498,
      "значительно": 8499,
      "отклонил": 8500,
      "удовлетворён": 8501,
      "нажмите": 8502,
      "радостью": 8503,
      "франции": 8504,
      "торговый": 8505,
      "вдоль": 8506,
      "гамбур": 8507,
      "обручаль": 8508,
      "расстались": 8509,
      "комик": 8510,
      "заткнись": 8511,
      "предотвратить": 8512,
      "позднее": 8513,
      "снеговика": 8514,
      "вдале": 8515,
      "обой": 8516,
      "оплатить": 8517,
      "ртом": 8518,
      "стома": 8519,
      "сдел": 8520,
      "сшила": 8521,
      "уте": 8522,
      "учу": 8523,
      "цес": 8524,
      "чон": 8525,
      "ядови": 8526,
      "пост": 8527,
      "помой": 8528,
      "подать": 8529,
      "покло": 8530,
      "расти": 8531,
      "гол": 8532,
      "гон": 8533,
      "моста": 8534,
      "ваемся": 8535,
      "лицу": 8536,
      "личный": 8537,
      "лицом": 8538,
      "выбросил": 8539,
      "вызовите": 8540,
      "чел": 8541,
      "ческом": 8542,
      "ребе": 8543,
      "дав": 8544,
      "дату": 8545,
      "запу": 8546,
      "задержи": 8547,
      "хот": 8548,
      "ходе": 8549,
      "доделать": 8550,
      "дик": 8551,
      "курю": 8552,
      "сказы": 8553,
      "мура": 8554,
      "чива": 8555,
      "прило": 8556,
      "прими": 8557,
      "приба": 8558,
      "придумать": 8559,
      "живым": 8560,
      "отвер": 8561,
      "чам": 8562,
      "миру": 8563,
      "тума": 8564,
      "разме": 8565,
      "распла": 8566,
      "пласти": 8567,
      "переговорить": 8568,
      "переплыть": 8569,
      "чьей": 8570,
      "просишь": 8571,
      "правлюсь": 8572,
      "суе": 8573,
      "играй": 8574,
      "подписать": 8575,
      "сейф": 8576,
      "интри": 8577,
      "первую": 8578,
      "страя": 8579,
      "страте": 8580,
      "словам": 8581,
      "шума": 8582,
      "спасли": 8583,
      "вздох": 8584,
      "читая": 8585,
      "занятой": 8586,
      "имела": 8587,
      "вном": 8588,
      "врагов": 8589,
      "действия": 8590,
      "вторую": 8591,
      "ждет": 8592,
      "грубо": 8593,
      "последнюю": 8594,
      "победила": 8595,
      "стремя": 8596,
      "слушаться": 8597,
      "знакома": 8598,
      "планируют": 8599,
      "выиграешь": 8600,
      "выиграем": 8601,
      "льзуй": 8602,
      "родила": 8603,
      "большого": 8604,
      "умрёте": 8605,
      "приглашён": 8606,
      "женщине": 8607,
      "мальчиком": 8608,
      "внимателен": 8609,
      "измениться": 8610,
      "пришлю": 8611,
      "которому": 8612,
      "остановит": 8613,
      "понадоблюсь": 8614,
      "отлича": 8615,
      "класса": 8616,
      "добь": 8617,
      "встречаюсь": 8618,
      "собрал": 8619,
      "поступили": 8620,
      "попробует": 8621,
      "уставились": 8622,
      "отправиться": 8623,
      "маловероятно": 8624,
      "перестанет": 8625,
      "болист": 8626,
      "искала": 8627,
      "сломалась": 8628,
      "обедаю": 8629,
      "игрушек": 8630,
      "климат": 8631,
      "поминаю": 8632,
      "напугать": 8633,
      "бейсболь": 8634,
      "явился": 8635,
      "доброе": 8636,
      "горячего": 8637,
      "пицца": 8638,
      "шоколадно": 8639,
      "выражение": 8640,
      "кнове": 8641,
      "угадать": 8642,
      "контролем": 8643,
      "контрольная": 8644,
      "простуда": 8645,
      "людях": 8646,
      "бороться": 8647,
      "холоднее": 8648,
      "крепкий": 8649,
      "худшему": 8650,
      "математику": 8651,
      "зарплаты": 8652,
      "снимайте": 8653,
      "багажник": 8654,
      "почтовый": 8655,
      "игнорировал": 8656,
      "известна": 8657,
      "идеальный": 8658,
      "холма": 8659,
      "целиком": 8660,
      "фамилию": 8661,
      "электричества": 8662,
      "пруд": 8663,
      "джинсах": 8664,
      "сфотографировать": 8665,
      "заявление": 8666,
      "похитили": 8667,
      "градусов": 8668,
      "расстроены": 8669,
      "посылку": 8670,
      "учебник": 8671,
      "посвятил": 8672,
      "специалист": 8673,
      "лотерею": 8674,
      "поклялся": 8675,
      "финансо": 8676,
      "недоразумение": 8677,
      "менедже": 8678,
      "хэл": 8679,
      "одоле": 8680,
      "вдалеке": 8681,
      "стомато": 8682,
      "апре": 8683,
      "асси": 8684,
      "вшую": 8685,
      "зим": 8686,
      "острый": 8687,
      "пю": 8688,
      "пса": 8689,
      "пятно": 8690,
      "уха": 8691,
      "убрал": 8692,
      "усерд": 8693,
      "удержаться": 8694,
      "невре": 8695,
      "неуже": 8696,
      "несли": 8697,
      "нехорошо": 8698,
      "недоволен": 8699,
      "построе": 8700,
      "побывал": 8701,
      "погулять": 8702,
      "построили": 8703,
      "дена": 8704,
      "моно": 8705,
      "ватель": 8706,
      "бываю": 8707,
      "выжив": 8708,
      "выбере": 8709,
      "реак": 8710,
      "записа": 8711,
      "такому": 8712,
      "проник": 8713,
      "шеп": 8714,
      "чих": 8715,
      "чите": 8716,
      "приедете": 8717,
      "прикаса": 8718,
      "пела": 8719,
      "лух": 8720,
      "обслу": 8721,
      "изобрёл": 8722,
      "паспорта": 8723,
      "скорая": 8724,
      "ктором": 8725,
      "вслух": 8726,
      "любимых": 8727,
      "шоке": 8728,
      "тались": 8729,
      "гули": 8730,
      "завёл": 8731,
      "крыши": 8732,
      "имели": 8733,
      "полседьмого": 8734,
      "выйду": 8735,
      "терро": 8736,
      "втор": 8737,
      "спек": 8738,
      "тятся": 8739,
      "фек": 8740,
      "открыла": 8741,
      "выглядели": 8742,
      "дядей": 8743,
      "убивал": 8744,
      "усталы": 8745,
      "хими": 8746,
      "считается": 8747,
      "выиграете": 8748,
      "закрытыми": 8749,
      "длиннее": 8750,
      "болта": 8751,
      "уроке": 8752,
      "зеландии": 8753,
      "волше": 8754,
      "велик": 8755,
      "кружи": 8756,
      "скажем": 8757,
      "драку": 8758,
      "выходным": 8759,
      "свечу": 8760,
      "совершен": 8761,
      "украден": 8762,
      "положили": 8763,
      "маленьком": 8764,
      "кормили": 8765,
      "предупреждение": 8766,
      "обсужда": 8767,
      "желает": 8768,
      "чёрные": 8769,
      "беспомощ": 8770,
      "обвинил": 8771,
      "близки": 8772,
      "ошибаться": 8773,
      "разочаровы": 8774,
      "бутылке": 8775,
      "способны": 8776,
      "колени": 8777,
      "полицейского": 8778,
      "спокойной": 8779,
      "чернила": 8780,
      "карманов": 8781,
      "летели": 8782,
      "молодые": 8783,
      "девчон": 8784,
      "билета": 8785,
      "контрольной": 8786,
      "самолётом": 8787,
      "борода": 8788,
      "сотни": 8789,
      "печенья": 8790,
      "группы": 8791,
      "поправится": 8792,
      "экзамене": 8793,
      "почтой": 8794,
      "лифте": 8795,
      "заботится": 8796,
      "отказывается": 8797,
      "расскажет": 8798,
      "построить": 8799,
      "одинаково": 8800,
      "голубые": 8801,
      "минимум": 8802,
      "честным": 8803,
      "американцы": 8804,
      "ограбили": 8805,
      "раздражает": 8806,
      "летают": 8807,
      "пульс": 8808,
      "подружились": 8809,
      "регистри": 8810,
      "ровесники": 8811,
      "шторы": 8812,
      "склонен": 8813,
      "шоколада": 8814,
      "попытки": 8815,
      "смелости": 8816,
      "швейца": 8817,
      "малейшего": 8818,
      "радиоприёмник": 8819,
      "неужели": 8820,
      "аспи": 8821,
      "входите": 8822,
      "мг": 8823,
      "оз": 8824,
      "оса": 8825,
      "осу": 8826,
      "опусти": 8827,
      "описал": 8828,
      "одура": 8829,
      "свали": 8830,
      "сфе": 8831,
      "фаль": 8832,
      "цин": 8833,
      "тош": 8834,
      "непро": 8835,
      "неудивительно": 8836,
      "невероят": 8837,
      "пою": 8838,
      "пони": 8839,
      "побудьте": 8840,
      "поверни": 8841,
      "пообещай": 8842,
      "покормить": 8843,
      "почувствовала": 8844,
      "ноге": 8845,
      "роб": 8846,
      "родом": 8847,
      "риса": 8848,
      "ритори": 8849,
      "восемнадцать": 8850,
      "мона": 8851,
      "выпу": 8852,
      "выберу": 8853,
      "ложусь": 8854,
      "витами": 8855,
      "проверьте": 8856,
      "прогно": 8857,
      "лена": 8858,
      "левую": 8859,
      "современ": 8860,
      "собесе": 8861,
      "нута": 8862,
      "куклу": 8863,
      "присмотрю": 8864,
      "рус": 8865,
      "ручкой": 8866,
      "сидишь": 8867,
      "отзы": 8868,
      "обменя": 8869,
      "общаться": 8870,
      "тузиа": 8871,
      "вернется": 8872,
      "жалко": 8873,
      "пересе": 8874,
      "перенести": 8875,
      "оставалось": 8876,
      "подготовиться": 8877,
      "телевиде": 8878,
      "чалось": 8879,
      "шутите": 8880,
      "конкре": 8881,
      "строго": 8882,
      "предстоит": 8883,
      "дождём": 8884,
      "вопросу": 8885,
      "полное": 8886,
      "плот": 8887,
      "открылась": 8888,
      "стояла": 8889,
      "парку": 8890,
      "подарила": 8891,
      "обращать": 8892,
      "занимаются": 8893,
      "съе": 8894,
      "убеди": 8895,
      "скорости": 8896,
      "деревни": 8897,
      "корову": 8898,
      "поверишь": 8899,
      "пригласила": 8900,
      "покупал": 8901,
      "понравились": 8902,
      "нашему": 8903,
      "худой": 8904,
      "третьем": 8905,
      "собственное": 8906,
      "позволили": 8907,
      "добрый": 8908,
      "познакомить": 8909,
      "детство": 8910,
      "светло": 8911,
      "спрашивали": 8912,
      "шансы": 8913,
      "покупай": 8914,
      "соседа": 8915,
      "отправились": 8916,
      "четвер": 8917,
      "тысячу": 8918,
      "довольным": 8919,
      "вызвался": 8920,
      "сломался": 8921,
      "дорогую": 8922,
      "забыв": 8923,
      "ссию": 8924,
      "существо": 8925,
      "результат": 8926,
      "полицейские": 8927,
      "тёпло": 8928,
      "жёст": 8929,
      "дедушкой": 8930,
      "переехала": 8931,
      "недоговари": 8932,
      "зарабатывать": 8933,
      "обмануть": 8934,
      "граммати": 8935,
      "воспользовался": 8936,
      "архи": 8937,
      "уважать": 8938,
      "наблюдают": 8939,
      "замечательная": 8940,
      "расстроенным": 8941,
      "острова": 8942,
      "потрясе": 8943,
      "миллионов": 8944,
      "умирать": 8945,
      "срав": 8946,
      "хлопнул": 8947,
      "привидений": 8948,
      "политике": 8949,
      "появилась": 8950,
      "йорк": 8951,
      "уходишь": 8952,
      "математика": 8953,
      "боялась": 8954,
      "относительно": 8955,
      "населения": 8956,
      "экзамену": 8957,
      "поближе": 8958,
      "спокоен": 8959,
      "застенчив": 8960,
      "крупней": 8961,
      "вершины": 8962,
      "подходящий": 8963,
      "расскажете": 8964,
      "романы": 8965,
      "энтузиа": 8966,
      "монету": 8967,
      "хозя": 8968,
      "пещеру": 8969,
      "осенью": 8970,
      "ремонт": 8971,
      "наркотики": 8972,
      "пугови": 8973,
      "включённым": 8974,
      "бриллиан": 8975,
      "иностранных": 8976,
      "праздновать": 8977,
      "джентльмен": 8978,
      "ночевать": 8979,
      "лентяй": 8980,
      "расследование": 8981,
      "младе": 8982,
      "хэллоу": 8983,
      "ассистен": 8984,
      "гна": 8985,
      "жкой": 8986,
      "сён": 8987,
      "справля": 8988,
      "тщ": 8989,
      "тря": 8990,
      "устро": 8991,
      "уезжал": 8992,
      "фин": 8993,
      "яд": 8994,
      "несу": 8995,
      "недолго": 8996,
      "нечестно": 8997,
      "насили": 8998,
      "навод": 8999,
      "подругу": 9000,
      "побри": 9001,
      "побывать": 9002,
      "течёт": 9003,
      "деб": 9004,
      "космо": 9005,
      "ность": 9006,
      "номера": 9007,
      "като": 9008,
      "важны": 9009,
      "репута": 9010,
      "зация": 9011,
      "заказать": 9012,
      "зажёг": 9013,
      "мешает": 9014,
      "веб": 9015,
      "веду": 9016,
      "жере": 9017,
      "вишь": 9018,
      "прой": 9019,
      "прочь": 9020,
      "проиграет": 9021,
      "процес": 9022,
      "тию": 9023,
      "бет": 9024,
      "сопрово": 9025,
      "шена": 9026,
      "приста": 9027,
      "синяя": 9028,
      "живой": 9029,
      "печаль": 9030,
      "отключи": 9031,
      "отдыха": 9032,
      "мин": 9033,
      "тупы": 9034,
      "пани": 9035,
      "падают": 9036,
      "развя": 9037,
      "скорую": 9038,
      "сводит": 9039,
      "грамо": 9040,
      "многом": 9041,
      "перешёл": 9042,
      "скидку": 9043,
      "йтись": 9044,
      "суди": 9045,
      "сунул": 9046,
      "судя": 9047,
      "жуль": 9048,
      "завтракать": 9049,
      "сыра": 9050,
      "сделаны": 9051,
      "спасе": 9052,
      "вопросом": 9053,
      "произноси": 9054,
      "положении": 9055,
      "полдень": 9056,
      "спешил": 9057,
      "бросай": 9058,
      "ственным": 9059,
      "скучная": 9060,
      "скучали": 9061,
      "теряет": 9062,
      "нимся": 9063,
      "сала": 9064,
      "ген": 9065,
      "помощник": 9066,
      "победим": 9067,
      "стреми": 9068,
      "попрощаться": 9069,
      "глупосте": 9070,
      "глухой": 9071,
      "медведи": 9072,
      "пление": 9073,
      "удар": 9074,
      "разумно": 9075,
      "ботинок": 9076,
      "драго": 9077,
      "готовишь": 9078,
      "доверяешь": 9079,
      "доверяете": 9080,
      "шанта": 9081,
      "древ": 9082,
      "продаются": 9083,
      "уставился": 9084,
      "возражать": 9085,
      "предупреждали": 9086,
      "отправили": 9087,
      "путешеству": 9088,
      "опасность": 9089,
      "выключили": 9090,
      "привыкнуть": 9091,
      "чёрное": 9092,
      "бессмысле": 9093,
      "написана": 9094,
      "позаим": 9095,
      "строительство": 9096,
      "америки": 9097,
      "разочаровал": 9098,
      "услышали": 9099,
      "начну": 9100,
      "колесо": 9101,
      "местах": 9102,
      "квартиры": 9103,
      "полицейским": 9104,
      "обращаются": 9105,
      "являются": 9106,
      "интересуюсь": 9107,
      "пользуешься": 9108,
      "позволяйте": 9109,
      "глубокий": 9110,
      "свидания": 9111,
      "приведи": 9112,
      "солгали": 9113,
      "взрослые": 9114,
      "собственные": 9115,
      "километров": 9116,
      "худшее": 9117,
      "замке": 9118,
      "сохранить": 9119,
      "исполнится": 9120,
      "исполнилось": 9121,
      "новение": 9122,
      "рискова": 9123,
      "операцию": 9124,
      "снимай": 9125,
      "поступать": 9126,
      "ошибались": 9127,
      "разрешают": 9128,
      "рассердился": 9129,
      "орал": 9130,
      "одобря": 9131,
      "повторять": 9132,
      "ощущение": 9133,
      "проекта": 9134,
      "учителю": 9135,
      "пульт": 9136,
      "иллю": 9137,
      "удалил": 9138,
      "близнецы": 9139,
      "мертвы": 9140,
      "редине": 9141,
      "метод": 9142,
      "сменил": 9143,
      "вздремнуть": 9144,
      "вегетарианец": 9145,
      "сорока": 9146,
      "принцес": 9147,
      "обстоятельства": 9148,
      "разделяю": 9149,
      "аудитори": 9150,
      "итальян": 9151,
      "волшеб": 9152,
      "глупостей": 9153,
      "вло": 9154,
      "крё": 9155,
      "оты": 9156,
      "ожере": 9157,
      "ссе": 9158,
      "схва": 9159,
      "сэкономи": 9160,
      "ую": 9161,
      "умы": 9162,
      "увлека": 9163,
      "незаме": 9164,
      "неизвестно": 9165,
      "некоторых": 9166,
      "налоги": 9167,
      "национа": 9168,
      "поторопись": 9169,
      "нись": 9170,
      "нились": 9171,
      "каби": 9172,
      "важна": 9173,
      "тываю": 9174,
      "заинтри": 9175,
      "зарегистри": 9176,
      "довый": 9177,
      "доклад": 9178,
      "сере": 9179,
      "проделал": 9180,
      "пробежал": 9181,
      "няла": 9182,
      "лесо": 9183,
      "мнело": 9184,
      "бел": 9185,
      "беде": 9186,
[...]
